<unk>	0
<s>	0
</s>	0
n	-3.23995
\	-3.2494
▁the	-3.59723
.	-3.64691
,	-3.66352
▁of	-4.10572
▁and	-4.22487
▁to	-4.28342
▁a	-4.38423
▁in	-4.48705
u	-4.54463
_	-4.5894
-	-4.62374
":	-4.65053
▁"	-4.70539
s	-4.77795
▁is	-5.00455
▁	-5.00664
.\	-5.04009
▁{"	-5.08614
▁for	-5.21449
▁(	-5.26601
:	-5.36081
▁that	-5.38461
▁with	-5.38762
'	-5.38953
)	-5.48159
▁on	-5.55368
t	-5.65764
name	-5.69259
▁I	-5.7069
set	-5.71197
text	-5.73045
",	-5.73091
meta	-5.76423
▁\	-5.76706
pile	-5.77669
"}}	-5.77849
/	-5.78435
▁was	-5.79204
▁it	-5.82569
▁as	-5.8397
▁be	-5.86628
▁by	-5.89515
(	-5.91625
▁are	-5.94806
▁this	-5.95209
▁The	-5.97555
▁from	-5.98381
▁you	-5.98987
▁\"	-6.10375
:\	-6.10741
d	-6.13395
▁at	-6.136
▁have	-6.13689
▁=	-6.15286
▁or	-6.16256
e	-6.16768
2019	-6.20266
\"	-6.28253
▁not	-6.2991
▁an	-6.35894
201	-6.36345
00	-6.36903
▁can	-6.37291
▁were	-6.46072
a	-6.49921
2	-6.52619
▁has	-6.52951
▁will	-6.53418
▁but	-6.63713
▁which	-6.64872
nThe	-6.65565
r	-6.70246
▁your	-6.72945
c	-6.73981
nCategory	-6.82775
▁all	-6.88786
▁we	-6.89555
▁one	-6.90076
▁{\	-6.92947
▁more	-6.93599
;\	-6.94328
▁if	-6.95135
▁also	-6.97985
;	-6.98154
▁-	-6.98384
b	-6.98555
f	-6.99875
1	-6.9993
nA	-7.00098
nI	-7.02003
m	-7.02198
▁their	-7.03729
▁been	-7.0401
▁$	-7.0468
▁A	-7.06665
>\	-7.07838
▁new	-7.08506
▁use	-7.10214
▁<	-7.10454
▁my	-7.11397
▁he	-7.11595
)\	-7.1167
▁do	-7.1201
▁'	-7.13253
▁his	-7.13579
CC	-7.14527
▁when	-7.16404
▁so	-7.17532
▁they	-7.1833
▁*	-7.18833
▁time	-7.20973
▁like	-7.21114
Pile	-7.21754
▁other	-7.22505
=\"	-7.22567
▁about	-7.22852
▁out	-7.24751
▁would	-7.25103
▁there	-7.26826
x	-7.28115
▁than	-7.28483
▁using	-7.28824
▁said	-7.29249
▁after	-7.29704
▁up	-7.30168
▁who	-7.31119
PubMed	-7.31138
▁may	-7.31376
▁two	-7.31904
▁had	-7.32537
▁into	-7.32644
▁Abstracts	-7.33438
?	-7.33979
▁get	-7.34914
▁patients	-7.35646
Q	-7.3611
▁its	-7.36197
?\	-7.36338
3	-7.36639
}\	-7.37387
▁some	-7.37481
▁no	-7.38083
▁first	-7.38265
i	-7.3908
▁In	-7.4058
▁only	-7.41063
▁It	-7.42465
▁This	-7.42783
▁our	-7.43155
4	-7.44144
<	-7.45983
▁data	-7.47134
),	-7.47805
A	-7.47957
S	-7.48915
▁these	-7.49853
▁between	-7.50516
#	-7.50568
).	-7.51467
▁used	-7.51771
▁any	-7.52083
▁1	-7.5417
▁}\	-7.54456
▁what	-7.55673
StackExchange	-7.55789
▁just	-7.5636
▁such	-7.58125
$	-7.58392
);\	-7.61138
▁i	-7.61673
▁over	-7.62284
>	-7.63029
▁2	-7.63399
com	-7.63983
9	-7.66185
▁We	-7.66926
▁need	-7.67399
Text	-7.67533
▁how	-7.67877
▁should	-7.68662
▁could	-7.71047
▁people	-7.71672
re	-7.73208
▁want	-7.73357
p	-7.73599
▁me	-7.74436
://	-7.74562
▁them	-7.75666
▁function	-7.76055
0	-7.76561
▁work	-7.76604
▁well	-7.76667
5	-7.76825
▁3	-7.77697
C	-7.78261
!	-7.78841
2013	-7.79556
▁way	-7.79877
▁her	-7.79902
en	-7.80668
y	-7.81089
▁years	-7.81515
OpenWeb	-7.8161
=	-7.81799
▁most	-7.82123
▁make	-7.82217
▁study	-7.83787
▁through	-7.85191
▁both	-7.85293
[	-7.85985
▁where	-7.86306
▁during	-7.86679
▁C	-7.87671
▁high	-7.88037
▁[	-7.88422
I	-7.89011
ing	-7.89062
▁class	-7.89412
o	-7.90348
▁file	-7.91314
▁different	-7.92716
▁found	-7.93316
▁each	-7.94299
▁same	-7.94433
▁system	-7.94664
▁code	-7.95217
▁return	-7.95488
▁set	-7.95836
▁cells	-7.96907
D	-7.96989
</	-7.97401
h	-7.97404
▁know	-7.97607
▁de	-7.97766
]	-7.98363
ed	-7.98399
▁because	-7.98825
▁number	-7.99279
▁see	-7.99607
id	-7.99741
▁group	-7.99779
{	-7.99837
▁type	-7.99856
▁now	-7.99905
6	-8.00583
()	-8.00631
▁under	-8.01777
▁year	-8.01889
8	-8.02484
▁being	-8.02874
▁here	-8.03472
▁value	-8.03515
ve	-8.03638
▁while	-8.03681
▁am	-8.04195
▁before	-8.04363
▁many	-8.05976
▁He	-8.0705
(\"	-8.07076
▁very	-8.0708
//	-8.07307
▁+	-8.07453
nIn	-8.0757
▁those	-8.07893
\"\	-8.08245
▁name	-8.08758
▁:	-8.09402
▁&	-8.0948
043	-8.09588
▁public	-8.11405
in	-8.11436
▁three	-8.11534
The	-8.11857
▁following	-8.12053
th	-8.12225
7	-8.12398
▁case	-8.12926
▁information	-8.12927
to	-8.1353
▁method	-8.1394
▁made	-8.14706
▁results	-8.14783
g	-8.15438
P	-8.16331
▁last	-8.16796
▁4	-8.17212
▁she	-8.17356
2014	-8.17376
▁without	-8.17464
Wikipedia	-8.17797
▁back	-8.17878
▁even	-8.186
▁cell	-8.18929
▁help	-8.1919
▁B	-8.1966
▁{	-8.19686
▁U	-8.20005
▁treatment	-8.2045
▁end	-8.20527
▁part	-8.21236
nThis	-8.21246
▁T	-8.224
▁does	-8.22517
▁@	-8.22728
▁5	-8.23593
B	-8.23612
▁p	-8.23707
▁0	-8.23803
▁example	-8.23934
▁You	-8.24757
@	-8.24904
▁long	-8.25322
▁//	-8.25513
▁10	-8.26008
('	-8.26041
▁don	-8.26253
▁find	-8.2631
▁If	-8.26918
T	-8.27168
}	-8.27179
▁right	-8.27854
▁including	-8.28053
Github	-8.28117
▁good	-8.29226
▁control	-8.29255
▁P	-8.29756
30	-8.30586
▁did	-8.31117
▁\\	-8.31825
▁show	-8.31899
▁much	-8.33784
▁still	-8.35142
or	-8.35149
▁take	-8.3529
();\	-8.35737
▁own	-8.36186
▁us	-8.36653
▁day	-8.37552
▁present	-8.37799
k	-8.37803
▁New	-8.37937
▁line	-8.38151
▁E	-8.38347
!\	-8.39098
▁S	-8.39413
▁within	-8.39895
▁order	-8.39947
▁change	-8.40099
▁test	-8.40129
R	-8.40416
▁second	-8.40458
▁For	-8.40497
▁user	-8.40845
ll	-8.40914
v	-8.41161
▁No	-8.4128
▁non	-8.41292
nReferences	-8.41369
▁against	-8.41845
▁x	-8.41868
▁best	-8.42208
E	-8.42213
▁since	-8.4236
▁problem	-8.43688
::	-8.44097
▁state	-8.44885
▁around	-8.44929
▁provide	-8.45496
▁think	-8.45908
▁go	-8.46564
▁based	-8.46906
▁him	-8.47139
▁process	-8.47626
▁list	-8.47703
▁another	-8.47828
er	-8.47983
▁support	-8.48209
▁something	-8.48394
▁However	-8.48685
*	-8.48753
ly	-8.49255
▁available	-8.49926
▁down	-8.50208
▁possible	-8.50432
F	-8.50798
H	-8.50858
▁activity	-8.50874
03	-8.51043
L	-8.51187
▁e	-8.51356
div	-8.52399
▁model	-8.53057
▁life	-8.53336
▁team	-8.53785
▁disease	-8.54377
nYou	-8.54615
▁single	-8.54697
▁off	-8.54759
▁result	-8.54949
▁/	-8.54968
▁error	-8.55231
▁6	-8.55717
▁effect	-8.55773
▁game	-8.56342
▁associated	-8.56501
l	-8.56597
▁known	-8.56825
▁world	-8.57136
▁form	-8.57696
▁These	-8.5771
▁low	-8.58084
▁current	-8.58304
{\	-8.58497
▁analysis	-8.58564
▁home	-8.58885
▁human	-8.58994
▁days	-8.59142
▁per	-8.59582
▁site	-8.59721
▁create	-8.59746
▁level	-8.5997
nIf	-8.60329
▁every	-8.60362
▁levels	-8.60469
▁But	-8.60695
▁To	-8.60796
▁increased	-8.61055
nIt	-8.61399
▁D	-8.61578
▁image	-8.61616
▁=>	-8.61661
▁really	-8.61957
▁run	-8.62126
+	-8.62404
▁string	-8.62735
▁version	-8.62831
▁going	-8.63002
▁small	-8.63172
▁important	-8.63268
▁better	-8.63393
▁working	-8.63404
▁free	-8.63408
▁must	-8.63461
▁next	-8.63507
▁development	-8.63553
▁able	-8.63666
▁significant	-8.63681
▁specific	-8.63767
▁children	-8.63822
▁having	-8.63825
▁response	-8.63875
▁place	-8.63884
▁M	-8.64149
N	-8.64161
▁area	-8.64689
X	-8.64699
->	-8.64744
▁family	-8.64776
...	-8.64915
▁post	-8.65093
▁expression	-8.65265
▁age	-8.65381
▁look	-8.65421
▁effects	-8.65549
▁page	-8.65942
▁add	-8.65997
▁</	-8.66007
▁large	-8.67263
▁c	-8.67301
▁device	-8.67551
▁changes	-8.67944
▁As	-8.68138
▁There	-8.68226
▁application	-8.6832
▁might	-8.68496
▁cases	-8.69324
▁left	-8.69492
▁water	-8.69578
▁studies	-8.69782
▁include	-8.69962
▁compared	-8.7003
▁less	-8.7017
▁health	-8.70194
▁#	-8.704
▁open	-8.70509
▁protein	-8.70857
▁higher	-8.70894
▁clinical	-8.71114
▁few	-8.71252
,\"	-8.71308
▁either	-8.71345
▁women	-8.71423
▁F	-8.71763
▁due	-8.71941
▁N	-8.7195
nHow	-8.72398
▁project	-8.72631
▁size	-8.72881
▁service	-8.72896
▁great	-8.7291
▁risk	-8.72947
M	-8.72978
▁rate	-8.7328
▁role	-8.73407
▁four	-8.73431
▁significantly	-8.73538
▁say	-8.73662
the	-8.73749
▁field	-8.73892
▁several	-8.73919
▁content	-8.74064
▁call	-8.74153
get	-8.74191
▁called	-8.74372
▁total	-8.74412
▁point	-8.75336
▁R	-8.75432
▁program	-8.75563
▁All	-8.7581
nimport	-8.75813
▁values	-8.75856
▁above	-8.7595
O	-8.76402
▁local	-8.76471
\",\	-8.76475
▁power	-8.76509
▁United	-8.76881
es	-8.773
▁groups	-8.77358
▁License	-8.77377
▁care	-8.7748
▁trying	-8.77594
www	-8.77605
▁showed	-8.78008
▁company	-8.78012
▁object	-8.78019
▁cancer	-8.78222
w	-8.78375
▁top	-8.78409
▁increase	-8.78418
▁week	-8.78471
▁sure	-8.78631
data	-8.78675
▁too	-8.78765
▁7	-8.78785
▁So	-8.78903
z	-8.79011
▁8	-8.79056
▁question	-8.7915
▁players	-8.79409
▁m	-8.79494
▁start	-8.79526
org	-8.79677
▁L	-8.7992
▁access	-8.80047
▁below	-8.80078
▁array	-8.80224
▁true	-8.80281
▁side	-8.80706
▁body	-8.80947
▁key	-8.8157
▁months	-8.81602
▁main	-8.81808
▁full	-8.81957
▁They	-8.82408
▁video	-8.82547
type	-8.83451
year	-8.83525
▁event	-8.83902
▁self	-8.83957
▁And	-8.84216
\",	-8.84661
▁research	-8.85157
▁little	-8.85203
▁early	-8.85379
nWe	-8.85438
▁20	-8.85493
▁always	-8.85524
▁similar	-8.85547
▁source	-8.86507
▁*/\	-8.86784
▁got	-8.86808
',	-8.86877
▁report	-8.86966
▁series	-8.8702
▁season	-8.87409
▁range	-8.87515
▁light	-8.87596
▁American	-8.87617
▁try	-8.87631
▁among	-8.87726
▁play	-8.8783
▁multiple	-8.88096
▁until	-8.88403
▁give	-8.88413
.\"\	-8.88417
).\	-8.88498
▁--	-8.88512
▁12	-8.88555
this	-8.88855
▁links	-8.88978
▁required	-8.89059
▁already	-8.89117
()\	-8.89508
▁University	-8.89688
string	-8.89767
▁come	-8.89787
▁systems	-8.89873
▁table	-8.90213
▁doesn	-8.90252
▁means	-8.90304
▁blood	-8.90376
G	-8.90531
▁least	-8.90791
▁put	-8.90816
▁via	-8.91089
▁various	-8.91189
and	-8.91234
▁whether	-8.91476
on	-8.91532
▁id	-8.91718
▁given	-8.91942
▁app	-8.92055
▁re	-8.92093
▁read	-8.92289
\">\	-8.9242
▁patient	-8.92528
2018	-8.92544
▁G	-8.92649
▁further	-8.92664
▁v	-8.9268
▁reported	-8.93631
▁States	-8.93637
▁why	-8.93654
▁mean	-8.93658
up	-8.93761
▁things	-8.93778
▁lower	-8.93883
USPTO	-8.93997
▁Backgrounds	-8.94139
▁H	-8.94406
▁addition	-8.94758
▁normal	-8.94847
▁potential	-8.94863
http	-8.95063
▁says	-8.95559
&	-8.95695
K	-8.9634
▁later	-8.96367
▁times	-8.9669
▁works	-8.97243
int	-8.97508
▁according	-8.97922
▁often	-8.9801
▁County	-8.98416
▁lot	-8.98753
▁experience	-8.98916
▁var	-8.9938
▁major	-8.99851
▁making	-9.00095
▁design	-9.00111
▁b	-9.00116
▁view	-9.00279
▁solution	-9.00343
nTo	-9.00553
▁related	-9.00655
▁along	-9.00698
-1	-9.00866
▁http	-9.00885
▁surface	-9.0137
▁film	-9.01524
▁growth	-9.01657
▁f	-9.01663
▁added	-9.01673
▁K	-9.01808
▁never	-9.01869
▁quality	-9.01939
is	-9.01988
▁position	-9.02018
▁check	-9.02044
▁again	-9.02089
▁structure	-9.02142
▁conditions	-9.02181
j	-9.02243
▁business	-9.02291
▁X	-9.02604
▁text	-9.02645
▁won	-9.02711
include	-9.02877
▁performance	-9.03016
▁simple	-9.03177
▁>	-9.03316
▁done	-9.03379
▁devices	-9.03379
▁methods	-9.03472
▁looking	-9.03586
based	-9.03697
▁When	-9.03838
▁release	-9.0405
▁told	-9.04306
▁common	-9.04396
html	-9.04459
▁however	-9.04531
▁15	-9.04579
▁O	-9.04696
▁issue	-9.04917
▁man	-9.0513
▁else	-9.05147
▁provided	-9.05409
▁action	-9.05496
($	-9.05623
▁across	-9.05651
▁observed	-9.05685
▁community	-9.0655
V	-9.06697
▁==	-9.06831
▁old	-9.07026
▁performed	-9.07033
▁space	-9.07104
▁30	-9.07215
▁factors	-9.07216
▁gene	-9.0728
▁let	-9.07302
▁received	-9.07458
▁million	-9.07595
▁d	-9.07708
▁features	-9.07803
▁government	-9.07884
▁included	-9.07923
▁real	-9.08039
▁keep	-9.08212
▁five	-9.08214
▁doing	-9.08225
▁school	-9.08281
▁void	-9.08315
▁website	-9.08775
▁course	-9.08847
▁y	-9.08864
▁today	-9.08871
▁services	-9.09111
▁period	-9.09221
▁display	-9.09263
▁acid	-9.09372
▁general	-9.09444
▁9	-9.09476
Name	-9.09654
▁head	-9.09894
▁server	-9.10198
▁far	-9.10313
▁together	-9.10414
▁production	-9.10561
▁love	-9.1062
\");\	-9.10699
▁described	-9.1078
nFor	-9.10796
▁getting	-9.10884
nWhat	-9.10969
▁country	-9.11367
test	-9.11399
▁%	-9.114
▁products	-9.11983
▁$\\	-9.1209
▁tried	-9.12283
▁files	-9.1229
▁She	-9.12476
▁created	-9.126
▁respectively	-9.12649
▁population	-9.12916
▁approach	-9.13032
▁members	-9.13057
px	-9.13432
▁output	-9.13578
▁short	-9.13694
▁become	-9.14117
▁One	-9.144
▁int	-9.14578
time	-9.14604
▁t	-9.14822
▁h	-9.1516
▁product	-9.15213
▁date	-9.15254
▁final	-9.15286
▁National	-9.15296
nSo	-9.15451
▁users	-9.15465
value	-9.15594
▁instead	-9.15898
▁species	-9.15902
frac	-9.1612
▁developed	-9.16616
old	-9.16793
▁pressure	-9.1688
▁thing	-9.17443
▁city	-9.17466
▁V	-9.17591
▁media	-9.17641
▁s	-9.17655
▁Trump	-9.17989
▁State	-9.18113
▁software	-9.18328
▁That	-9.18438
▁therapy	-9.18512
▁invention	-9.1908
nExternal	-9.1912
▁review	-9.19137
▁though	-9.19267
▁future	-9.19542
...\	-9.19546
▁J	-9.19671
▁On	-9.19701
▁network	-9.19824
▁member	-9.19979
▁World	-9.20183
0\	-9.20201
▁running	-9.20452
al	-9.20453
▁seems	-9.20527
▁cannot	-9.20748
▁once	-9.20759
js	-9.20772
▁input	-9.20916
▁11	-9.21199
▁inside	-9.21287
▁primary	-9.21352
▁currently	-9.21369
php	-9.21631
▁pre	-9.21885
nBut	-9.21929
]\	-9.2199
▁seen	-9.22329
▁needs	-9.22406
li	-9.22436
end	-9.22618
▁recent	-9.22652
nAs	-9.22854
key	-9.22964
▁}	-9.22983
▁private	-9.23152
2026	-9.23453
▁la	-9.23846
▁Our	-9.23921
▁follow	-9.23998
▁month	-9.24
▁1,	-9.24002
▁properties	-9.24004
▁events	-9.2404
▁bit	-9.24104
▁factor	-9.24115
file	-9.24321
▁away	-9.24428
▁suggest	-9.2456
▁determine	-9.24661
▁May	-9.24768
▁After	-9.24833
▁released	-9.2489
▁element	-9.2501
▁past	-9.25021
▁energy	-9.25032
▁online	-9.25038
▁yet	-9.25112
▁anti	-9.25251
▁York	-9.25401
▁law	-9.25434
▁particular	-9.2559
▁police	-9.25631
▁actually	-9.25667
▁100	-9.25804
▁likely	-9.25939
▁color	-9.26043
▁history	-9.26111
▁weeks	-9.26127
▁cause	-9.26359
String	-9.26633
▁region	-9.26904
▁shows	-9.2709
▁memory	-9.27183
▁percent	-9.2743
▁City	-9.27504
▁At	-9.27513
▁US	-9.27549
▁big	-9.27575
▁complex	-9.27685
▁OF	-9.27709
▁students	-9.2773
▁answer	-9.27789
new	-9.27794
▁former	-9.27821
Y	-9.27823
▁hand	-9.27906
▁South	-9.28179
▁My	-9.2835
▁require	-9.28424
▁positive	-9.28561
▁social	-9.28565
▁link	-9.28729
▁types	-9.28844
▁hours	-9.28927
▁third	-9.2894
▁original	-9.28977
▁build	-9.29113
▁With	-9.29148
▁message	-9.29384
▁person	-9.29644
▁cost	-9.297
▁food	-9.29866
▁material	-9.29877
▁points	-9.29949
▁16	-9.29986
▁shown	-9.30034
▁standard	-9.30091
▁enough	-9.30169
ID	-9.30169
▁base	-9.30282
▁makes	-9.30509
▁web	-9.30542
▁difference	-9.30546
▁property	-9.30565
▁games	-9.30693
Type	-9.30733
▁index	-9.30753
▁target	-9.30784
▁involved	-9.30838
▁false	-9.30964
▁live	-9.3097
▁management	-9.31048
▁*\	-9.31089
▁un	-9.31111
▁evidence	-9.31201
▁close	-9.31203
▁problems	-9.31232
▁lead	-9.31281
▁took	-9.31309
▁search	-9.31629
▁air	-9.3166
▁book	-9.31677
▁drug	-9.31699
▁started	-9.31887
▁art	-9.3237
▁located	-9.32403
▁contact	-9.32426
▁death	-9.32573
306	-9.32578
▁complete	-9.32662
▁copy	-9.3287
▁variable	-9.33089
▁allow	-9.33263
▁presence	-9.33288
▁obtained	-9.33351
▁car	-9.33396
▁please	-9.3342
nThere	-9.33538
▁hard	-9.33541
▁record	-9.33663
▁amount	-9.337
log	-9.33701
▁+/-	-9.33864
▁identified	-9.34
▁includes	-9.3419
▁men	-9.34436
▁14	-9.34501
▁additional	-9.34541
▁expected	-9.34552
▁understand	-9.34588
▁needed	-9.34674
▁etc	-9.34809
▁DNA	-9.34829
2.	-9.3489
▁g	-9.3492
▁String	-9.35045
▁medical	-9.35096
▁move	-9.35447
nWhen	-9.35463
▁write	-9.36201
▁database	-9.36249
▁provides	-9.36311
no	-9.36418
▁tissue	-9.36472
▁easy	-9.36528
▁special	-9.36528
▁whole	-9.36796
▁March	-9.36866
▁six	-9.36879
▁probably	-9.36919
▁heart	-9.37262
▁What	-9.37482
▁address	-9.37487
▁effective	-9.37601
▁reduced	-9.3765
▁active	-9.3771
of	-9.37754
▁default	-9.37801
▁music	-9.37833
▁co	-9.3802
▁fact	-9.38201
▁near	-9.38225
▁news	-9.38479
▁came	-9.38553
▁technology	-9.38597
nHe	-9.38625
▁elements	-9.38632
▁weight	-9.38711
▁comes	-9.38735
▁article	-9.38764
%	-9.38855
▁statement	-9.38926
▁Court	-9.39008
▁idea	-9.39159
▁null	-9.39293
▁areas	-9.39311
▁North	-9.39421
▁static	-9.39691
▁particularly	-9.39747
man	-9.39761
▁request	-9.39779
▁ever	-9.39782
user	-9.39991
▁OR	-9.40263
');\	-9.4052
▁18	-9.40715
▁style	-9.40791
W	-9.40839
▁flow	-9.40926
▁24	-9.4099
▁images	-9.41066
▁path	-9.41106
▁night	-9.41138
▁building	-9.41144
npublic	-9.41162
1.	-9.41173
▁lines	-9.41181
▁designed	-9.41466
▁email	-9.41543
nvar	-9.41695
▁option	-9.41735
▁treated	-9.41786
▁didn	-9.41818
▁issues	-9.4191
▁tumor	-9.41964
▁loss	-9.42155
▁money	-9.42185
▁published	-9.42208
1\	-9.42228
▁account	-9.42365
▁recently	-9.42373
▁status	-9.42387
▁others	-9.4279
▁print	-9.42794
▁terms	-9.42853
▁System	-9.42878
▁brain	-9.43171
▁individual	-9.4323
▁court	-9.43355
▁anything	-9.43619
function	-9.43652
▁market	-9.43732
▁feel	-9.43756
▁o	-9.43765
▁someone	-9.44094
▁rather	-9.44112
▁models	-9.4414
q	-9.44274
▁half	-9.44312
▁store	-9.44374
▁played	-9.44416
my	-9.4445
▁Here	-9.44496
▁child	-9.44502
▁signal	-9.44503
▁android	-9.44648
out	-9.44663
Id	-9.44685
▁thought	-9.44799
▁story	-9.44849
▁language	-9.44854
▁vs	-9.44861
U	-9.44863
▁50	-9.45015
▁length	-9.45035
▁revealed	-9.45075
▁June	-9.45104
net	-9.45106
▁training	-9.45273
▁command	-9.45351
▁questions	-9.45372
▁certain	-9.45419
▁previous	-9.45491
script	-9.45626
▁January	-9.45641
);	-9.45802
▁II	-9.45915
▁paper	-9.45927
▁studied	-9.46012
▁surgery	-9.46027
▁const	-9.46175
▁directly	-9.46183
▁details	-9.46193
▁13	-9.46284
▁mg	-9.46368
▁considered	-9.4646
▁clear	-9.4649
class	-9.46513
▁House	-9.46623
▁location	-9.46828
▁taken	-9.46868
▁job	-9.46976
▁differences	-9.47111
):\	-9.47152
▁operation	-9.47189
▁reference	-9.47252
▁column	-9.4742
nAnd	-9.47433
▁environment	-9.47456
▁District	-9.47547
▁greater	-9.47752
▁fine	-9.47841
▁update	-9.47844
▁April	-9.47855
▁receptor	-9.47979
▁que	-9.47998
▁July	-9.48
list	-9.48067
▁especially	-9.48086
▁President	-9.48094
▁r	-9.48141
▁kind	-9.48372
▁functions	-9.48445
▁useful	-9.48581
▁rats	-9.48611
▁prior	-9.48765
▁findings	-9.48896
▁young	-9.49054
one	-9.49294
▁produced	-9.49297
▁How	-9.49326
▁offer	-9.49395
▁held	-9.499
Data	-9.4994
▁determined	-9.50021
▁Google	-9.50033
▁unique	-9.50315
▁relationship	-9.5032
like	-9.50447
▁ability	-9.50452
▁See	-9.50478
input	-9.50486
▁reason	-9.50533
▁anyone	-9.50547
▁John	-9.50587
line	-9.50627
▁query	-9.50669
▁minutes	-9.50721
▁rates	-9.50823
nHere	-9.50878
▁double	-9.50905
▁applications	-9.50967
▁binding	-9.50983
\";\	-9.50995
This	-9.50998
▁looks	-9.5101
▁background	-9.51084
▁player	-9.51163
▁went	-9.51382
▁unit	-9.51382
▁match	-9.51485
▁taking	-9.51518
▁button	-9.51554
▁item	-9.51592
▁mice	-9.51641
▁THE	-9.51731
▁limited	-9.51742
\")\	-9.51742
▁average	-9.51747
term	-9.51772
▁options	-9.51829
▁male	-9.5186
▁wrong	-9.52236
▁computer	-9.52361
able	-9.52373
io	-9.52468
nIs	-9.52526
List	-9.52553
▁title	-9.52578
▁School	-9.52691
▁face	-9.52771
▁l	-9.53024
▁football	-9.5314
nSee	-9.53521
▁highly	-9.53544
',\	-9.5361
▁practice	-9.5363
as	-9.5366
▁stage	-9.53689
▁impact	-9.53692
----------------	-9.53782
induced	-9.53877
▁defined	-9.53931
ers	-9.54046
▁items	-9.54107
▁deal	-9.54117
1,	-9.54117
▁25	-9.54153
▁improve	-9.5417
https	-9.54293
▁white	-9.54424
▁correct	-9.54554
▁share	-9.54559
['	-9.54675
▁built	-9.54737
size	-9.5474
▁everything	-9.54798
▁diagnosis	-9.54874
▁proteins	-9.54916
▁parameters	-9.54922
▁...	-9.54991
▁block	-9.55109
▁selected	-9.55153
▁step	-9.55261
▁security	-9.55291
▁novel	-9.55367
▁vehicle	-9.55541
▁measured	-9.55677
▁pain	-9.55695
▁followed	-9.55792
We	-9.55798
▁generally	-9.55811
▁select	-9.55872
▁concentration	-9.55909
▁components	-9.56191
▁front	-9.5631
▁previously	-9.56377
▁continue	-9.56381
▁believe	-9.56609
▁established	-9.56707
▁St	-9.57026
path	-9.57047
▁October	-9.57128
▁en	-9.57141
▁numbers	-9.572
▁phase	-9.57213
▁plan	-9.57269
▁temperature	-9.57271
▁almost	-9.57357
▁sites	-9.57473
▁load	-9.57559
▁necessary	-9.5756
▁September	-9.57724
▁relates	-9.57808
▁samples	-9.57895
▁late	-9.57989
▁W	-9.58103
▁ago	-9.58272
044	-9.58297
nMy	-9.58351
▁upon	-9.58412
▁feature	-9.58479
item	-9.58538
▁mechanism	-9.58661
▁writing	-9.58714
▁simply	-9.58863
▁difficult	-9.59192
▁},\	-9.59281
▁distribution	-9.59373
▁longer	-9.59446
▁outside	-9.59465
▁infection	-9.59492
▁document	-9.59502
▁->	-9.59588
▁pattern	-9.59655
0430\	-9.59764
▁League	-9.60049
▁national	-9.60078
▁written	-9.60186
▁December	-9.60354
▁distributed	-9.60361
▁click	-9.60414
▁room	-9.60455
st	-9.60547
▁caused	-9.60551
▁bone	-9.60657
▁industry	-9.60739
▁caption	-9.60909
▁contains	-9.60961
▁asked	-9.60977
▁November	-9.61114
cI	-9.61264
▁pass	-9.61462
▁hope	-9.61549
▁General	-9.61617
▁receive	-9.61626
▁CD	-9.61709
▁screen	-9.61736
J	-9.61794
▁strong	-9.61913
▁house	-9.61917
▁host	-9.61976
▁itself	-9.61979
▁subjects	-9.61985
▁dose	-9.62165
▁latest	-9.62188
▁17	-9.62231
▁party	-9.62247
▁black	-9.62249
▁sample	-9.62311
▁named	-9.62313
▁decision	-9.62526
▁August	-9.6257
\">	-9.62663
▁America	-9.62668
▁applied	-9.62668
▁price	-9.62716
for	-9.62727
▁plasma	-9.62738
▁reading	-9.62743
▁sub	-9.62855
_{	-9.62904
▁decreased	-9.62919
▁center	-9.62954
▁office	-9.63076
▁technique	-9.63083
▁matter	-9.63196
▁activities	-9.6321
▁usually	-9.63301
▁condition	-9.63379
nOn	-9.63429
▁proposed	-9.63578
▁personal	-9.63669
▁physical	-9.63696
▁script	-9.63773
▁mass	-9.63792
de	-9.63806
▁reports	-9.63826
▁quite	-9.64185
▁global	-9.64231
▁allows	-9.64247
▁presented	-9.6436
▁births	-9.64424
▁turn	-9.64562
▁stop	-9.64618
▁By	-9.64693
▁improved	-9.64708
05	-9.64836
▁section	-9.64912
▁gas	-9.64918
▁career	-9.64939
▁character	-9.64999
▁https	-9.65099
▁component	-9.65292
▁map	-9.65299
▁tell	-9.65365
▁remove	-9.65404
▁uses	-9.65525
▁thus	-9.65685
▁overall	-9.65696
▁concentrations	-9.65824
it	-9.65836
▁client	-9.65897
▁India	-9.66014
▁molecular	-9.66084
▁films	-9.66087
▁cross	-9.66128
▁"[	-9.66368
▁Friday	-9.6639
▁send	-9.66406
▁natural	-9.66446
▁direct	-9.66516
▁rights	-9.6657
▁album	-9.66639
add	-9.66659
▁behind	-9.66692
▁administration	-9.66701
▁skin	-9.66703
▁phone	-9.66787
▁became	-9.66854
▁frequency	-9.66912
▁injury	-9.6698
▁takes	-9.67
▁materials	-9.67006
▁functional	-9.67012
▁coming	-9.67034
▁companies	-9.67066
▁2,	-9.6715
▁investigated	-9.6719
▁serum	-9.67354
▁announced	-9.6739
▁al	-9.67418
▁instance	-9.67477
▁forward	-9.67579
▁formation	-9.67616
7\	-9.67699
▁goal	-9.6787
at	-9.68024
▁nothing	-9.68043
▁tool	-9.68088
Value	-9.68107
▁ratio	-9.68197
▁initial	-9.68202
born	-9.68403
▁stress	-9.68483
To	-9.68515
▁resistance	-9.6861
20	-9.68666
▁word	-9.68766
In	-9.68815
';\	-9.68861
▁force	-9.68905
▁China	-9.68928
▁West	-9.68951
self	-9.68999
index	-9.6906
▁Copyright	-9.6907
▁layer	-9.691
▁height	-9.69144
related	-9.69145
day	-9.69188
▁liver	-9.69397
var	-9.69483
define	-9.69588
by	-9.69593
▁box	-9.69596
▁demonstrated	-9.69632
▁context	-9.69717
▁survival	-9.69785
▁pretty	-9.69858
▁mobile	-9.6989
▁testing	-9.69911
▁window	-9.69938
▁reduce	-9.69959
▁leading	-9.7003
▁interest	-9.70063
▁row	-9.70099
▁/>\	-9.70102
='	-9.70102
10	-9.70225
▁format	-9.70237
0442\	-9.70339
0435\	-9.70401
▁beta	-9.70403
▁central	-9.70462
3\	-9.70493
▁Department	-9.70617
right	-9.70807
▁entire	-9.70977
▁hit	-9.7099
▁processing	-9.7103
nThanks	-9.71057
table	-9.7108
▁storage	-9.71097
▁More	-9.71106
if	-9.71172
date	-9.71173
▁speed	-9.71309
▁techniques	-9.71392
▁knowledge	-9.71413
nadd	-9.71495
▁Monday	-9.71506
▁induced	-9.71575
▁combination	-9.71591
▁damage	-9.71593
▁worked	-9.71631
td	-9.71703
▁k	-9.71789
▁hospital	-9.71796
▁variety	-9.71892
▁understanding	-9.71906
▁Center	-9.71937
▁mechanisms	-9.71944
left	-9.71976
▁missing	-9.7199
▁chronic	-9.72018
▁negative	-9.72056
▁win	-9.72081
▁collection	-9.72203
▁red	-9.72301
▁wanted	-9.72326
▁exposure	-9.72358
▁mode	-9.72358
▁acute	-9.72464
form	-9.72525
uff	-9.72565
▁genes	-9.72599
▁safety	-9.72631
▁reaction	-9.72974
▁width	-9.73046
▁Is	-9.73092
▁living	-9.73139
▁drive	-9.73149
▁visit	-9.73153
▁evaluated	-9.73169
▁package	-9.73257
▁Windows	-9.73436
nand	-9.73463
▁connection	-9.7347
].\	-9.73533
▁February	-9.73611
▁parts	-9.73756
▁machine	-9.73803
▁wide	-9.73863
▁count	-9.73891
▁focus	-9.73937
▁behavior	-9.73968
▁international	-9.74105
▁volume	-9.74125
▁40	-9.74154
▁pay	-9.74183
It	-9.74267
▁From	-9.74301
▁sequence	-9.74396
▁identify	-9.74434
▁fun	-9.74436
▁import	-9.74537
▁official	-9.74593
▁relative	-9.74634
▁setting	-9.74646
▁oil	-9.7497
▁president	-9.74998
▁alpha	-9.74999
▁district	-9.74999
▁containing	-9.75021
▁increasing	-9.75049
▁controls	-9.75154
▁station	-9.75195
▁reduction	-9.75365
▁metal	-9.75521
min	-9.75565
▁subject	-9.75587
▁Of	-9.75602
▁library	-9.75622
▁Mr	-9.75636
▁multi	-9.7567
.\"	-9.75863
▁countries	-9.75868
▁An	-9.75875
▁appears	-9.75876
▁changed	-9.75939
co	-9.75952
▁female	-9.75957
▁words	-9.7597
▁vitro	-9.76002
title	-9.76024
▁});\	-9.7603
▁activation	-9.76124
▁rest	-9.76305
▁basis	-9.76349
▁formed	-9.76354
▁purpose	-9.76413
▁band	-9.76586
▁Facebook	-9.76648
▁seem	-9.76696
];\	-9.76761
▁loop	-9.76825
▁tests	-9.76896
▁conventional	-9.77094
code	-9.77173
▁Public	-9.77176
▁develop	-9.77207
▁21	-9.77318
▁animals	-9.7732
▁states	-9.77346
▁woman	-9.77404
▁English	-9.77451
▁success	-9.77538
app	-9.77543
▁examined	-9.77552
▁lost	-9.77646
▁friends	-9.77649
▁interface	-9.77713
color	-9.77878
▁individuals	-9.77893
▁Art	-9.77973
▁easily	-9.77981
▁except	-9.7799
▁symptoms	-9.78047
lib	-9.7805
▁detected	-9.78098
▁professional	-9.78301
▁therefore	-9.78308
▁$(	-9.7833
url	-9.78334
▁failure	-9.78344
▁led	-9.7835
▁processes	-9.78435
▁save	-9.78624
▁Group	-9.78687
▁soon	-9.7879
().	-9.78806
▁install	-9.78824
nclass	-9.78846
nif	-9.78859
▁detection	-9.78875
▁List	-9.78882
▁heat	-9.78901
nHowever	-9.78912
▁characteristics	-9.79046
▁playing	-9.7905
▁prevent	-9.79145
▁custom	-9.7917
▁club	-9.79454
▁muscle	-9.79562
▁culture	-9.79574
▁term	-9.79646
▁California	-9.79685
▁digital	-9.79743
▁bring	-9.79989
▁di	-9.7999
▁saying	-9.80005
▁gives	-9.8003
▁generated	-9.80056
▁bar	-9.80113
▁tested	-9.80171
▁existing	-9.80177
▁sent	-9.80178
▁Tuesday	-9.80306
▁independent	-9.80454
▁San	-9.80561
length	-9.80624
Test	-9.80645
▁node	-9.80683
▁although	-9.80772
▁healthy	-9.80804
▁Now	-9.80835
▁providing	-9.80835
▁track	-9.80947
▁staff	-9.81005
▁earlier	-9.81147
▁photo	-9.81262
all	-9.81278
▁TV	-9.81477
')\	-9.81535
▁appear	-9.81677
▁3,	-9.81809
▁confirmed	-9.8193
▁News	-9.81954
▁comments	-9.8196
▁education	-9.82084
▁variables	-9.82183
▁ways	-9.82476
▁imaging	-9.82578
▁died	-9.82611
▁trial	-9.82751
▁board	-9.82943
alpha	-9.82978
▁requires	-9.82988
▁Pat	-9.83018
▁objects	-9.83061
▁min	-9.83256
le	-9.83274
▁influence	-9.83404
▁cut	-9.8342
▁19	-9.8349
▁0,	-9.83664
▁break	-9.83836
-2	-9.8389
▁responses	-9.83948
▁daily	-9.84069
▁transfer	-9.84074
▁internal	-9.84169
▁remains	-9.84253
▁British	-9.84366
▁Thursday	-9.84467
▁International	-9.84571
▁separate	-9.84587
View	-9.8462
os	-9.8466
▁completely	-9.84691
▁bad	-9.8472
▁AND	-9.84731
▁membrane	-9.84762
▁produce	-9.84802
▁Some	-9.84838
▁60	-9.84863
▁While	-9.84864
▁et	-9.84901
0438\	-9.84935
▁module	-9.84946
▁degree	-9.85017
▁adding	-9.85048
▁learn	-9.85195
▁campaign	-9.85233
▁Wednesday	-9.85274
▁structures	-9.85284
▁card	-9.85355
▁starting	-9.85356
▁throughout	-9.85488
▁creating	-9.85509
▁popular	-9.85611
▁leave	-9.85783
▁Although	-9.85868
body	-9.86021
▁procedure	-9.86047
▁couple	-9.86149
▁everyone	-9.862
▁association	-9.86201
▁evaluate	-9.86361
▁comment	-9.86438
').	-9.86474
▁His	-9.86536
▁?	-9.86574
txt	-9.86581
▁0\	-9.86672
▁2016	-9.8673
▁communication	-9.86808
▁London	-9.86892
▁rat	-9.87168
▁circuit	-9.87202
▁Park	-9.87276
▁console	-9.87444
▁tools	-9.87468
field	-9.87651
▁UK	-9.8768
▁policy	-9.87824
▁cover	-9.87837
▁virus	-9.87903
\").	-9.87905
▁returns	-9.87972
▁town	-9.87992
▁stay	-9.88042
▁__	-9.88087
▁indicate	-9.88112
▁European	-9.88205
▁offers	-9.88214
▁whereas	-9.88287
▁Sunday	-9.88288
▁score	-9.88339
page	-9.88409
▁Do	-9.88449
▁1\	-9.88571
▁learning	-9.88639
Object	-9.88676
▁relatively	-9.88676
};\	-9.88722
▁ensure	-9.88759
▁resources	-9.88765
array	-9.88896
▁direction	-9.88921
▁basic	-9.88923
▁safe	-9.89084
▁drugs	-9.89134
▁extra	-9.89221
▁sex	-9.89248
▁aim	-9.89515
▁Twitter	-9.89567
▁severe	-9.89665
▁root	-9.89862
▁typically	-9.89931
▁fast	-9.89939
▁combined	-9.90534
▁mind	-9.9056
link	-9.90628
▁API	-9.90669
▁apparatus	-9.9073
▁achieve	-9.90757
▁wrote	-9.90758
▁wall	-9.90786
▁regular	-9.90928
style	-9.90948
▁syndrome	-9.91026
▁task	-9.91059
▁critical	-9.91143
nNow	-9.91162
github	-9.91194
▁customers	-9.91197
▁&&	-9.9121
32	-9.91226
5\	-9.91257
▁Australia	-9.91307
▁domain	-9.91323
▁highest	-9.91361
▁characters	-9.91424
▁regarding	-9.91449
▁War	-9.91469
treturn	-9.91475
))\	-9.91507
▁born	-9.91557
▁super	-9.91577
▁seven	-9.91713
▁contrast	-9.91731
cThe	-9.91771
▁attention	-9.91776
▁Also	-9.91808
▁meet	-9.91893
▁began	-9.91906
▁gets	-9.91917
▁investigation	-9.9194
▁Please	-9.92034
nhttp	-9.92124
▁programs	-9.92139
▁song	-9.92179
▁obtain	-9.92181
ul	-9.92279
▁plant	-9.92378
▁engine	-9.92453
▁Thus	-9.92517
map	-9.92519
▁22	-9.92535
nAfter	-9.92543
kg	-9.92611
▁meeting	-9.92632
▁goes	-9.92674
▁appropriate	-9.92733
xml	-9.92789
▁ground	-9.92896
▁el	-9.92899
▁Saturday	-9.92905
▁sense	-9.92935
▁!=	-9.92992
ic	-9.93024
true	-9.93086
▁Street	-9.93086
▁allowed	-9.93098
▁alone	-9.93211
▁High	-9.93238
▁completed	-9.93249
▁failed	-9.9325
▁apply	-9.93339
▁decrease	-9.93385
▁Your	-9.93413
▁expect	-9.93432
▁capacity	-9.93434
▁whose	-9.93464
▁Y	-9.93489
▁names	-9.93565
▁Data	-9.93584
▁fire	-9.93585
tif	-9.93605
▁larger	-9.93612
▁isolated	-9.93617
▁connected	-9.93634
content	-9.93737
▁liquid	-9.93751
specific	-9.93786
▁surgical	-9.93802
▁Inc	-9.93864
});\	-9.9393
File	-9.94092
▁charge	-9.94104
▁com	-9.9411
▁morning	-9.94208
▁served	-9.94236
▁First	-9.9424
2)	-9.94381
▁conducted	-9.94393
▁political	-9.94475
▁forms	-9.94502
▁IN	-9.94506
▁Canada	-9.94573
▁die	-9.94587
▁sign	-9.94627
▁diseases	-9.9466
▁successful	-9.94675
▁Field	-9.94679
▁suggested	-9.94745
▁delivery	-9.94756
[]	-9.9483
▁choice	-9.9484
span	-9.95066
▁2017	-9.95119
▁electronic	-9.95144
go	-9.95193
dependent	-9.95227
▁approximately	-9.95256
▁fields	-9.95266
▁avoid	-9.95295
><	-9.95338
▁border	-9.95387
▁Day	-9.95398
▁situation	-9.95414
ca	-9.95584
▁outcome	-9.95603
▁IS	-9.95661
▁IL	-9.95664
▁consider	-9.95668
button	-9.95748
▁recorded	-9.95778
▁closed	-9.95788
▁blog	-9.95819
▁adult	-9.95882
▁saw	-9.95895
▁sound	-9.95904
▁CI	-9.9597
▁platform	-9.96008
▁round	-9.96047
▁projects	-9.96264
width	-9.96471
▁motor	-9.96472
▁handle	-9.96509
image	-9.967
▁College	-9.96726
▁log	-9.96786
▁older	-9.96793
py	-9.96796
▁4,	-9.96799
▁solid	-9.96807
▁Health	-9.96811
▁ask	-9.96842
▁channel	-9.96927
▁perfect	-9.96929
▁frame	-9.96951
▁2015	-9.96985
▁Cup	-9.97037
▁fully	-9.97045
free	-9.97053
▁fixed	-9.9706
str	-9.97103
br	-9.97128
▁lung	-9.97172
▁vivo	-9.9721
▁Washington	-9.97214
▁0;\	-9.9732
0441\	-9.97355
4\	-9.97411
do	-9.97431
▁url	-9.97468
▁investigate	-9.97565
▁join	-9.97585
with	-9.9781
am	-9.97863
▁affected	-9.97877
mm	-9.9797
▁places	-9.97972
▁def	-9.97988
▁selection	-9.98031
sp	-9.98063
▁hold	-9.98069
▁core	-9.98091
▁expressed	-9.9813
▁maximum	-9.98184
▁exactly	-9.98224
config	-9.98238
▁href	-9.98277
▁resulting	-9.98316
nNo	-9.98421
▁eight	-9.9852
▁mouse	-9.9865
▁sources	-9.98661
▁evaluation	-9.9867
▁White	-9.98679
▁removed	-9.98698
ac	-9.98743
▁chain	-9.9878
state	-9.98859
▁genetic	-9.98983
0440\	-9.991
tr	-9.99126
\")	-9.99174
▁mortality	-9.99208
row	-9.99306
▁limit	-9.99365
▁auto	-9.99367
db	-9.99422
▁plans	-9.99424
▁medium	-9.99431
▁agents	-9.99491
▁actual	-9.99503
▁Since	-9.99586
▁developing	-9.99611
▁costs	-9.99782
bar	-9.99789
▁occurred	-9.99896
▁scale	-9.99962
53	-10.0001
bb	-10.0007
ar	-10.0008
▁choose	-10.0013
▁television	-10.0021
▁2014	-10.0022
▁Central	-10.0029
></	-10.0033
▁perform	-10.0034
▁Two	-10.0045
ie	-10.0051
▁matrix	-10.0051
▁figure	-10.0057
▁election	-10.0061
▁returned	-10.0069
▁records	-10.007
▁showing	-10.0082
▁enzyme	-10.0086
▁filter	-10.0094
▁directory	-10.0094
▁profile	-10.0096
▁bottom	-10.0107
▁2018	-10.011
▁j	-10.0142
▁compounds	-10.0148
▁decided	-10.0156
▁village	-10.0161
▁std	-10.0166
▁external	-10.0167
▁org	-10.0168
▁ready	-10.0168
ia	-10.0171
▁2012	-10.0175
bin	-10.0176
▁Japanese	-10.0176
▁outcomes	-10.0177
▁echo	-10.0178
▁Co	-10.018
from	-10.0185
Living	-10.0187
▁browser	-10.0195
▁Android	-10.0204
▁operations	-10.0217
▁opening	-10.0218
▁measure	-10.0239
▁assessed	-10.0241
▁Ca	-10.0245
▁radio	-10.0249
▁ANY	-10.0252
▁experimental	-10.0255
American	-10.0256
cWe	-10.026
▁birth	-10.026
▁press	-10.0264
▁families	-10.0281
▁attack	-10.0287
json	-10.0289
▁director	-10.0293
▁deaths	-10.0298
▁road	-10.03
▁parent	-10.0301
▁renal	-10.0308
▁solutions	-10.031
▁increases	-10.032
▁portion	-10.0325
▁moved	-10.0326
▁race	-10.0331
▁fluid	-10.0332
▁java	-10.0333
▁src	-10.0338
▁Texas	-10.0341
▁degrees	-10.0352
▁immediately	-10.0353
▁Apple	-10.0357
▁summer	-10.036
▁measures	-10.037
▁installed	-10.0384
▁28	-10.0392
▁movement	-10.0393
12	-10.0398
▁La	-10.0398
▁Get	-10.0408
▁analyzed	-10.0416
▁classes	-10.0418
fc	-10.0419
head	-10.0421
▁Or	-10.043
▁parameter	-10.0435
▁breast	-10.0446
▁alternative	-10.0451
▁placed	-10.0451
api	-10.0452
▁:=	-10.0457
▁teams	-10.0458
▁patterns	-10.0462
▁responsible	-10.0466
▁fans	-10.0472
▁session	-10.0486
▁units	-10.0488
▁[\	-10.049
nthe	-10.0492
▁legal	-10.0509
▁De	-10.0511
▁Q	-10.0524
▁moving	-10.0525
▁visual	-10.0526
▁towards	-10.0528
▁rules	-10.0537
beta	-10.054
▁affect	-10.0541
▁Not	-10.0542
▁23	-10.0542
▁operating	-10.0542
▁ID	-10.0546
view	-10.055
1)	-10.0553
▁Chinese	-10.0569
nWith	-10.0571
▁French	-10.0579
▁picture	-10.058
▁financial	-10.0587
▁nature	-10.0593
error	-10.0597
▁opportunity	-10.0603
Exception	-10.0605
group	-10.0607
▁driver	-10.0609
▁gave	-10.0614
nfor	-10.0625
▁giving	-10.0628
▁comparison	-10.0629
not	-10.063
▁contain	-10.0639
▁movie	-10.0639
▁generate	-10.0641
▁chance	-10.0642
▁Therefore	-10.0646
nOne	-10.0653
▁nearly	-10.0659
▁interaction	-10.0662
▁military	-10.0667
$$\	-10.0668
▁Dr	-10.0669
9\	-10.0675
308	-10.068
▁poor	-10.0686
▁moment	-10.0689
▁assessment	-10.0695
▁quickly	-10.07
▁se	-10.0702
▁middle	-10.0717
▁Service	-10.0719
▁<<	-10.0735
▁char	-10.0741
▁student	-10.0743
▁shape	-10.0743
▁buy	-10.0744
▁panel	-10.0757
▁density	-10.0761
param	-10.0762
▁exist	-10.0763
▁random	-10.0767
▁Software	-10.0768
▁sometimes	-10.077
▁define	-10.0774
▁officials	-10.0785
▁remain	-10.0795
▁equipment	-10.08
▁relevant	-10.0802
▁talk	-10.0802
pi	-10.0805
▁Foundation	-10.0811
ae	-10.0811
▁respect	-10.0818
▁calls	-10.0827
post	-10.0833
▁lack	-10.0833
▁discussed	-10.0834
▁tag	-10.0836
▁motion	-10.0849
▁construction	-10.0855
▁carried	-10.0856
▁therapeutic	-10.0868
▁causes	-10.0874
▁extends	-10.0877
object	-10.0882
▁entry	-10.0886
▁controlled	-10.0891
▁camera	-10.0897
▁indicated	-10.0901
▁traditional	-10.0901
▁supported	-10.0902
ea	-10.0911
▁exercise	-10.0913
val	-10.0917
▁parents	-10.0917
▁sort	-10.0935
▁note	-10.0937
{\\	-10.0938
▁Free	-10.094
▁East	-10.0945
label	-10.0945
3.	-10.0955
▁war	-10.0962
version	-10.0963
304	-10.0968
▁agent	-10.0969
▁regions	-10.0972
▁passed	-10.0984
▁appeared	-10.0996
▁upper	-10.101
▁download	-10.1013
▁animal	-10.1031
▁organization	-10.1038
▁David	-10.1039
▁template	-10.1039
▁Europe	-10.1043
▁specifically	-10.1049
▁transport	-10.1055
▁ideas	-10.1056
▁2013	-10.1057
▁eye	-10.1064
▁optical	-10.1065
▁supply	-10.1065
▁oral	-10.1076
less	-10.1084
8\	-10.1089
11	-10.1089
▁distance	-10.1106
));\	-10.1107
(2)	-10.111
▁literature	-10.1114
▁documentation	-10.1125
▁piece	-10.1136
sum	-10.1151
▁Can	-10.1158
▁collected	-10.116
▁growing	-10.1184
▁largest	-10.1187
\"></	-10.1188
▁shot	-10.1197
▁argument	-10.1207
▁shared	-10.1207
▁folder	-10.121
void	-10.1214
▁sensitivity	-10.1221
▁themselves	-10.1223
▁switch	-10.1223
▁mm	-10.1228
▁fit	-10.1232
▁stuff	-10.1235
▁modern	-10.1238
▁essential	-10.1248
▁lives	-10.1262
▁lesions	-10.1267
▁implementation	-10.1268
▁Japan	-10.1274
▁cycle	-10.128
▁HIV	-10.1281
▁receiving	-10.1282
▁transmission	-10.1285
▁reach	-10.1286
▁replace	-10.1295
▁follows	-10.1299
▁settings	-10.1299
▁FOR	-10.1305
▁cardiac	-10.1307
▁England	-10.1309
▁synthesis	-10.1322
▁assess	-10.1325
▁author	-10.1325
▁serve	-10.1328
▁fall	-10.134
▁nice	-10.1343
▁cellular	-10.1349
mathbb	-10.1355
▁assembly	-10.136
▁steps	-10.1362
▁watch	-10.1366
▁describe	-10.1367
▁land	-10.1374
▁generation	-10.138
▁happy	-10.1403
Service	-10.1408
))	-10.1414
▁configuration	-10.1429
▁FROM	-10.1438
▁pro	-10.1443
▁German	-10.1446
▁NOT	-10.1448
▁tax	-10.145
el	-10.1452
nAccording	-10.1466
New	-10.147
▁inhibition	-10.1474
▁stored	-10.1481
▁billion	-10.1483
▁beginning	-10.1488
▁occur	-10.1488
▁license	-10.1493
▁advance	-10.1493
▁micro	-10.1495
▁smaller	-10.1499
nThat	-10.15
▁opened	-10.1502
▁corresponding	-10.1503
▁mother	-10.1507
▁2010	-10.1513
▁adults	-10.1519
▁friend	-10.1526
▁fix	-10.1529
▁incidence	-10.1547
▁label	-10.1552
▁enter	-10.1559
▁)\	-10.156
▁notice	-10.1561
▁correlation	-10.1561
▁...\	-10.1563
▁complications	-10.1571
▁happen	-10.1578
▁exists	-10.1585
▁magnetic	-10.1594
▁met	-10.1596
▁Furthermore	-10.1601
▁constant	-10.161
max	-10.1611
android	-10.1623
▁Both	-10.1627
▁finally	-10.1633
▁Party	-10.1635
rd	-10.1636
▁efficient	-10.1646
▁suggests	-10.1648
▁secondary	-10.165
▁green	-10.1651
▁plus	-10.1651
▁PM	-10.1652
▁chemical	-10.1659
▁200	-10.1663
▁advanced	-10.1665
▁controller	-10.1666
core	-10.1667
▁sales	-10.1671
▁challenge	-10.1681
▁achieved	-10.1683
▁immune	-10.1688
Item	-10.1691
▁commercial	-10.1691
▁enjoy	-10.1693
▁substrate	-10.1703
▁);\	-10.1706
▁books	-10.1707
▁disorders	-10.1718
▁directed	-10.1734
64	-10.1734
▁refer	-10.174
off	-10.1744
▁express	-10.1749
▁strategy	-10.175
cell	-10.1754
▁runs	-10.1756
▁hot	-10.1762
▁calling	-10.1766
▁equal	-10.1767
ad	-10.1768
▁efficiency	-10.1782
▁manner	-10.1782
nAll	-10.1793
▁onto	-10.1796
▁automatically	-10.1803
){\	-10.1805
ness	-10.1811
▁Association	-10.1813
▁Re	-10.1814
▁Using	-10.1817
▁customer	-10.1825
2-	-10.1828
▁tumors	-10.1846
\",\"	-10.1847
++	-10.1849
▁interesting	-10.1852
Get	-10.1867
▁95%	-10.1871
▁vote	-10.1876
Date	-10.1878
AS	-10.1881
▁duration	-10.1894
▁Most	-10.1896
▁changing	-10.1898
▁diabetes	-10.19
node	-10.191
▁errors	-10.191
ch	-10.191
▁River	-10.1912
start	-10.194
which	-10.1941
▁killed	-10.1942
info	-10.1948
▁benefit	-10.1959
▁majority	-10.1966
▁2.0	-10.1968
▁strength	-10.1969
▁versus	-10.1969
▁driving	-10.1975
My	-10.1975
▁Council	-10.1987
▁Minister	-10.199
▁federal	-10.199
▁nuclear	-10.1992
▁Version	-10.1994
▁voltage	-10.1996
▁empty	-10.2005
▁26	-10.2007
▁tree	-10.2009
▁benefits	-10.2009
▁signed	-10.2013
▁receptors	-10.2015
select	-10.202
▁SQL	-10.2026
▁compare	-10.2033
▁finding	-10.2035
▁port	-10.2039
▁reasons	-10.2042
css	-10.2054
▁dynamic	-10.2055
No	-10.2058
▁z	-10.2059
▁deep	-10.2063
/*	-10.2066
so	-10.2071
▁travel	-10.2072
▁serious	-10.2078
▁pair	-10.2086
▁electrical	-10.2093
▁updated	-10.2093
▁interested	-10.2095
▁connect	-10.2095
▁Internet	-10.2096
▁Me	-10.2104
▁James	-10.2105
em	-10.2117
▁rare	-10.2119
img	-10.212
());\	-10.2121
▁insulin	-10.213
▁Go	-10.2136
▁Red	-10.2138
Error	-10.214
▁yourself	-10.214
▁act	-10.2152
▁!	-10.2153
Image	-10.2154
▁drop	-10.2158
▁improvement	-10.216
df	-10.2166
▁regulation	-10.2173
nCan	-10.2178
▁requirements	-10.218
▁glucose	-10.2181
▁During	-10.2184
result	-10.2187
▁extension	-10.2189
▁workers	-10.219
▁2011	-10.2191
▁wait	-10.2192
▁description	-10.2199
▁protection	-10.2199
query	-10.2203
65	-10.2205
nFrom	-10.2207
▁Black	-10.2217
▁continued	-10.2221
▁spent	-10.2223
▁effort	-10.223
▁native	-10.2231
Path	-10.224
▁posted	-10.2241
▁clean	-10.2249
▁desired	-10.2257
top	-10.2258
People	-10.2258
▁turned	-10.2259
2022	-10.2261
▁plays	-10.2265
▁sleep	-10.2271
▁environmental	-10.2272
▁worth	-10.2273
main	-10.228
▁resulted	-10.2281
▁France	-10.2289
▁importance	-10.23
▁toward	-10.2303
▁huge	-10.2305
▁begin	-10.2307
▁procedures	-10.2309
▁maybe	-10.2309
▁thread	-10.2311
▁beautiful	-10.2313
▁attempt	-10.232
▁father	-10.2325
▁5,	-10.235
▁Microsoft	-10.235
▁recovery	-10.2358
▁despite	-10.2362
▁w	-10.2366
▁Open	-10.2371
nfrom	-10.2374
▁protected	-10.2376
▁para	-10.238
be	-10.2388
▁HTML	-10.2392
▁Test	-10.2395
▁listed	-10.2405
▁agreed	-10.2406
ab	-10.2415
▁solve	-10.243
▁Each	-10.2434
import	-10.2434
▁blue	-10.2444
▁virtual	-10.2444
base	-10.2446
▁participants	-10.2448
▁brand	-10.2453
▁himself	-10.2462
**	-10.2464
▁Java	-10.2467
$$	-10.2467
▁rule	-10.2474
Context	-10.2479
▁trade	-10.2482
],	-10.2489
For	-10.2489
▁convert	-10.2491
▁experiments	-10.2495
layout	-10.2497
▁eyes	-10.2498
▁Indian	-10.2501
▁planning	-10.2504
▁reached	-10.2504
▁skills	-10.2506
▁assay	-10.2507
)$	-10.2513
use	-10.2513
▁manager	-10.2514
▁injection	-10.2515
▁carcinoma	-10.2516
me	-10.2519
▁pick	-10.2522
▁Description	-10.2524
level	-10.2531
6\	-10.2531
▁noted	-10.2533
▁characterized	-10.2535
▁interactions	-10.2537
▁biological	-10.254
▁department	-10.2542
apache	-10.2543
▁sexual	-10.2547
▁agreement	-10.2548
nAt	-10.2572
Key	-10.2574
▁stable	-10.2576
▁Use	-10.2581
▁economic	-10.2581
▁guide	-10.2583
▁Time	-10.2583
▁scene	-10.2583
▁weekend	-10.2583
▁signals	-10.2585
▁demonstrate	-10.2585
src	-10.2597
▁successfully	-10.2605
▁monitoring	-10.2606
▁brought	-10.2607
▁efficacy	-10.262
▁prepared	-10.2621
nWhy	-10.2623
▁wife	-10.2627
▁enable	-10.2631
▁God	-10.2632
▁exchange	-10.2652
▁App	-10.2653
▁interview	-10.2658
▁Games	-10.266
▁Michael	-10.2662
▁artery	-10.2665
▁efforts	-10.2669
▁coach	-10.2679
height	-10.2681
▁measurements	-10.2684
▁linear	-10.2684
sh	-10.2686
▁resolution	-10.2689
▁carbon	-10.2698
NIH	-10.27
▁electric	-10.2702
▁heard	-10.2713
nPlease	-10.2714
model	-10.272
▁explain	-10.272
▁27	-10.2731
▁Paul	-10.2732
▁operator	-10.2735
▁implement	-10.2739
▁ng	-10.2749
century	-10.2757
▁excellent	-10.2758
▁survey	-10.2765
nWhile	-10.2778
▁pages	-10.2779
▁launch	-10.2784
nfunction	-10.2797
▁Germany	-10.2799
▁Al	-10.2801
▁vector	-10.2802
▁hour	-10.2803
▁represent	-10.2804
count	-10.2806
▁hair	-10.2809
▁info	-10.2815
//\	-10.2815
▁door	-10.2817
▁Pro	-10.2817
16	-10.2836
▁container	-10.284
nusing	-10.2846
▁goals	-10.2848
▁modified	-10.2848
▁letter	-10.286
pm	-10.286
▁fuel	-10.2861
Model	-10.2866
▁frequently	-10.2866
▁fight	-10.2873
▁authors	-10.2876
▁valid	-10.2884
▁Web	-10.2886
▁finished	-10.2887
ba	-10.2892
▁TO	-10.2897
▁derived	-10.29
▁Because	-10.2901
res	-10.2903
▁ones	-10.2904
create	-10.2909
▁leader	-10.2923
▁contract	-10.2926
▁columns	-10.2927
User	-10.2944
▁estimated	-10.2948
▁becomes	-10.2948
▁repair	-10.2951
▁mRNA	-10.2957
▁pathway	-10.2959
dev	-10.2962
ce	-10.2965
▁occurs	-10.2981
▁oxygen	-10.2982
▁URL	-10.2983
▁nil	-10.2989
▁plants	-10.2991
xPorter	-10.2993
▁schools	-10.2994
▁route	-10.2999
▁favorite	-10.3
▁menu	-10.3003
▁tissues	-10.3011
▁none	-10.3015
▁5-	-10.3015
▁File	-10.3015
▁Russia	-10.3017
Array	-10.3022
▁modify	-10.3026
▁Western	-10.3032
▁exposed	-10.3032
2026\	-10.3036
Enron	-10.3036
▁AS	-10.3052
▁hands	-10.3054
▁stimulation	-10.3058
OR	-10.3059
▁terminal	-10.3061
▁otherwise	-10.3063
▁intervention	-10.3066
▁heavy	-10.3074
source	-10.3085
▁star	-10.3089
▁traffic	-10.3091
▁Just	-10.3094
Class	-10.3095
▁girl	-10.3096
▁diagnostic	-10.3097
▁touch	-10.3099
▁criteria	-10.31
▁enhanced	-10.3101
▁thinking	-10.3102
ml	-10.3102
Set	-10.3123
▁helps	-10.3123
▁purchase	-10.3126
▁sold	-10.3127
▁prevalence	-10.313
▁kids	-10.315
endif	-10.3159
ity	-10.3159
']	-10.3169
sub	-10.317
▁stand	-10.3171
▁strategies	-10.3177
▁happens	-10.3178
▁encoding	-10.3183
▁leads	-10.3188
▁Florida	-10.3189
▁NO	-10.3201
▁mentioned	-10.3203
▁resource	-10.3203
▁sets	-10.3204
\".\	-10.3207
land	-10.3207
▁commonly	-10.3215
▁PC	-10.3215
▁1)	-10.3218
▁mainly	-10.322
▁90	-10.3221
▁da	-10.3225
▁introduced	-10.3225
box	-10.3232
▁Any	-10.3232
▁der	-10.3236
▁sensitive	-10.3252
▁messages	-10.3255
▁32	-10.3256
▁rapid	-10.326
option	-10.3262
▁approaches	-10.3263
▁Office	-10.3265
▁laser	-10.3275
▁Police	-10.3277
▁unknown	-10.3277
▁Research	-10.3283
▁2008	-10.3287
▁gold	-10.3287
▁north	-10.3291
▁sum	-10.3293
▁college	-10.3297
▁rows	-10.33
▁forces	-10.3305
If	-10.3306
/**\	-10.331
▁joined	-10.331
▁Such	-10.3319
▁proper	-10.3319
init	-10.332
▁protect	-10.3324
▁exception	-10.3324
▁underwent	-10.3331
▁floor	-10.3332
open	-10.3345
java	-10.3352
▁catch	-10.3356
▁annual	-10.3357
default	-10.3367
▁GNU	-10.3369
▁structural	-10.337
▁Africa	-10.3373
▁antibodies	-10.3379
▁photos	-10.3382
▁properly	-10.3384
▁easier	-10.3386
You	-10.3392
▁beyond	-10.3394
▁Post	-10.3397
▁gain	-10.3399
▁Obama	-10.3402
1-	-10.3403
','	-10.3405
▁NULL	-10.3411
server	-10.3417
▁battery	-10.3421
▁vascular	-10.3423
ta	-10.3426
0432\	-10.3432
click	-10.3434
ni	-10.3438
▁clients	-10.3441
▁screening	-10.3448
▁concept	-10.3452
age	-10.3454
▁linked	-10.3465
▁III	-10.347
▁80	-10.3473
foo	-10.3473
▁wants	-10.3475
▁draw	-10.348
****************	-10.3482
▁inter	-10.3494
▁century	-10.3494
▁correlated	-10.3497
▁views	-10.3499
▁stories	-10.35
▁Union	-10.35
▁quick	-10.3511
ECT	-10.3518
▁trials	-10.352
50	-10.3523
te	-10.3524
25	-10.3524
▁articles	-10.3525
da	-10.3526
see	-10.353
▁slow	-10.3535
▁pH	-10.3535
▁neurons	-10.3539
▁suitable	-10.3542
▁competition	-10.3542
▁appearance	-10.3546
nAlso	-10.3549
With	-10.355
▁progress	-10.3552
▁internet	-10.3552
▁cent	-10.3554
▁USA	-10.3555
▁wish	-10.3556
▁Project	-10.3558
▁incident	-10.3567
200	-10.3569
▁foreign	-10.3575
▁alcohol	-10.3577
▁actions	-10.358
▁conference	-10.3585
▁500	-10.3593
▁science	-10.36
▁pulmonary	-10.3601
ation	-10.3602
▁Institute	-10.3604
▁credit	-10.3611
▁correctly	-10.3617
▁scores	-10.3625
▁widely	-10.3628
▁radiation	-10.3635
▁password	-10.3636
▁interval	-10.3637
range	-10.3649
(\\	-10.3659
▁theory	-10.366
Info	-10.366
▁del	-10.3662
▁happened	-10.3671
▁31	-10.3675
\"/>\	-10.3683
▁amino	-10.3688
ray	-10.369
▁discuss	-10.3697
▁push	-10.3701
▁bill	-10.3711
ion	-10.3716
▁mid	-10.3721
▁Name	-10.3724
▁str	-10.3725
▁ring	-10.3728
▁referred	-10.3732
▁Thanks	-10.3732
▁coronary	-10.3738
▁hear	-10.3738
▁examination	-10.3739
di	-10.3746
▁extremely	-10.375
▁Road	-10.3751
▁Summer	-10.3764
▁stream	-10.3766
▁PHP	-10.3767
▁Moreover	-10.3767
Add	-10.3767
▁candidate	-10.3768
▁consistent	-10.3769
2+	-10.377
▁Air	-10.3771
▁south	-10.3777
nBy	-10.3783
▁continuous	-10.3787
▁nor	-10.3788
▁capable	-10.3791
package	-10.3791
▁myself	-10.3793
▁raised	-10.3799
▁29	-10.38
▁remote	-10.38
▁joint	-10.3802
▁spring	-10.3824
▁remember	-10.383
▁organic	-10.3832
nAny	-10.3837
▁experienced	-10.3845
![](	-10.3848
▁($	-10.3853
▁objective	-10.3857
▁managed	-10.3858
▁Russian	-10.3858
▁dog	-10.3861
▁analyses	-10.3865
0103	-10.3868
▁depending	-10.3872
▁peripheral	-10.3874
▁demand	-10.3874
▁rise	-10.3875
▁displayed	-10.3876
▁Apache	-10.3877
▁};\	-10.3885
▁maintain	-10.3885
▁owner	-10.3888
▁measurement	-10.3892
▁struct	-10.3895
▁nine	-10.3902
▁err	-10.3902
}{	-10.3902
▁paid	-10.3919
▁edge	-10.3925
▁vehicles	-10.3933
▁claims	-10.3935
png	-10.3937
▁King	-10.3937
▁Be	-10.3943
▁max	-10.3947
▁transition	-10.3949
▁Club	-10.395
tag	-10.3955
▁recording	-10.3957
▁nerve	-10.3957
nhttps	-10.3968
-3	-10.3969
▁Circuit	-10.3974
▁delete	-10.3975
Controller	-10.3982
▁fish	-10.3984
▁minimum	-10.3984
▁ahead	-10.3985
▁Man	-10.3988
▁zero	-10.3996
▁employees	-10.3998
rs	-10.4003
▁residents	-10.4009
▁ten	-10.401
ist	-10.4013
▁molecules	-10.4014
▁hearing	-10.4017
la	-10.4033
▁composition	-10.4044
▁intended	-10.4047
▁slightly	-10.4056
▁housing	-10.4056
▁cast	-10.4056
State	-10.406
▁distinct	-10.4061
▁inner	-10.4062
▁glass	-10.4063
▁diet	-10.4064
▁attached	-10.4064
show	-10.4067
▁mental	-10.4069
▁Canadian	-10.4071
▁fan	-10.408
▁le	-10.4085
▁mixed	-10.4091
▁Australian	-10.4095
▁capital	-10.4096
▁stock	-10.4096
▁sports	-10.41
▁Code	-10.4104
▁integrated	-10.4105
▁fill	-10.4107
▁partial	-10.4107
arg	-10.4107
▁electron	-10.4112
▁mechanical	-10.4114
▁header	-10.4116
▁clearly	-10.4118
▁html	-10.4119
▁plate	-10.4122
▁"1.	-10.4125
▁voice	-10.4134
event	-10.4135
▁antibody	-10.4135
▁communities	-10.4137
▁sale	-10.4138
▁remaining	-10.414
▁limitations	-10.4157
▁signaling	-10.4165
83	-10.4178
▁suggesting	-10.4178
▁songs	-10.4179
▁Patients	-10.4186
▁copyright	-10.4187
▁advantage	-10.419
▁detect	-10.419
begin	-10.4196
Time	-10.42
ally	-10.4205
▁()	-10.4207
▁disorder	-10.4208
▁consumption	-10.4223
▁accuracy	-10.4224
▁remained	-10.4225
▁offered	-10.4231
▁Star	-10.4231
ee	-10.4242
▁seat	-10.4245
▁examine	-10.4268
▁float	-10.4275
cc	-10.4279
Request	-10.429
▁continues	-10.4296
▁Congress	-10.4299
▁compliance	-10.4307
':	-10.4307
▁stability	-10.4318
▁definition	-10.432
▁removal	-10.4322
▁subsequent	-10.4325
▁ball	-10.4327
side	-10.4331
run	-10.4353
▁appeal	-10.4359
▁Server	-10.4362
const	-10.4365
▁Times	-10.4367
▁matches	-10.4368
▁audio	-10.4371
some	-10.4374
▁extent	-10.4378
▁absence	-10.4379
▁allowing	-10.4384
▁2-	-10.4385
300	-10.4386
305	-10.4388
ndef	-10.4388
▁league	-10.4398
▁ON	-10.4402
▁contribute	-10.4412
▁Olympics	-10.4413
▁(1)	-10.4415
▁guess	-10.4418
col	-10.4424
▁/*	-10.4429
▁margin	-10.4433
cIt	-10.4434
▁calcium	-10.4445
nfunc	-10.4453
▁(1	-10.4454
▁framework	-10.4461
▁prices	-10.4462
▁daughter	-10.4467
▁+=	-10.4467
FreeLa	-10.4468
▁firm	-10.4478
▁documents	-10.448
▁opinion	-10.448
nNote	-10.4485
▁meaning	-10.4486
▁fat	-10.4488
▁font	-10.4492
dir	-10.4497
home	-10.4498
▁Her	-10.4505
▁seconds	-10.4506
▁35	-10.4507
▁sell	-10.451
▁strain	-10.4517
▁confidence	-10.4522
▁issued	-10.4524
▁mostly	-10.4529
web	-10.453
▁aspects	-10.4532
▁///	-10.4541
▁Python	-10.4542
▁pregnancy	-10.4545
▁recommend	-10.4547
▁attribute	-10.4547
▁filed	-10.4547
▁charges	-10.4552
▁ex	-10.4553
].	-10.4556
▁charged	-10.4557
▁3-	-10.4563
▁inhibitor	-10.4569
▁officer	-10.4571
▁feet	-10.4574
▁throw	-10.4585
▁wild	-10.4585
▁extended	-10.4586
▁chief	-10.4591
▁Mac	-10.4591
▁accurate	-10.4593
▁category	-10.4593
▁calculated	-10.4595
▁2009	-10.4596
NET	-10.4604
▁twice	-10.4607
▁typical	-10.4609
▁fresh	-10.4614
scale	-10.4616
▁asking	-10.4618
▁dead	-10.4618
▁valve	-10.462
▁0;	-10.4622
▁2\	-10.4624
▁implied	-10.4626
Map	-10.4627
▁kinase	-10.4633
▁looked	-10.4635
▁powerful	-10.4636
▁Other	-10.4637
▁RNA	-10.465
▁python	-10.4652
▁emergency	-10.4655
build	-10.4661
▁thanks	-10.4661
▁percentage	-10.4666
message	-10.4668
18	-10.4668
▁strains	-10.467
▁proliferation	-10.4675
number	-10.4678
▁relation	-10.468
▁Home	-10.4681
request	-10.4684
▁Best	-10.4697
▁senior	-10.4699
▁2000	-10.47
▁advice	-10.4703
}$	-10.471
nint	-10.4711
▁potentially	-10.4712
▁videos	-10.4717
client	-10.4718
▁identification	-10.4721
nSince	-10.4742
▁acids	-10.4743
▁applicable	-10.4751
▁protocol	-10.4754
▁amazing	-10.4759
▁cool	-10.4768
▁reserved	-10.4774
▁underlying	-10.4775
▁dark	-10.4776
▁whatever	-10.4776
document	-10.4778
Count	-10.4789
false	-10.479
▁Company	-10.4793
[\"	-10.4796
▁networks	-10.4799
▁soft	-10.4801
▁locations	-10.4801
▁launched	-10.4801
▁Invention	-10.4808
▁equivalent	-10.4811
▁injuries	-10.482
▁examples	-10.4821
▁George	-10.4822
▁whom	-10.4827
▁Set	-10.4832
▁metabolism	-10.4838
▁discovered	-10.4844
cm	-10.4844
▁replacement	-10.4845
▁bank	-10.4848
read	-10.485
▁Let	-10.4852
▁causing	-10.4852
▁OS	-10.4853
nOur	-10.4854
▁contained	-10.4854
▁Church	-10.4855
▁posts	-10.4858
▁Super	-10.4862
▁spot	-10.4863
▁Smith	-10.4868
nYour	-10.4869
▁origin	-10.4874
▁regression	-10.4878
bit	-10.4879
▁numerous	-10.488
▁fourth	-10.488
▁aged	-10.4883
num	-10.4884
▁ice	-10.4884
▁focused	-10.4898
▁guys	-10.4899
II	-10.49
▁Na	-10.49
Open	-10.4909
back	-10.4911
▁involving	-10.4912
ge	-10.4916
▁con	-10.4916
▁reducing	-10.4918
▁peak	-10.4921
util	-10.4923
▁2006	-10.4923
▁faster	-10.4923
▁possibly	-10.4932
▁According	-10.4933
▁Bay	-10.4936
▁Act	-10.4951
▁straight	-10.4955
▁Read	-10.4956
▁Hall	-10.4957
▁Services	-10.4959
order	-10.496
Override	-10.4962
▁African	-10.497
();	-10.4981
first	-10.4982
▁albums	-10.4985
▁debut	-10.4985
find	-10.499
▁represents	-10.4991
▁45	-10.4994
▁setup	-10.5
▁arrested	-10.5002
▁episode	-10.5007
▁carry	-10.501
▁sensor	-10.5011
example	-10.5015
▁sheet	-10.5017
▁possibility	-10.5025
fa	-10.5025
▁Island	-10.5026
▁technical	-10.5035
▁Donald	-10.504
mail	-10.5041
▁Type	-10.5041
▁stem	-10.5044
▁starts	-10.5055
▁semiconductor	-10.5061
▁concerns	-10.5064
▁helped	-10.5065
▁biggest	-10.507
Event	-10.5072
▁talking	-10.5073
▁stroke	-10.5079
nShe	-10.5083
long	-10.5086
▁jobs	-10.509
▁balance	-10.5098
▁reviewed	-10.5105
▁split	-10.5108
nnamespace	-10.5109
email	-10.5113
▁recommended	-10.5115
▁shift	-10.5117
▁signs	-10.5118
▁grow	-10.5122
▁6,	-10.5124
▁CT	-10.5127
▁depression	-10.5128
ra	-10.513
▁register	-10.513
As	-10.5132
▁edit	-10.5141
action	-10.5144
▁versions	-10.5144
▁net	-10.5147
▁Don	-10.5152
CD	-10.5154
▁agency	-10.5155
▁70	-10.5159
▁dogs	-10.5161
nLet	-10.5165
▁cold	-10.5167
▁Mark	-10.517
▁Date	-10.517
All	-10.5171
▁Further	-10.5176
▁differentiation	-10.5179
▁church	-10.518
▁unless	-10.5184
▁sea	-10.5185
')	-10.519
▁contents	-10.5191
▁girls	-10.5191
▁covered	-10.5192
son	-10.5198
▁Lake	-10.52
▁AM	-10.5201
▁Application	-10.5204
Content	-10.5215
▁WITHOUT	-10.5218
ism	-10.5229
▁infections	-10.5229
▁square	-10.523
▁maintenance	-10.5238
▁Many	-10.5242
](	-10.5245
▁100%	-10.5247
▁spread	-10.525
▁explore	-10.525
Button	-10.5251
▁Green	-10.5252
▁cards	-10.5253
From	-10.5255
▁relationships	-10.5257
▁speech	-10.5258
module	-10.5264
▁inflammatory	-10.5266
▁Only	-10.5268
▁extract	-10.5276
▁Team	-10.5279
▁baseline	-10.5279
▁Committee	-10.5288
▁leaders	-10.5288
▁cm	-10.5291
▁stations	-10.5291
▁noise	-10.5299
▁artist	-10.5306
property	-10.5323
MS	-10.5332
ization	-10.5339
▁User	-10.5344
▁finish	-10.5349
▁detailed	-10.5355
▁dependent	-10.5358
▁iron	-10.5363
▁leaving	-10.537
▁Object	-10.5372
▁challenges	-10.5377
sqrt	-10.5384
▁claim	-10.5388
▁officers	-10.539
ED	-10.5392
▁Los	-10.5402
usr	-10.5405
▁Press	-10.5405
App	-10.5408
▁gone	-10.5418
but	-10.5423
▁div	-10.5425
▁expensive	-10.5432
▁val	-10.544
▁Hospital	-10.544
15	-10.5442
search	-10.5444
▁train	-10.5449
▁felt	-10.5461
▁Board	-10.5465
##	-10.5467
▁strongly	-10.547
▁master	-10.5477
▁Class	-10.5478
▁pictures	-10.5487
▁antigen	-10.5496
▁walk	-10.5499
▁induction	-10.5506
▁supporting	-10.5507
▁appreciated	-10.5507
▁detail	-10.551
▁promote	-10.5515
parent	-10.5518
dimensional	-10.5519
▁explained	-10.5525
▁executive	-10.5528
▁Robert	-10.5528
▁becoming	-10.5529
▁diagnosed	-10.553
▁humans	-10.5536
▁variation	-10.5537
▁employed	-10.5538
▁Society	-10.5548
▁apoptosis	-10.5549
▁Patent	-10.5555
▁thousands	-10.5558
▁cars	-10.5558
▁Division	-10.556
▁populations	-10.5563
ry	-10.5566
▁supports	-10.5566
▁iPhone	-10.5568
▁namespace	-10.5569
▁progression	-10.557
▁married	-10.5573
▁minor	-10.5573
Node	-10.5576
▁updates	-10.5578
▁regional	-10.5581
▁inhibited	-10.5582
▁poly	-10.5583
▁Carolina	-10.5586
▁JSON	-10.5589
▁channels	-10.5592
▁seeing	-10.5593
month	-10.5594
▁inhibitors	-10.5596
▁Show	-10.5599
▁elevated	-10.5599
▁requests	-10.56
Index	-10.56
▁Women	-10.5603
▁angle	-10.5604
▁windows	-10.5608
▁algorithm	-10.5613
ealand	-10.5632
google	-10.5637
▁secure	-10.5639
▁visible	-10.5647
0434\	-10.5648
▁prove	-10.5651
▁trip	-10.5652
▁definitely	-10.5653
▁perhaps	-10.5667
▁dedicated	-10.5668
▁markers	-10.5691
infty	-10.5692
▁parallel	-10.5692
nDo	-10.5694
▁48	-10.5697
Size	-10.5706
▁Three	-10.5716
▁Great	-10.5728
▁laboratory	-10.5729
Message	-10.5731
▁exact	-10.5733
▁manufacturing	-10.5734
▁Republican	-10.5735
▁footballers	-10.5743
▁hypothesis	-10.5744
$,	-10.5745
▁feed	-10.5747
▁(@	-10.5751
▁Le	-10.5752
▁roles	-10.5752
▁os	-10.5757
▁postoperative	-10.5761
▁Senate	-10.5762
▁gender	-10.5764
▁entered	-10.5764
▁marked	-10.5765
▁Even	-10.5767
▁config	-10.5771
▁metabolic	-10.5776
▁kidney	-10.5782
▁eventually	-10.5785
Manager	-10.5786
▁treat	-10.5793
root	-10.5793
▁loading	-10.5798
nconst	-10.5799
▁stages	-10.58
▁plastic	-10.5801
======\	-10.5803
▁lipid	-10.5805
▁Virginia	-10.581
▁pathways	-10.5815
▁offering	-10.5817
▁raise	-10.5817
▁Amazon	-10.5819
nvoid	-10.5827
load	-10.5831
▁aware	-10.5841
▁rock	-10.5841
▁manage	-10.5842
▁businesses	-10.5842
▁depends	-10.5843
▁mutations	-10.5854
▁Italian	-10.5857
▁Information	-10.5869
response	-10.5871
▁permissions	-10.5872
▁median	-10.5873
\":\"	-10.5882
▁Chicago	-10.5887
(){\	-10.5888
▁Long	-10.5888
▁Mexico	-10.5888
nAbout	-10.589
site	-10.5892
▁Bank	-10.5893
ling	-10.5893
▁tables	-10.5893
▁peptide	-10.5895
▁kept	-10.5895
▁Music	-10.5896
▁originally	-10.5897
▁replaced	-10.5902
mediated	-10.591
▁ended	-10.591
13	-10.5912
▁particles	-10.5914
▁recognition	-10.5918
▁reliable	-10.592
▁<-	-10.5924
ui	-10.5924
▁effectively	-10.593
▁editor	-10.593
▁purposes	-10.5936
▁economy	-10.5941
▁feedback	-10.5943
▁Game	-10.5946
status	-10.5947
▁coverage	-10.5953
▁sequences	-10.5953
▁standards	-10.5959
14	-10.5963
▁pull	-10.5966
▁WARRANTIES	-10.597
▁represented	-10.5974
per	-10.5976
▁apps	-10.5981
Table	-10.5995
▁insert	-10.5997
▁shell	-10.5998
▁implemented	-10.6003
▁aircraft	-10.6009
015	-10.601
point	-10.6013
▁Life	-10.6014
▁tab	-10.6027
▁smooth	-10.6027
▁attacks	-10.6029
▁opportunities	-10.6031
doc	-10.6034
▁dry	-10.6034
▁arm	-10.6041
▁prevention	-10.6046
▁nation	-10.6048
um	-10.6048
▁des	-10.6051
▁(2)	-10.6052
▁gun	-10.6056
▁pieces	-10.6057
(),	-10.6074
▁divided	-10.6076
):	-10.6077
$.	-10.6077
▁wear	-10.6079
format	-10.6086
block	-10.6087
:(	-10.6088
▁bool	-10.609
▁assigned	-10.6093
▁Its	-10.6093
▁registered	-10.6095
filter	-10.6099
▁miles	-10.61
▁ran	-10.6104
▁aimed	-10.6107
▁spend	-10.6108
▁parties	-10.6112
▁income	-10.6114
▁pool	-10.6119
nend	-10.6121
▁latter	-10.6121
target	-10.6124
▁partner	-10.613
ip	-10.6131
================	-10.6135
▁involvement	-10.6139
▁Award	-10.6142
▁Big	-10.6142
▁guy	-10.6144
local	-10.6148
▁leaves	-10.6151
LICENSE	-10.6152
({\	-10.6154
▁Korea	-10.616
▁300	-10.6163
▁2007	-10.6164
▁describes	-10.6164
▁Angeles	-10.6168
▁Media	-10.617
▁plane	-10.6171
Field	-10.6172
▁Championship	-10.6175
▁Football	-10.6181
▁delivered	-10.6182
▁alert	-10.6185
▁Christmas	-10.6187
▁discussion	-10.6193
Base	-10.6196
Client	-10.6197
▁conversion	-10.6199
▁baby	-10.6204
▁positions	-10.6204
▁delay	-10.6206
▁studio	-10.621
▁certainly	-10.6212
▁shares	-10.6213
▁accept	-10.6214
▁thereby	-10.6215
▁specified	-10.6219
▁recognized	-10.622
▁na	-10.6225
▁waiting	-10.6225
▁hormone	-10.6234
▁stores	-10.6242
▁BY	-10.6245
▁View	-10.6247
fold	-10.6247
▁branch	-10.6261
▁holding	-10.6263
01	-10.6264
▁Why	-10.6264
▁override	-10.6267
▁scope	-10.6268
▁reverse	-10.6283
▁People	-10.6289
▁flat	-10.6291
▁El	-10.6291
return	-10.6293
▁stated	-10.6311
▁Year	-10.6315
licenses	-10.6315
▁execute	-10.6316
▁insurance	-10.632
ley	-10.6327
▁zone	-10.6332
▁unable	-10.6332
▁theme	-10.6333
▁park	-10.634
null	-10.6348
▁weather	-10.6352
▁yield	-10.6355
▁grade	-10.6356
▁IP	-10.6361
▁usage	-10.6366
lang	-10.6368
▁keys	-10.637
▁intake	-10.6371
▁passing	-10.6371
▁indicating	-10.6375
fd	-10.6377
▁answers	-10.6378
▁cognitive	-10.6392
▁tube	-10.6401
▁identity	-10.6406
▁confirm	-10.641
▁hyper	-10.641
▁Law	-10.6412
02	-10.6419
▁arguments	-10.642
▁assume	-10.6425
▁writer	-10.6433
▁activated	-10.6433
▁tasks	-10.6438
scope	-10.6439
▁nodes	-10.644
▁ventricular	-10.6441
▁Results	-10.6445
▁diameter	-10.6447
▁compound	-10.6455
▁technologies	-10.6472
▁investment	-10.648
US	-10.6485
service	-10.6489
nSome	-10.6489
▁ship	-10.6493
nC	-10.6493
▁programming	-10.6495
▁respiratory	-10.65
▁UI	-10.6505
▁enhance	-10.6509
▁forced	-10.6516
3)	-10.6521
▁bacteria	-10.6523
▁marketing	-10.6524
▁Business	-10.6524
▁tour	-10.6526
▁excited	-10.6529
▁json	-10.6533
▁minute	-10.6537
21	-10.6539
▁winning	-10.6547
▁mission	-10.6549
▁award	-10.6549
▁counter	-10.6556
align	-10.6559
▁van	-10.6562
▁doses	-10.6563
▁bus	-10.6566
▁plugin	-10.6572
▁expansion	-10.6575
▁outer	-10.6577
▁street	-10.6577
▁Director	-10.6584
▁presentation	-10.6584
▁cardiovascular	-10.6586
write	-10.6595
▁lens	-10.6596
▁treatments	-10.6597
frame	-10.6598
▁fashion	-10.6599
▁Iran	-10.6601
▁oxide	-10.6603
License	-10.6606
▁Hill	-10.6606
▁administered	-10.6615
▁2)	-10.6616
author	-10.6632
over	-10.6634
▁disclosed	-10.664
NAME	-10.6648
Page	-10.6655
▁budget	-10.6659
▁Science	-10.6662
▁extensive	-10.6665
▁Program	-10.6666
80	-10.6668
▁newly	-10.6672
nUse	-10.6673
▁Add	-10.668
▁authorities	-10.6684
▁disk	-10.6689
▁binary	-10.6692
ma	-10.6703
▁transcription	-10.6708
▁reactions	-10.6711
▁/**\	-10.6716
ment	-10.6717
▁buildings	-10.6718
▁scheduled	-10.6718
▁abuse	-10.6719
md	-10.672
▁females	-10.6724
▁Development	-10.6728
▁ends	-10.6732
▁reviews	-10.6732
▁shooting	-10.6733
▁initially	-10.6733
▁buffer	-10.6733
▁bound	-10.6735
▁sounds	-10.6735
▁helping	-10.6739
▁medicine	-10.6745
▁Democratic	-10.6745
▁hypertension	-10.6746
▁adverse	-10.6747
▁preparation	-10.6748
▁researchers	-10.6753
way	-10.6754
▁agree	-10.6759
▁db	-10.676
▁loaded	-10.6764
▁Bar	-10.6769
▁primarily	-10.6771
▁viral	-10.6774
▁targets	-10.6774
▁reality	-10.6777
▁iOS	-10.6778
sin	-10.6783
By	-10.6786
▁milk	-10.6798
▁Their	-10.6801
▁hardware	-10.6803
▁Among	-10.6803
NO	-10.6813
▁facilities	-10.6816
▁foot	-10.682
▁functionality	-10.682
▁thin	-10.682
project	-10.6825
▁CA	-10.6827
▁proposal	-10.6829
▁logic	-10.683
Component	-10.6836
▁intensity	-10.6836
ref	-10.684
output	-10.684
▁cities	-10.684
▁Check	-10.6842
▁notes	-10.6843
▁normally	-10.6846
▁installation	-10.685
HackerNews	-10.6853
▁classic	-10.6854
▁respond	-10.6856
▁males	-10.6858
Code	-10.686
▁render	-10.6864
▁]\	-10.687
▁desirable	-10.6871
▁practices	-10.6877
▁colors	-10.6882
nto	-10.6884
▁chemotherapy	-10.6885
▁syntax	-10.6889
▁sufficient	-10.689
▁absolute	-10.6893
▁www	-10.6901
nFirst	-10.6912
▁Chief	-10.6919
▁Jan	-10.6923
▁wireless	-10.6927
▁fiber	-10.6929
▁wave	-10.693
▁division	-10.6931
▁mark	-10.6934
▁uptake	-10.6938
▁climate	-10.6938
▁strings	-10.6944
▁organizations	-10.6947
▁Studio	-10.6948
description	-10.6954
And	-10.6954
▁cable	-10.6965
▁Israel	-10.6966
▁jQuery	-10.6968
$(	-10.697
ian	-10.6971
▁axis	-10.6978
▁violence	-10.6979
current	-10.6981
▁consecutive	-10.6985
▁Medical	-10.6988
▁manually	-10.6992
▁blocks	-10.6994
▁funding	-10.7001
▁surrounding	-10.7005
▁monitor	-10.7008
▁serving	-10.7015
System	-10.7018
▁Register	-10.7021
▁schedule	-10.7021
nSELECT	-10.7021
▁husband	-10.7024
ized	-10.703
▁keeping	-10.7031
▁sides	-10.7033
▁Thomas	-10.7034
▁soil	-10.7044
3,	-10.7045
▁Brown	-10.7046
▁deliver	-10.7046
▁layout	-10.7051
▁crystal	-10.7053
▁Justice	-10.7061
▁randomized	-10.7062
▁persons	-10.7064
Number	-10.7068
▁im	-10.7069
▁determination	-10.7069
▁rapidly	-10.7078
▁artists	-10.7078
ant	-10.708
▁facility	-10.7083
Color	-10.7083
▁Related	-10.7084
▁closely	-10.7086
▁moderate	-10.7087
char	-10.7091
down	-10.7092
control	-10.7098
He	-10.71
▁Network	-10.7101
▁believed	-10.7105
▁shop	-10.7108
▁permission	-10.7113
▁conclusion	-10.7137
▁filled	-10.7137
▁CEO	-10.7139
▁neck	-10.7142
▁Bill	-10.715
▁Commission	-10.7151
▁Over	-10.7154
▁putting	-10.7159
▁\\\	-10.7162
▁feeling	-10.7164
▁ideal	-10.7166
▁7,	-10.7175
▁Government	-10.7177
▁Security	-10.7179
▁Sub	-10.718
▁boy	-10.7181
▁consists	-10.7186
▁capture	-10.7189
URL	-10.7191
17	-10.7192
▁layers	-10.7197
▁hotel	-10.7201
▁pop	-10.7201
ies	-10.7212
▁Once	-10.7213
▁DC	-10.7216
red	-10.7216
err	-10.7222
▁experiences	-10.7225
nUsing	-10.7228
▁quarter	-10.7229
▁substantial	-10.723
nThank	-10.723
56	-10.7232
▁flight	-10.7234
▁producing	-10.7239
match	-10.7239
▁knew	-10.7242
▁chart	-10.7244
▁concern	-10.7246
▁Earth	-10.7249
▁handling	-10.7251
▁inflammation	-10.7255
▁cat	-10.7261
ci	-10.7263
▁behaviour	-10.7271
context	-10.7272
▁semi	-10.7272
nexport	-10.7277
▁Clinton	-10.7278
▁CO	-10.7288
▁centre	-10.7292
▁sentence	-10.7298
3001\	-10.7299
▁transplantation	-10.7303
▁William	-10.7305
▁WHERE	-10.7316
▁bacterial	-10.7321
▁union	-10.7321
nis	-10.7325
port	-10.7332
▁login	-10.7332
obj	-10.7333
▁depth	-10.7335
▁indicates	-10.7343
▁thermal	-10.7347
▁['	-10.7357
▁surfaces	-10.7361
▁stack	-10.7363
next	-10.7364
▁cerebral	-10.7366
▁performing	-10.7372
Is	-10.7377
▁formula	-10.7378
▁Province	-10.7379
▁systemic	-10.7383
ii	-10.7387
▁warning	-10.7395
▁Army	-10.7396
check	-10.7403
▁res	-10.7407
▁planned	-10.741
▁forming	-10.7412
On	-10.7416
▁trans	-10.7418
▁36	-10.7419
<?	-10.742
▁Republic	-10.7422
▁Americans	-10.7427
▁claimed	-10.7432
▁frequent	-10.7436
▁sharing	-10.7436
▁involves	-10.7439
▁aims	-10.744
▁amounts	-10.7442
we	-10.7443
▁decades	-10.7444
▁crime	-10.7453
3002\	-10.7455
▁fail	-10.7464
il	-10.7464
▁learned	-10.7466
ate	-10.7469
▁Ireland	-10.7479
Element	-10.7481
▁accounts	-10.7482
▁lots	-10.7483
▁Management	-10.7486
▁Up	-10.7486
▁Love	-10.7486
nThey	-10.749
▁cash	-10.7491
▁waste	-10.7494
product	-10.7508
▁Jones	-10.7511
▁Academy	-10.7514
▁helpful	-10.7519
0435	-10.7521
▁Will	-10.7521
▁severity	-10.7525
▁candidates	-10.7525
▁elected	-10.7527
▁myocardial	-10.7529
▁por	-10.7529
▁flag	-10.7529
Result	-10.7534
▁Mike	-10.7536
▁machines	-10.7536
▁salt	-10.7537
▁optimal	-10.7537
▁complicated	-10.754
▁supposed	-10.7543
▁drivers	-10.7548
▁Like	-10.7548
▁Are	-10.7553
▁yes	-10.7553
▁Linux	-10.7554
eda	-10.7555
▁copies	-10.7558
Config	-10.7559
▁hidden	-10.7562
▁Tom	-10.7565
▁fraction	-10.7565
▁establish	-10.7567
▁infants	-10.7567
▁Christian	-10.757
▁welcome	-10.7571
▁spinal	-10.7575
19	-10.758
0131	-10.7585
Form	-10.7585
append	-10.7586
▁toxicity	-10.759
▁governing	-10.7591
▁edition	-10.7591
▁exit	-10.7593
▁Royal	-10.7594
▁${	-10.7595
▁secretion	-10.7598
▁ordered	-10.7599
▁extend	-10.7604
nThese	-10.7608
▁endothelial	-10.7625
▁brother	-10.7632
▁End	-10.7655
={	-10.766
▁ion	-10.7662
▁brief	-10.7669
▁cohort	-10.7675
▁knows	-10.7675
▁AT	-10.7676
▁sodium	-10.7679
▁considering	-10.768
▁architecture	-10.7686
▁Italy	-10.7686
▁predicted	-10.769
▁defense	-10.7698
▁prospective	-10.7698
▁improving	-10.7699
▁mounted	-10.7702
▁obj	-10.7705
▁selective	-10.7706
▁returning	-10.7711
▁MS	-10.7712
▁maintained	-10.7721
▁foo	-10.7722
▁dysfunction	-10.7723
▁Valley	-10.7725
▁society	-10.7732
▁Under	-10.7735
▁printing	-10.774
DB	-10.7742
▁tags	-10.7743
▁famous	-10.7743
▁10,	-10.7745
▁migration	-10.7748
▁seasons	-10.775
▁guidelines	-10.775
only	-10.7754
▁marker	-10.7754
▁?\	-10.7757
What	-10.7757
▁xmlns	-10.776
▁400	-10.7761
▁Boston	-10.7772
▁vertical	-10.7773
▁homes	-10.7773
npackage	-10.7773
▁Good	-10.7776
▁Lee	-10.7776
▁quantitative	-10.7777
▁accepted	-10.7778
▁Second	-10.7781
template	-10.7781
▁topic	-10.7784
▁Paris	-10.7786
▁statistically	-10.7788
▁approved	-10.7792
▁"#	-10.7795
▁greatly	-10.7795
jpg	-10.7796
▁50%	-10.7798
▁decide	-10.7801
▁regulatory	-10.7806
▁Power	-10.7807
▁evening	-10.7808
([	-10.7815
▁judge	-10.7822
▁reporting	-10.7829
▁specificity	-10.7833
▁anterior	-10.7833
▁payment	-10.7838
▁Library	-10.7841
▁sections	-10.7841
▁Image	-10.7843
▁Grand	-10.7848
▁bug	-10.7849
nMore	-10.7855
ero	-10.7857
▁owners	-10.7865
▁stars	-10.7869
▁limits	-10.7869
▁meant	-10.7869
▁differential	-10.787
▁apparent	-10.7875
▁apparently	-10.7876
positive	-10.7879
▁operated	-10.7879
nprint	-10.7881
▁founded	-10.7886
summary	-10.789
▁Peter	-10.7891
▁gift	-10.7896
▁upcoming	-10.7901
▁minister	-10.7904
▁complexes	-10.7905
▁Chris	-10.7906
There	-10.7916
▁mutation	-10.7918
▁smoking	-10.7919
Action	-10.7924
ng	-10.7925
language	-10.7928
af	-10.793
▁Finally	-10.7933
ec	-10.7943
▁JavaScript	-10.7944
more	-10.7946
▁specify	-10.7952
bf	-10.7953
git	-10.7954
▁massive	-10.7957
▁cutting	-10.7959
▁trouble	-10.7961
▁wondering	-10.7964
▁===	-10.7966
▁designs	-10.7968
▁practical	-10.798
▁Sun	-10.7982
▁admitted	-10.7984
▁basically	-10.7986
▁dual	-10.799
▁Asia	-10.7997
▁comprehensive	-10.7998
last	-10.8005
▁resonance	-10.8011
▁Martin	-10.8011
▁lose	-10.8015
▁university	-10.8017
▁Community	-10.8018
▁reflect	-10.802
▁exhibited	-10.8025
▁integer	-10.8026
▁checked	-10.8037
▁mix	-10.8039
▁scientific	-10.8041
09	-10.8043
▁east	-10.8046
▁constructor	-10.8046
▁committed	-10.8052
▁CSS	-10.8054
▁arterial	-10.8055
▁operate	-10.8055
▁Series	-10.806
▁scheme	-10.8061
ter	-10.8061
▁featured	-10.8062
▁integration	-10.8063
▁holds	-10.8064
nJust	-10.8064
▁rich	-10.8065
90	-10.8066
mean	-10.8067
ir	-10.8073
▁Ohio	-10.8075
pre	-10.8079
▁infected	-10.808
▁Johnson	-10.8083
▁Model	-10.8085
▁Kingdom	-10.8086
▁significance	-10.8088
▁Michigan	-10.8102
52	-10.8105
▁(2	-10.8106
▁creation	-10.8107
017	-10.8108
One	-10.8109
▁spectrum	-10.8113
▁2005	-10.812
▁enzymes	-10.8128
▁scored	-10.8129
▁Blue	-10.8131
▁plot	-10.8131
header	-10.8135
▁vision	-10.8138
uk	-10.8144
▁basketball	-10.8145
▁bag	-10.8146
------\	-10.8147
▁tournament	-10.8148
▁steel	-10.8149
-4	-10.8149
▁increasingly	-10.8152
▁provider	-10.816
▁superior	-10.8166
▁icon	-10.8168
nHistory	-10.8169
▁worldwide	-10.8175
▁broad	-10.8178
password	-10.8183
▁150	-10.8187
▁microscopy	-10.8187
▁experiment	-10.8188
let	-10.8189
▁Spanish	-10.8191
sql	-10.8197
▁largely	-10.82
▁west	-10.8212
▁ongoing	-10.8212
▁intra	-10.8214
▁battle	-10.8214
▁obvious	-10.8215
▁happening	-10.8217
two	-10.822
24	-10.8233
(1)	-10.8237
eb	-10.8239
▁repeated	-10.8241
▁KIND	-10.8241
args	-10.8242
println	-10.8242
▁stopped	-10.8243
▁lists	-10.8245
▁acquired	-10.8247
▁printed	-10.825
▁bio	-10.8257
▁sector	-10.8259
▁speak	-10.826
▁Line	-10.826
nAnother	-10.8262
▁trigger	-10.8274
▁chosen	-10.8275
▁Top	-10.8276
Group	-10.8281
▁64	-10.8281
▁EU	-10.8283
▁concerned	-10.8284
▁smart	-10.8288
▁measuring	-10.8288
▁arrest	-10.8289
▁targeted	-10.829
▁entity	-10.829
▁fell	-10.8294
▁expand	-10.8296
▁gastric	-10.8311
each	-10.8311
▁thickness	-10.8314
▁],\	-10.8316
push	-10.8323
▁actor	-10.8324
▁2001	-10.8333
▁accused	-10.8333
▁usual	-10.8336
▁Control	-10.8339
40	-10.8339
▁silver	-10.8342
▁IT	-10.8344
▁facing	-10.8345
3044\	-10.8346
▁token	-10.8349
▁Museum	-10.8351
▁boost	-10.8363
▁trend	-10.8374
▁Sea	-10.8375
ville	-10.8377
▁winter	-10.8378
▁characteristic	-10.8381
▁restaurant	-10.8381
▁solar	-10.8384
▁grid	-10.8385
▁lateral	-10.8387
▁curve	-10.839
▁walking	-10.8392
▁Appeals	-10.8398
▁True	-10.8404
▁sending	-10.841
▁suspect	-10.8413
▁cache	-10.8415
▁enabled	-10.8417
▁bought	-10.8419
▁spaces	-10.8419
▁island	-10.8422
>>	-10.8422
▁8,	-10.8423
▁wind	-10.8425
▁None	-10.8427
▁*)	-10.8427
▁owned	-10.8427
▁estimate	-10.8429
▁injured	-10.843
call	-10.8437
▁Records	-10.8437
▁yesterday	-10.8442
▁2004	-10.8442
▁truly	-10.8447
▁cholesterol	-10.8449
06	-10.8449
▁Sports	-10.845
▁"/*\	-10.8451
active	-10.8452
▁corner	-10.8454
▁spending	-10.8454
op	-10.8462
▁proof	-10.8462
▁constructed	-10.8464
▁shall	-10.8465
▁Scott	-10.8466
uc	-10.8466
▁equation	-10.8467
▁segment	-10.8467
▁du	-10.847
▁noticed	-10.8472
▁elderly	-10.8473
nuse	-10.8474
▁experts	-10.8474
▁cord	-10.8474
▁policies	-10.8477
▁65	-10.8478
▁effectiveness	-10.8479
▁immediate	-10.848
center	-10.8484
010	-10.8486
▁seeking	-10.8486
CI	-10.8487
▁adjacent	-10.8494
▁manual	-10.8496
well	-10.8501
▁em	-10.8505
AP	-10.8507
close	-10.8508
▁Asian	-10.8519
▁und	-10.8524
host	-10.8524
▁opposite	-10.8525
-6	-10.8526
▁0.5	-10.8527
▁wire	-10.8535
▁engineering	-10.8537
▁FC	-10.8539
▁watching	-10.8541
binding	-10.8546
60	-10.8547
▁decisions	-10.8547
▁Northern	-10.8548
▁temperatures	-10.8549
associated	-10.8551
Source	-10.8552
=\\	-10.8553
▁broken	-10.8554
▁entirely	-10.8561
▁electro	-10.8565
▁q	-10.8567
▁physiological	-10.858
cos	-10.858
ting	-10.858
▁probe	-10.8583
▁Steve	-10.8584
▁Supreme	-10.8584
▁evolution	-10.8588
DIR	-10.8588
▁epithelial	-10.8593
▁orders	-10.8596
▁categories	-10.8597
▁sizes	-10.8601
▁plurality	-10.8611
▁Fox	-10.8617
▁respective	-10.8619
▁developer	-10.8619
attr	-10.8622
0443\	-10.8624
▁teaching	-10.8624
▁turns	-10.8626
▁audience	-10.8628
update	-10.8631
▁understood	-10.8633
▁afternoon	-10.8636
>>>	-10.8637
▁Prime	-10.8639
▁assist	-10.864
Response	-10.8642
element	-10.8642
▁electrode	-10.8644
▁miss	-10.8644
nU	-10.8645
▁Education	-10.8646
▁younger	-10.8646
bc	-10.8648
replace	-10.8648
location	-10.8649
▁bodies	-10.865
ol	-10.8651
▁worse	-10.8653
▁submit	-10.8654
▁minimal	-10.8656
▁leg	-10.8657
▁listing	-10.8661
POST	-10.8662
▁(3	-10.8677
▁gap	-10.8678
▁cultures	-10.8679
IP	-10.868
▁pointer	-10.8684
▁Centre	-10.8685
▁packages	-10.8689
he	-10.8693
▁mixture	-10.8697
▁intracellular	-10.8701
▁hundreds	-10.8709
▁funds	-10.8712
cd	-10.8713
\\\\	-10.8714
Version	-10.8716
ro	-10.8717
tpublic	-10.8725
▁transform	-10.8725
▁tells	-10.8731
▁magazine	-10.8731
▁participate	-10.8731
▁hundred	-10.8751
▁raw	-10.8754
▁pump	-10.8764
((	-10.8766
est	-10.8766
▁accumulation	-10.8768
▁developers	-10.8768
▁sun	-10.8774
▁Note	-10.8775
▁coffee	-10.8775
3057\	-10.8777
▁reveal	-10.8778
yl	-10.8781
▁consumer	-10.8781
boost	-10.8783
media	-10.8783
▁javascript	-10.8784
▁degradation	-10.8793
▁dynamics	-10.8802
Filter	-10.8803
▁carrier	-10.8804
▁4-	-10.8806
▁prostate	-10.8811
▁creates	-10.8812
▁lock	-10.8813
▁mail	-10.8813
▁fatty	-10.8813
27	-10.8813
▁42	-10.8816
▁criminal	-10.8816
▁composed	-10.8818
▁col	-10.882
▁Thank	-10.8821
▁Error	-10.8824
▁secret	-10.8827
▁industrial	-10.8828
▁creative	-10.8831
▁XML	-10.8832
▁1.5	-10.8834
▁Additionally	-10.8835
▁Page	-10.8838
▁coli	-10.8838
▁anywhere	-10.8841
▁chamber	-10.8842
▁familiar	-10.8852
▁Today	-10.8853
docs	-10.8858
▁diverse	-10.8862
necho	-10.8865
▁valuable	-10.8865
OS	-10.8868
▁requirement	-10.8869
▁propose	-10.8871
▁caught	-10.8872
▁neural	-10.8873
▁1000	-10.8874
▁differ	-10.8879
▁dental	-10.8885
▁routine	-10.8886
▁**	-10.8888
▁Based	-10.8889
▁matching	-10.8889
nDoes	-10.8889
▁php	-10.889
▁laws	-10.8891
km	-10.8892
▁rotation	-10.8895
▁dates	-10.89
▁rural	-10.8904
options	-10.8904
▁academic	-10.8904
container	-10.8904
▁urinary	-10.8905
▁utility	-10.8909
▁beam	-10.8909
▁Francisco	-10.8912
▁aid	-10.8914
▁genus	-10.892
Input	-10.8921
▁implications	-10.8924
▁consumers	-10.8925
▁flexible	-10.8926
▁sit	-10.8932
▁Live	-10.8932
▁proportion	-10.8933
▁greatest	-10.8934
treated	-10.8935
▁predict	-10.8935
▁separated	-10.8943
▁hepatic	-10.8943
▁"<?	-10.8952
▁wheel	-10.8954
▁Real	-10.8959
▁[\"	-10.896
▁eat	-10.896
▁Emails	-10.8962
len	-10.8963
▁Championships	-10.8963
▁intermediate	-10.8964
position	-10.8965
▁Core	-10.8967
▁youth	-10.8969
())	-10.8971
▁Well	-10.8976
▁Joe	-10.8979
▁controlling	-10.8981
▁induce	-10.8984
▁bond	-10.8984
▁Force	-10.8985
nAlthough	-10.8989
▁carrying	-10.8989
▁conclude	-10.8995
▁prefer	-10.8999
(0,	-10.9002
▁undergoing	-10.9004
ko	-10.9007
▁victim	-10.9009
▁hole	-10.901
▁debate	-10.9012
▁shock	-10.9014
▁partners	-10.9016
▁perspective	-10.9027
▁figures	-10.9028
▁promising	-10.9028
▁37	-10.9031
▁patent	-10.9031
-8	-10.9032
▁prime	-10.9036
▁hydrogen	-10.9036
▁beat	-10.9038
_1	-10.905
▁Conference	-10.9052
▁2020	-10.9061
▁cluster	-10.9067
▁classification	-10.9068
▁cookies	-10.9068
▁identical	-10.9068
▁displays	-10.9069
▁prison	-10.9076
▁denied	-10.9077
stream	-10.9079
auto	-10.9079
▁permanent	-10.9081
▁Festival	-10.9083
▁organ	-10.9084
▁placebo	-10.9087
▁instructions	-10.9088
▁professionals	-10.9097
men	-10.9099
▁IV	-10.9103
▁pilot	-10.9106
ti	-10.9108
())\	-10.9108
lambda	-10.9109
▁33	-10.9112
▁coupled	-10.9114
▁immuno	-10.9117
▁covers	-10.9119
▁profiles	-10.9121
▁malignant	-10.9122
▁trust	-10.9131
▁[[	-10.9132
1/	-10.9138
▁Judge	-10.9141
▁Historic	-10.9142
et	-10.9143
▁AD	-10.9146
▁Last	-10.9148
▁discharge	-10.9152
▁Array	-10.9154
im	-10.9154
▁chromatography	-10.9155
mode	-10.9155
Of	-10.9156
▁Federal	-10.9158
▁kg	-10.9163
▁Book	-10.9166
▁roll	-10.9167
ine	-10.9178
▁tend	-10.9181
▁knee	-10.9195
▁connections	-10.9198
▁episodes	-10.921
nbut	-10.9216
-10	-10.9219
gen	-10.9221
▁tips	-10.9223
master	-10.9227
UI	-10.923
▁Order	-10.9238
Year	-10.9241
▁Richard	-10.9243
▁120	-10.9246
▁Jersey	-10.9248
▁LICENSE	-10.9248
▁bind	-10.9255
split	-10.9262
ef	-10.9265
▁1-	-10.9269
▁educational	-10.9272
▁decade	-10.9273
▁improvements	-10.9275
▁committee	-10.9282
▁tip	-10.9282
▁Assembly	-10.9284
▁graph	-10.9288
▁fair	-10.9289
▁contribution	-10.9292
nOr	-10.9293
▁attempts	-10.9297
▁mild	-10.9297
▁spatial	-10.9302
▁gel	-10.9303
})\	-10.9309
▁probability	-10.931
▁Make	-10.9311
},\	-10.9315
▁altered	-10.9317
▁modification	-10.932
▁kill	-10.933
▁pure	-10.9337
▁interventions	-10.9339
env	-10.934
▁args	-10.934
▁estate	-10.9341
▁Source	-10.9341
▁Out	-10.9345
▁rear	-10.9354
▁absorption	-10.9354
▁nm	-10.9356
▁Mary	-10.9358
▁dropped	-10.9358
▁fear	-10.936
▁Licensed	-10.9367
▁cloud	-10.9372
Options	-10.9373
▁mine	-10.9373
▁southern	-10.9375
▁boolean	-10.9376
nTry	-10.9376
▁Southern	-10.9381
▁Radio	-10.9387
▁civil	-10.9387
23	-10.9391
nOther	-10.9392
▁recurrence	-10.9392
▁suggestions	-10.9396
▁fluorescence	-10.9396
▁diabetic	-10.9396
▁leadership	-10.9407
▁selling	-10.9415
▁acting	-10.942
▁winner	-10.9424
041	-10.9426
▁Fe	-10.9427
▁warm	-10.9429
▁validation	-10.943
▁resolve	-10.9437
▁assistance	-10.9437
True	-10.9438
▁urban	-10.9439
▁34	-10.9439
▁expert	-10.9444
▁protective	-10.9445
▁domestic	-10.9447
▁mapping	-10.9447
▁1.0	-10.9451
▁bridge	-10.9452
▁perfectly	-10.9453
▁\"$	-10.9455
▁attributes	-10.9456
70	-10.9457
▁lies	-10.9459
print	-10.9462
▁specimens	-10.9462
▁func	-10.9463
▁bytes	-10.9464
▁scan	-10.9466
▁totally	-10.9467
▁elections	-10.9467
▁providers	-10.9471
▁crisis	-10.9477
▁neither	-10.9478
▁instances	-10.9484
files	-10.9486
▁Mar	-10.9488
▁Four	-10.9488
▁0)	-10.949
▁Georgia	-10.9493
}}	-10.9499
▁northern	-10.95
▁DB	-10.9502
▁executed	-10.9504
▁threat	-10.951
▁bed	-10.9514
▁declared	-10.9514
▁li	-10.9522
▁wood	-10.9522
fi	-10.9523
▁cap	-10.9525
▁Ben	-10.9525
▁concluded	-10.9526
▁statistical	-10.9526
▁tracks	-10.9527
▁calculate	-10.9529
ms	-10.9531
22	-10.9533
▁victory	-10.9536
▁river	-10.9536
▁simultaneously	-10.9537
▁illegal	-10.9538
▁mention	-10.954
▁Film	-10.9542
▁Charles	-10.9543
▁bringing	-10.9543
▁250	-10.9544
▁Men	-10.9545
etc	-10.9546
▁journey	-10.9547
▁partially	-10.9552
▁communications	-10.9554
you	-10.9557
▁fed	-10.9561
▁um	-10.9562
▁advantages	-10.9563
▁Pre	-10.9564
▁acts	-10.9567
▁nursing	-10.9569
▁presidential	-10.957
▁cleaning	-10.9574
▁compile	-10.9575
▁facilitate	-10.9577
▁fetal	-10.9584
Handler	-10.9584
▁variations	-10.9587
▁sport	-10.9589
non	-10.9589
▁Despite	-10.9591
▁YouTube	-10.9595
▁75	-10.9595
▁infrastructure	-10.9595
▁absolutely	-10.9596
▁statements	-10.9596
▁Technology	-10.9599
▁thank	-10.9599
▁classified	-10.9601
▁missed	-10.9601
▁fails	-10.9603
▁separation	-10.9604
08	-10.9606
ex	-10.961
▁Fire	-10.9614
TV	-10.9618
▁lesion	-10.9619
where	-10.962
▁Pakistan	-10.9624
▁"//	-10.9625
javascript	-10.9627
▁thoughts	-10.9629
▁searching	-10.9629
▁arrived	-10.9629
▁counts	-10.963
0142	-10.9632
▁padding	-10.9632
▁appreciate	-10.9633
▁oxidative	-10.9633
▁wonderful	-10.9636
▁exclusive	-10.9638
category	-10.9638
];	-10.9639
nYes	-10.9642
▁Another	-10.9643
▁talks	-10.9647
▁vaccine	-10.9648
▁exciting	-10.965
▁healthcare	-10.965
▁transformation	-10.9653
▁movies	-10.9653
0101	-10.9654
▁boys	-10.9655
▁Daily	-10.9655
lt	-10.9656
▁comfortable	-10.9658
▁automatic	-10.9658
nList	-10.966
▁Design	-10.9662
▁trauma	-10.9665
▁threshold	-10.9666
▁availability	-10.9668
nEDIT	-10.9671
ff	-10.9672
▁hip	-10.9672
▁cortex	-10.9675
section	-10.9676
])	-10.9676
images	-10.9677
▁lowest	-10.968
Tag	-10.9681
▁defects	-10.9685
column	-10.9685
▁awesome	-10.9688
▁brings	-10.9701
Application	-10.9703
Factory	-10.9706
times	-10.9707
nDuring	-10.9708
▁Spain	-10.9708
▁reportedly	-10.9708
▁sp	-10.9708
\"]	-10.9708
▁Photo	-10.9709
▁illness	-10.9711
▁wearing	-10.9712
method	-10.9713
▁anxiety	-10.9715
0430	-10.9719
▁adds	-10.9719
Style	-10.9721
▁teacher	-10.9725
▁{{	-10.9727
Re	-10.9729
application	-10.9731
▁radical	-10.9731
jquery	-10.9732
▁Williams	-10.9736
IL	-10.9739
ING	-10.9739
▁tract	-10.974
system	-10.974
ty	-10.9741
▁2002	-10.9754
▁nervous	-10.9765
▁crash	-10.9765
▁feeding	-10.9766
▁situations	-10.9766
▁Democrats	-10.9767
menu	-10.9768
▁taste	-10.9768
▁df	-10.9769
▁es	-10.9772
▁$1	-10.9772
▁consequences	-10.9772
-2.0\	-10.9773
cf	-10.9773
▁occurrence	-10.9774
▁guitar	-10.9775
++)	-10.9775
▁})\	-10.9775
nDescription	-10.9776
▁Global	-10.9777
▁delayed	-10.9778
▁clinically	-10.9779
▁standing	-10.978
▁county	-10.9781
▁Jr	-10.9782
▁competitive	-10.9784
▁representing	-10.9784
that	-10.9786
Label	-10.9786
ability	-10.9787
▁Visual	-10.9789
▁Social	-10.9794
▁obviously	-10.9797
▁grown	-10.9798
house	-10.9798
▁seek	-10.9799
Control	-10.9802
child	-10.9802
▁holiday	-10.9802
Read	-10.9803
▁Am	-10.9805
▁personnel	-10.9806
▁singer	-10.9809
▁regard	-10.9814
▁serves	-10.982
ier	-10.9821
▁Journal	-10.9823
▁loved	-10.9826
▁eating	-10.9826
▁shopping	-10.9835
▁periods	-10.9837
▁Main	-10.9838
Check	-10.9839
ajax	-10.984
Row	-10.984
▁forget	-10.9842
▁shipping	-10.9844
wood	-10.9845
▁inhibitory	-10.9845
▁victims	-10.9847
space	-10.9847
▁granted	-10.9856
vector	-10.9857
icon	-10.9858
:20	-10.9858
▁addresses	-10.9859
▁characterizatio	-10.986
3-	-10.9864
▁trees	-10.9869
51	-10.9871
▁git	-10.9874
nRe	-10.9876
▁modules	-10.9877
▁attended	-10.9882
▁giant	-10.9886
3092\	-10.9888
▁seemed	-10.9889
▁los	-10.989
▁conduct	-10.989
[1]	-10.9897
▁ride	-10.9902
▁Beach	-10.9906
ER	-10.991
▁prepare	-10.9912
▁Young	-10.9914
▁markets	-10.9916
▁extraction	-10.9922
▁pipe	-10.9924
Query	-10.9926
▁featuring	-10.9926
▁risks	-10.993
nP	-10.9934
▁chip	-10.9935
▁bigger	-10.9937
▁Human	-10.9937
▁(95%	-10.9938
▁NFL	-10.9941
▁pairs	-10.9945
▁execution	-10.9946
▁crucial	-10.9948
▁appointed	-10.9949
▁Car	-10.9952
▁Click	-10.9955
▁1;\	-10.9956
▁mediated	-10.9958
book	-10.996
▁Brazil	-10.9963
has	-10.9964
Status	-10.9968
▁broadcast	-10.9968
GB	-10.9976
▁resection	-10.9977
▁teeth	-10.9978
▁translation	-10.998
▁producer	-10.9981
nNew	-10.9984
▁Pennsylvania	-10.9989
▁transaction	-10.9989
▁submitted	-10.9991
▁faces	-10.9994
▁removing	-10.9995
▁compiler	-10.9995
Stream	-10.9997
▁graft	-11.0002
nBefore	-11.0002
struct	-11.0003
Method	-11.0005
▁Britain	-11.0006
▁childhood	-11.0008
Url	-11.0008
led	-11.0008
▁unclear	-11.0011
▁existence	-11.0012
▁History	-11.0012
▁abnormal	-11.0014
▁Unless	-11.0015
week	-11.0019
▁clock	-11.002
▁lymph	-11.0023
▁decline	-11.0029
▁saved	-11.0029
({	-11.0031
▁synthetic	-11.0037
▁exhibit	-11.0038
cdot	-11.0042
▁Secretary	-11.0044
▁ha	-11.0045
▁references	-11.0047
▁relief	-11.0054
▁2003	-11.0054
▁Instead	-11.0056
ifndef	-11.006
▁produces	-11.0061
▁fly	-11.0062
exe	-11.0065
▁requiring	-11.0067
▁sugar	-11.0067
▁assays	-11.0069
▁politician	-11.0077
▁undefined	-11.0078
▁topics	-11.0079
Start	-11.0081
▁introduction	-11.0084
▁molecule	-11.0085
Int	-11.0087
▁marriage	-11.009
SELECT	-11.0091
using	-11.0093
▁friendly	-11.0093
Create	-11.0096
mi	-11.0096
ish	-11.01
▁assert	-11.0101
▁velocity	-11.0102
▁Li	-11.0103
▁accessible	-11.0107
▁ban	-11.0108
▁sitting	-11.0109
▁wound	-11.011
▁Play	-11.0113
▁Old	-11.0115
▁Spring	-11.0116
▁representative	-11.0119
CO	-11.0121
▁musical	-11.0122
▁Korean	-11.0124
▁plenty	-11.0125
▁vary	-11.0133
▁vitamin	-11.0134
▁subsequently	-11.0134
▁nearby	-11.0135
▁drama	-11.0135
▁responsibility	-11.0137
▁emotional	-11.014
▁navigation	-11.014
▁Review	-11.014
▁publication	-11.0142
▁forum	-11.0145
▁throws	-11.0146
▁proved	-11.0146
▁lived	-11.0149
life	-11.0151
▁centers	-11.0157
▁er	-11.0157
▁promise	-11.0158
▁BASIS	-11.0164
▁yellow	-11.0165
▁impossible	-11.0167
▁mutant	-11.0169
domain	-11.017
▁drawing	-11.017
▁converted	-11.0171
▁listen	-11.0171
▁disc	-11.0172
2/	-11.0177
common	-11.0178
▁checking	-11.0178
▁alumni	-11.018
▁Children	-11.018
▁cervical	-11.018
Web	-11.0181
▁libraries	-11.0183
▁driven	-11.0185
dd	-11.0192
▁num	-11.0192
▁continuing	-11.0193
▁determining	-11.0196
▁CONDITIONS	-11.0197
▁1990	-11.0199
▁stuck	-11.0199
▁dollars	-11.02
▁(5	-11.02
▁inspired	-11.0201
▁tolerance	-11.0201
▁parse	-11.0205
▁comparable	-11.0206
▁responded	-11.0207
▁Catholic	-11.0207
▁dangerous	-11.0208
▁suffered	-11.0208
mo	-11.0209
▁MRI	-11.021
▁obesity	-11.0211
▁regardless	-11.0212
▁affinity	-11.0213
▁mitochondrial	-11.0215
▁somewhere	-11.0215
bd	-11.0223
▁letters	-11.0223
▁MP	-11.0225
3068\	-11.0227
▁sister	-11.0227
0438	-11.0232
cat	-11.0232
display	-11.0234
▁receiver	-11.0234
jar	-11.0236
▁presents	-11.0238
▁commit	-11.0239
▁fibers	-11.0243
▁google	-11.0243
▁observations	-11.0248
▁12,	-11.0249
Property	-11.0251
▁cup	-11.0252
▁awarded	-11.0252
▁sought	-11.0258
ize	-11.0258
cpp	-11.0259
▁closer	-11.0259
derived	-11.0266
Command	-11.0266
▁Care	-11.027
▁polymer	-11.0271
join	-11.0272
called	-11.0273
python	-11.0275
▁commands	-11.0279
▁statistics	-11.0279
Server	-11.0279
English	-11.0282
100	-11.0283
▁Town	-11.0284
▁(3)	-11.0286
307	-11.0287
(3)	-11.0289
▁Rock	-11.0292
ka	-11.0294
Description	-11.0297
▁Store	-11.0297
CT	-11.03
hpp	-11.0302
▁weak	-11.0305
ary	-11.0306
▁trading	-11.0308
methyl	-11.0311
▁>=	-11.0311
▁randomly	-11.0313
▁preferred	-11.0313
▁coding	-11.0317
When	-11.032
twitter	-11.0322
nGet	-11.0323
▁historical	-11.0323
▁domains	-11.0324
▁biopsy	-11.0325
▁Wales	-11.0327
▁Create	-11.0327
$$\\	-11.0328
Mode	-11.0328
▁escape	-11.0329
▁interior	-11.0332
0431\	-11.0337
▁Corporation	-11.0342
▁draft	-11.0345
▁begins	-11.0345
font	-11.0347
3067\	-11.0348
▁discloses	-11.035
▁truck	-11.0351
▁repeat	-11.0355
▁sessions	-11.0356
▁Cross	-11.0357
▁urine	-11.037
▁scanning	-11.0379
utf	-11.0379
▁scientists	-11.0381
game	-11.0384
▁resistant	-11.0384
▁employee	-11.0384
▁cultural	-11.0387
▁tickets	-11.0388
▁Special	-11.039
▁aortic	-11.0391
▁grant	-11.0394
▁Ni	-11.0396
57	-11.0396
▁proud	-11.0397
▁progressive	-11.0398
▁moves	-11.0398
▁languages	-11.04
▁hospitals	-11.0402
▁religious	-11.0402
now	-11.0405
▁tomography	-11.0407
▁Next	-11.0408
▁gear	-11.0409
▁computers	-11.0411
▁reader	-11.0414
▁flash	-11.0415
▁fighting	-11.0415
▁Santa	-11.0416
▁Family	-11.0418
Search	-11.0419
▁doubt	-11.0425
▁<=	-11.0428
▁institutions	-11.043
▁substance	-11.0433
gamma	-11.0443
▁drinking	-11.045
▁targeting	-11.0455
uri	-11.0457
▁utilized	-11.0463
▁gate	-11.0471
▁comparing	-11.0472
▁abnormalities	-11.0472
▁2.5	-11.0473
▁maps	-11.0474
▁principal	-11.0477
NS	-11.0481
▁lib	-11.0482
▁fellow	-11.0482
▁derivatives	-11.0483
▁analyze	-11.0488
▁western	-11.049
▁completion	-11.0493
tmp	-11.0493
▁Study	-11.0497
▁applying	-11.05
▁arms	-11.0504
76	-11.0504
nMr	-11.0506
▁potent	-11.051
nyou	-11.051
nNot	-11.0514
▁representation	-11.0515
▁recommendations	-11.0522
rb	-11.0522
nprivate	-11.0523
hi	-11.0525
▁summary	-11.0526
▁gamma	-11.0526
username	-11.0529
▁BOOST	-11.053
FC	-11.053
▁environments	-11.0532
▁ultrasound	-11.0533
▁observation	-11.0533
▁era	-11.0533
hour	-11.0536
▁alleged	-11.0541
▁basal	-11.0542
▁parking	-11.0547
▁freedom	-11.0547
▁Back	-11.0548
▁necessarily	-11.0549
car	-11.0549
][	-11.055
How	-11.0553
▁retrospective	-11.0555
▁privacy	-11.0556
63	-11.056
▁platforms	-11.0561
▁wonder	-11.0562
▁biochemical	-11.0564
▁Who	-11.0565
▁hash	-11.0566
▁sweet	-11.0568
▁attorney	-11.057
▁maternal	-11.0571
▁incorporated	-11.0573
▁permit	-11.058
▁1980	-11.0583
Line	-11.0585
▁servers	-11.0588
save	-11.059
▁relations	-11.0602
ini	-11.0602
▁PS	-11.0602
▁Gold	-11.0602
▁collagen	-11.0603
▁independently	-11.0604
▁walls	-11.0604
▁destination	-11.0604
(-1)	-11.0604
▁closure	-11.0611
▁1.	-11.0613
nLast	-11.0616
▁temporary	-11.0618
▁arranged	-11.062
admin	-11.0627
▁spin	-11.063
▁guest	-11.0631
▁suit	-11.0632
▁Table	-11.0636
▁purchased	-11.0636
▁thyroid	-11.064
▁anyway	-11.0641
▁diversity	-11.0641
▁uint	-11.0642
HT	-11.0644
▁callback	-11.0644
▁newspaper	-11.0645
▁Does	-11.0645
▁weapons	-11.0646
▁citizens	-11.0649
▁beer	-11.0654
▁considerable	-11.0655
▁fifth	-11.0656
Module	-11.0664
▁accompanied	-11.0664
▁killing	-11.0667
put	-11.0669
▁configured	-11.0669
▁Oct	-11.0672
▁intestinal	-11.0673
▁province	-11.0674
▁{}\	-11.0675
▁Illinois	-11.0675
▁Toronto	-11.0677
▁Tour	-11.0677
▁Coast	-11.0682
▁closing	-11.0685
pdf	-11.0686
▁computing	-11.0686
▁kitchen	-11.0689
▁fairly	-11.069
▁infusion	-11.0692
Net	-11.0694
▁38	-11.0696
▁jump	-11.0701
▁Auto	-11.0704
▁dimensions	-11.0705
▁Local	-11.0706
▁Prior	-11.071
▁genome	-11.0714
▁kinds	-11.0717
▁phosphorylation	-11.0718
▁entries	-11.0718
31	-11.0721
▁Middle	-11.0722
▁camp	-11.0722
▁PCR	-11.0726
▁inserted	-11.0727
▁establishments	-11.0729
▁deficiency	-11.0729
▁Online	-11.0735
▁indeed	-11.0739
▁switching	-11.0743
▁temporal	-11.0745
▁dietary	-11.0745
Ca	-11.0745
news	-11.0747
▁posterior	-11.0747
▁fund	-11.0748
\");	-11.0752
▁ranging	-11.0753
▁computed	-11.0754
values	-11.0755
phi	-11.0758
▁colour	-11.0759
▁9,	-11.0761
▁vessel	-11.0764
NA	-11.077
▁council	-11.0772
▁hence	-11.0774
▁peace	-11.0775
users	-11.0775
▁11,	-11.0776
store	-11.0782
▁isolates	-11.0783
▁apart	-11.0788
▁una	-11.0793
▁telling	-11.0796
▁faculty	-11.0798
▁reliability	-11.0801
word	-11.0803
▁Chrome	-11.0804
▁challenging	-11.0804
▁symbol	-11.0809
▁upload	-11.0809
▁instrument	-11.0809
▁clubs	-11.081
▁alterations	-11.0811
profile	-11.0811
▁murder	-11.0813
lo	-11.0813
▁vice	-11.0814
▁10%	-11.0815
▁programme	-11.0818
blog	-11.082
▁fruit	-11.0822
▁buttons	-11.0823
▁involve	-11.0825
▁vessels	-11.0827
▁portions	-11.0828
▁Text	-11.083
▁morbidity	-11.083
▁doctor	-11.0834
▁pathogenesis	-11.0834
▁aspect	-11.0839
▁Video	-11.0843
HOU	-11.085
▁advertising	-11.0852
▁Form	-11.0854
!!	-11.0854
▁agencies	-11.0855
Select	-11.0855
▁millions	-11.0856
▁conflict	-11.086
▁mysql	-11.0862
▁Station	-11.0862
▁announcement	-11.0866
▁2.	-11.0868
▁Irish	-11.087
▁byte	-11.0871
▁speaking	-11.0872
▁cultured	-11.0873
▁attend	-11.0875
▁retail	-11.0875
▁HD	-11.0878
▁arrangement	-11.0879
▁signature	-11.088
▁weekly	-11.0881
▁6-	-11.0883
▁wine	-11.0883
▁Arts	-11.0886
std	-11.0886
▁suffering	-11.0887
▁chest	-11.0888
▁si	-11.0889
modules	-11.089
▁affects	-11.089
nTwo	-11.0893
▁Se	-11.0895
▁compact	-11.0896
▁prognosis	-11.0896
▁discovery	-11.0899
Point	-11.0901
window	-11.0902
▁drawn	-11.0903
▁Ubuntu	-11.0905
library	-11.0906
▁compression	-11.0906
▁meat	-11.0907
▁circumstances	-11.0907
▁registration	-11.0908
ok	-11.0908
▁Energy	-11.091
▁upgrade	-11.0911
▁estimates	-11.0912
▁Map	-11.0919
▁professor	-11.0919
▁15,	-11.0923
nO	-11.0924
▁hybrid	-11.0929
▁unusual	-11.093
▁voters	-11.0931
star	-11.0932
mp	-11.0933
▁;	-11.0933
float	-11.0935
▁neuronal	-11.0937
▁matched	-11.0938
▁PA	-11.094
▁donor	-11.0945
▁alter	-11.0945
▁55	-11.0946
▁Number	-11.0946
▁earned	-11.095
▁hoping	-11.0951
▁worry	-11.0952
▁fee	-11.0957
▁trained	-11.0958
▁mini	-11.0958
▁bi	-11.0961
▁fundamental	-11.0965
▁Watch	-11.0966
▁spoke	-11.0966
▁pancreatic	-11.0967
▁concerning	-11.0971
Length	-11.0972
▁tracking	-11.0973
▁su	-11.0975
▁Base	-11.0977
▁maintaining	-11.0978
nEdit	-11.0981
▁behavioral	-11.0985
Function	-11.0985
▁essentially	-11.0986
▁export	-11.0987
▁residues	-11.099
▁connecting	-11.0991
▁membranes	-11.0995
▁Turkey	-11.0998
▁substantially	-11.1
▁Pacific	-11.1001
▁pulse	-11.1003
▁Key	-11.1003
Users	-11.1004
▁peptides	-11.1004
28	-11.1005
*\	-11.101
▁recognize	-11.1014
▁generating	-11.1018
rich	-11.1018
▁Water	-11.1021
▁np	-11.1022
▁asthma	-11.1028
▁complexity	-11.103
▁hosted	-11.1031
▁explanation	-11.1031
▁Access	-11.1031
▁transferred	-11.1033
-1)	-11.1034
▁tank	-11.1035
▁Parliament	-11.1035
fe	-11.1037
▁websites	-11.1038
▁op	-11.104
▁fusion	-11.1042
▁Dec	-11.1044
So	-11.1044
▁animation	-11.1044
▁buying	-11.1045
else	-11.1046
▁deals	-11.105
▁blocked	-11.1051
▁invasive	-11.1051
▁locally	-11.1054
ina	-11.1055
nMany	-11.1055
▁arrays	-11.1056
step	-11.1061
▁Places	-11.1063
▁circuits	-11.1063
▁Kong	-11.1064
▁drink	-11.1068
▁20,	-11.1068
▁ultimately	-11.1069
▁stone	-11.1069
▁conversation	-11.1071
▁extracellular	-11.1073
▁bleeding	-11.1079
▁accident	-11.1082
nE	-11.1083
▁(10	-11.1098
background	-11.1101
▁suspected	-11.1102
▁Take	-11.1104
▁volunteers	-11.1106
▁hepatitis	-11.1109
conf	-11.1112
filename	-11.1113
▁medication	-11.1115
Title	-11.1115
▁pediatric	-11.112
▁regex	-11.1121
▁Policy	-11.1123
▁politics	-11.1123
Range	-11.1124
▁Value	-11.1124
▁abdominal	-11.1124
▁occurring	-11.1125
▁patch	-11.1127
▁expanded	-11.1131
▁predictive	-11.1132
▁strict	-11.1133
▁stands	-11.1137
▁Part	-11.114
▁spectroscopy	-11.1141
▁HTTP	-11.1142
▁ages	-11.1142
[0]	-11.1147
byte	-11.1148
▁pulled	-11.1158
▁somewhat	-11.1159
▁Sam	-11.1159
▁Avenue	-11.1161
tree	-11.1162
3066\	-11.1162
-12	-11.1166
▁marrow	-11.1167
▁10-	-11.1168
▁paint	-11.1169
▁ml	-11.117
▁wedding	-11.1171
▁rating	-11.1172
▁nano	-11.1176
CA	-11.1179
parse	-11.1181
terminal	-11.1185
▁von	-11.1185
▁consideration	-11.1187
▁0.05).	-11.1188
▁factory	-11.1188
▁portable	-11.1193
▁attempted	-11.1194
▁clicking	-11.1198
▁requested	-11.1203
▁span	-11.1204
▁votes	-11.1205
▁dream	-11.1206
izing	-11.1209
▁assets	-11.121
ado	-11.1216
▁orientation	-11.1217
tab	-11.1217
part	-11.1219
▁questionnaire	-11.1221
dict	-11.1225
▁oxidation	-11.1226
▁Little	-11.1226
▁politicians	-11.1232
▁coupling	-11.1233
▁crew	-11.1233
▁legislation	-11.1235
▁Manager	-11.1236
▁picked	-11.124
▁pack	-11.1243
Link	-11.1243
▁(!	-11.1245
items	-11.1246
▁spokesman	-11.1247
▁intelligence	-11.1249
▁keyboard	-11.1249
▁hide	-11.125
▁readers	-11.1254
▁BBC	-11.1255
▁priority	-11.1262
▁platelet	-11.1263
fb	-11.1266
lim	-11.1267
▁-->\	-11.1269
ada	-11.127
▁Space	-11.1277
▁init	-11.128
▁collect	-11.1282
▁phones	-11.1284
▁NS	-11.1286
▁pregnant	-11.1286
▁turning	-11.1289
btn	-11.1289
▁innovative	-11.1292
▁tape	-11.1293
world	-11.1295
First	-11.1297
▁nucleus	-11.1298
0437\	-11.1299
▁72	-11.1299
▁loan	-11.13
▁labor	-11.13
▁pic	-11.13
including	-11.1301
-19	-11.1302
▁worst	-11.1303
▁Food	-11.1303
▁beauty	-11.1306
▁intact	-11.1308
▁depend	-11.1315
▁beneficial	-11.1316
▁mouth	-11.1317
tar	-11.1323
▁airport	-11.1326
▁promoter	-11.1326
▁imagine	-11.1326
ha	-11.1328
▁systematic	-11.1331
▁2016,	-11.1332
Do	-11.1333
▁Attorney	-11.1335
▁Awards	-11.1337
▁awareness	-11.1338
▁ticket	-11.1338
▁varied	-11.1339
nRead	-11.1341
▁historic	-11.1341
▁Call	-11.1343
▁USB	-11.1345
▁Report	-11.1345
▁captured	-11.1346
▁reduces	-11.1347
theta	-11.1348
▁busy	-11.135
▁visitors	-11.1354
▁treating	-11.1357
▁losing	-11.1359
▁timing	-11.1359
▁revenue	-11.136
▁3)	-11.1361
▁sensors	-11.1364
▁tech	-11.1369
▁staining	-11.1369
▁truth	-11.1369
Project	-11.1369
▁Premier	-11.1371
bi	-11.1374
weight	-11.1378
▁magnitude	-11.1382
ri	-11.1383
cThis	-11.1385
▁alongside	-11.1385
dc	-11.139
stage	-11.139
▁impaired	-11.1393
▁affecting	-11.1395
▁adequate	-11.1398
▁Poland	-11.1398
▁pointed	-11.1401
▁Accordingly	-11.1402
▁Roman	-11.1402
\"),	-11.1403
getElementById	-11.1404
▁About	-11.1404
▁encourage	-11.1404
])\	-11.1405
▁fired	-11.1405
▁corporate	-11.1406
▁ok	-11.1407
▁Navy	-11.1409
▁neuro	-11.141
▁construct	-11.1411
▁temp	-11.1416
art	-11.1417
▁preliminary	-11.1418
*/\	-11.1428
ite	-11.1429
light	-11.1431
▁shaft	-11.1434
▁chromosome	-11.1444
▁emission	-11.1446
▁est	-11.1446
▁Lord	-11.1447
▁Clinical	-11.145
▁feels	-11.1451
▁OK	-11.1451
▁breaking	-11.1452
▁copper	-11.1453
▁Jackson	-11.1454
▁Minnesota	-11.1457
▁justice	-11.1458
token	-11.1459
▁Colorado	-11.146
ical	-11.1462
▁covering	-11.1464
▁logo	-11.1466
▁joining	-11.1467
▁writers	-11.1467
▁willing	-11.1469
▁recombinant	-11.147
▁hockey	-11.147
▁Those	-11.1471
▁healing	-11.1478
▁Studies	-11.1482
OH	-11.1485
address	-11.1488
ana	-11.1493
▁repository	-11.1497
▁18,	-11.1497
▁processed	-11.1498
▁Louis	-11.1504
PM	-11.1504
bind	-11.1504
▁bladder	-11.1506
▁snow	-11.1511
▁Republicans	-11.1511
types	-11.1512
▁commitment	-11.1513
▁tough	-11.1516
▁Analysis	-11.152
▁surprise	-11.1521
ver	-11.1523
▁Van	-11.1523
▁impairment	-11.1523
remove	-11.1526
0161	-11.1526
014	-11.1528
random	-11.1531
submit	-11.1536
26	-11.1538
▁influenced	-11.1538
API	-11.1544
▁scenario	-11.1544
Window	-11.1546
▁comfort	-11.1547
▁interact	-11.155
▁14,	-11.1554
▁reconstruction	-11.1557
▁bike	-11.1561
MM	-11.1561
▁composite	-11.1565
▁Columbia	-11.1566
phase	-11.1567
▁Wall	-11.1573
▁barrier	-11.1573
▁integral	-11.1573
can	-11.1574
▁Point	-11.1577
91	-11.1582
▁demo	-11.1584
▁brown	-11.1584
▁Eastern	-11.1585
▁combine	-11.1585
▁heating	-11.1586
}(	-11.1586
▁purified	-11.1588
▁adhesion	-11.1595
▁allegedly	-11.1597
▁PURPOSE	-11.1601
▁preventing	-11.1601
▁offset	-11.1604
▁30,	-11.1604
▁realize	-11.1606
▁2015,	-11.1606
cb	-11.1608
▁Have	-11.1608
▁cooling	-11.1609
▁49	-11.161
▁handler	-11.1614
▁Wisconsin	-11.1616
1;\	-11.1617
▁admission	-11.1618
Interface	-11.1619
▁campus	-11.162
▁16,	-11.1621
▁3.5	-11.1623
▁pin	-11.1624
nB	-11.1625
ptr	-11.1634
▁stick	-11.1637
▁2017,	-11.1638
login	-11.1639
▁shorter	-11.1644
▁batch	-11.1646
your	-11.1647
cast	-11.1649
total	-11.1649
▁Scotland	-11.1651
board	-11.1651
▁rooms	-11.1655
localhost	-11.1657
nFROM	-11.1657
work	-11.1657
chi	-11.1658
▁deleted	-11.1658
▁51	-11.1659
▁presenting	-11.1661
▁(4	-11.1667
▁[]	-11.1669
▁capabilities	-11.1669
▁THIS	-11.1669
Association	-11.1671
▁viewing	-11.1672
▁intervals	-11.1678
▁Area	-11.168
▁collaboration	-11.1685
▁assign	-11.1692
▁physicians	-11.1692
▁entertainment	-11.1693
▁toxic	-11.1695
▁luck	-11.1695
▁disabled	-11.1696
▁SOFTWARE	-11.1699
▁desktop	-11.17
▁bits	-11.1701
▁till	-11.1701
▁broke	-11.1701
▁Action	-11.1703
▁desire	-11.1704
▁Nov	-11.1705
Column	-11.1706
▁grew	-11.171
▁generic	-11.1711
▁whenever	-11.1712
▁thereof	-11.1713
▁2017\	-11.1718
▁courses	-11.1718
▁Dan	-11.1719
▁intensive	-11.1722
Hello	-11.1725
▁officially	-11.1725
Resource	-11.1726
▁lymphocytes	-11.1727
-5	-11.1727
▁Jack	-11.1733
▁identifying	-11.1735
▁Instagram	-11.1736
cache	-11.1737
'),\	-11.1738
▁fewer	-11.1739
▁neighborhood	-11.1739
change	-11.1739
▁Night	-11.1741
▁documented	-11.1743
▁segments	-11.1744
▁mask	-11.1744
nor	-11.1744
static	-11.1745
▁41	-11.1749
▁highlight	-11.1755
known	-11.176
▁telephone	-11.176
▁Syria	-11.1765
▁disclosure	-11.1767
▁overcome	-11.177
▁administrative	-11.177
Not	-11.1771
▁PARTICULAR	-11.1772
▁Ryan	-11.1772
▁inhibit	-11.1773
arr	-11.1774
▁Per	-11.1775
make	-11.1778
▁varying	-11.1779
▁Twenty	-11.1783
dy	-11.1783
▁consisting	-11.1787
▁Airport	-11.1787
▁chat	-11.1787
▁Ministry	-11.1791
nin	-11.1794
▁insight	-11.1794
cap	-11.1795
Configuration	-11.1797
▁tight	-11.18
▁ease	-11.1803
▁compatible	-11.1805
after	-11.1805
▁precise	-11.181
▁aging	-11.181
▁enables	-11.1812
▁Try	-11.1814
▁Overall	-11.1815
▁extreme	-11.1815
▁Mo	-11.1818
▁AP	-11.182
Location	-11.1821
▁proven	-11.1822
▁trends	-11.1823
▁Index	-11.1824
public	-11.1825
resistant	-11.1827
▁ligand	-11.1829
▁participation	-11.183
▁farm	-11.1831
UTF	-11.1831
}/	-11.1834
▁Administration	-11.1835
▁studying	-11.1835
▁Plus	-11.1836
Default	-11.1837
▁teachers	-11.1838
risk	-11.1839
▁circle	-11.1841
partial	-11.1842
nMost	-11.1851
95	-11.1851
▁SELECT	-11.1852
▁bunch	-11.1857
▁FITNESS	-11.1862
▁2014,	-11.1862
▁clinic	-11.1864
con	-11.1871
ful	-11.1872
▁situ	-11.1873
▁distal	-11.1877
▁lawyer	-11.1878
▁saving	-11.188
▁bands	-11.1881
▁difficulty	-11.1882
▁passes	-11.1884
▁13,	-11.1884
▁interviews	-11.1886
▁Maybe	-11.1887
0,	-11.1887
negative	-11.1888
▁informed	-11.189
▁earth	-11.189
▁CPU	-11.189
▁poll	-11.189
▁keeps	-11.189
04	-11.1893
▁prognostic	-11.1894
Core	-11.1896
nCheck	-11.1897
▁precision	-11.1901
▁investigations	-11.1902
▁44	-11.1902
▁entering	-11.1904
▁herein	-11.1905
▁railway	-11.1907
▁SD	-11.191
▁guests	-11.1912
▁Light	-11.1912
▁particle	-11.1914
▁Before	-11.1917
IO	-11.1918
________________	-11.1922
▁variant	-11.1923
▁crowd	-11.1925
▁ions	-11.1926
▁chicken	-11.1927
},	-11.1929
▁census	-11.1929
▁Taylor	-11.1936
▁regularly	-11.1937
▁labels	-11.194
▁fragment	-11.1942
▁reasonable	-11.1944
▁Jim	-11.1945
▁surveillance	-11.1946
▁Bob	-11.1951
aa	-11.1951
▁comedy	-11.196
SI	-11.1964
▁verify	-11.1966
▁muscles	-11.1969
▁printf	-11.1971
▁processor	-11.1973
4)	-11.1975
▁styles	-11.1978
white	-11.198
▁1:	-11.1981
▁routes	-11.1986
▁ischemia	-11.1988
1:	-11.1994
msg	-11.1995
▁fees	-11.1995
video	-11.1999
▁prominent	-11.2001
▁fracture	-11.2004
▁bearing	-11.2005
Provider	-11.2005
▁therapies	-11.2006
▁Master	-11.2006
▁MERCHANTABILITY	-11.201
▁queries	-11.2012
▁invasion	-11.2016
▁nurses	-11.2023
▁dance	-11.2024
▁MySQL	-11.203
mer	-11.2036
dp	-11.2037
▁0.1	-11.2038
▁Ten	-11.2038
▁lo	-11.2038
▁monthly	-11.2039
▁introduce	-11.2039
Box	-11.204
high	-11.2041
▁excess	-11.2043
mL	-11.2043
▁recurrent	-11.2044
Log	-11.2053
▁hits	-11.2055
▁len	-11.2056
▁te	-11.2058
Click	-11.2059
ham	-11.2063
▁Massachusetts	-11.2069
params	-11.2073
▁seats	-11.2083
▁graphics	-11.2085
▁tail	-11.2085
▁synthesized	-11.2086
▁somehow	-11.2087
▁restricted	-11.2094
▁SO	-11.2094
▁variants	-11.2094
▁2013,	-11.2095
▁ratios	-11.2096
▁actors	-11.2097
▁titles	-11.2099
▁phenomenon	-11.2102
▁intent	-11.2103
▁pm	-11.2105
▁Houston	-11.2106
▁ancient	-11.2107
▁il	-11.2107
▁houses	-11.2108
▁uniform	-11.211
▁lighting	-11.2111
nAre	-11.2119
▁implements	-11.2123
▁sampling	-11.2128
▁managing	-11.2128
▁injected	-11.2134
▁signing	-11.2137
▁merge	-11.2138
▁colon	-11.2143
▁warranty	-11.2149
component	-11.2149
▁assault	-11.2151
▁NA	-11.2153
▁infarction	-11.2156
▁PD	-11.2157
▁paying	-11.2158
▁sustained	-11.216
▁retrieve	-11.2163
▁Right	-11.2165
mod	-11.2167
GET	-11.2168
▁declined	-11.217
▁Yes	-11.2172
csv	-11.2173
▁JOIN	-11.2175
nlet	-11.2175
▁1970	-11.2179
\";	-11.2184
▁Bitcoin	-11.2184
▁satisfaction	-11.2188
▁associations	-11.2189
▁phenotype	-11.2193
▁organized	-11.22
Bar	-11.2202
▁developmental	-11.2205
▁certificate	-11.2205
▁RT	-11.2206
▁3.0	-11.2207
▁frequencies	-11.221
▁prolonged	-11.2211
▁baseball	-11.2211
▁Andrew	-11.2213
temp	-11.2213
any	-11.2223
def	-11.2224
▁24,	-11.2225
▁gained	-11.2227
▁BE	-11.2227
▁psychological	-11.2227
▁21,	-11.2229
▁dealing	-11.223
▁unsigned	-11.223
(1,	-11.2237
▁guidance	-11.2239
▁gay	-11.2242
HR	-11.2246
ViewController	-11.2247
▁guilty	-11.2249
▁Cancer	-11.225
double	-11.2253
Collection	-11.2256
▁par	-11.2257
▁adapted	-11.2258
▁Every	-11.2261
▁designer	-11.2265
▁prediction	-11.2266
▁ovarian	-11.227
▁Treatment	-11.2272
▁participated	-11.2273
Builder	-11.2277
▁Hong	-11.228
▁Five	-11.2282
water	-11.2286
▁Find	-11.2289
▁regulated	-11.2291
38	-11.2291
▁isolation	-11.2292
▁partnership	-11.2298
▁contributed	-11.23
ey	-11.2307
▁2012,	-11.2311
▁socket	-11.2312
▁atmosphere	-11.2313
▁approval	-11.2314
nmy	-11.2316
CR	-11.2317
▁boat	-11.2319
▁substrates	-11.232
sort	-11.2321
▁horizontal	-11.2323
▁variability	-11.233
win	-11.2331
▁restriction	-11.2332
rate	-11.2332
>(	-11.2339
▁SP	-11.2347
Entity	-11.2347
▁interests	-11.2348
▁Rights	-11.235
▁loads	-11.2352
▁UV	-11.2353
▁founder	-11.2354
▁Ontario	-11.2357
▁damaged	-11.236
▁Search	-11.2361
▁20%	-11.2363
Format	-11.2364
▁seed	-11.2367
▁assistant	-11.2367
▁serial	-11.2369
ler	-11.237
▁ethanol	-11.237
▁-1	-11.2373
▁solved	-11.2373
▁addressed	-11.2376
▁retired	-11.2376
▁mountain	-11.2378
ous	-11.2379
▁resin	-11.2381
sec	-11.2384
▁defect	-11.2392
▁adjusted	-11.2395
▁choices	-11.2397
▁enforcement	-11.2399
▁$('#	-11.2401
▁recovered	-11.2402
▁footballer	-11.2403
▁mistake	-11.2404
▁streets	-11.2404
layer	-11.241
▁believes	-11.2412
entry	-11.2417
▁detecting	-11.2418
▁39	-11.242
▁reporter	-11.2422
▁classical	-11.2422
▁Arizona	-11.2424
▁heads	-11.2425
▁reactive	-11.2426
▁Winter	-11.2426
▁localization	-11.2427
▁vein	-11.2431
▁posting	-11.2432
▁ending	-11.2434
▁instruments	-11.2442
nstruct	-11.2445
▁extracted	-11.2446
▁Kim	-11.2447
▁roof	-11.2448
shaped	-11.2448
▁physician	-11.2451
▁recipe	-11.2452
▁Matt	-11.2453
▁plug	-11.2454
▁Di	-11.2456
edit	-11.2457
▁LED	-11.2461
▁festival	-11.2461
lock	-11.2462
▁efficiently	-11.2464
▁strange	-11.2464
▁disable	-11.2466
34	-11.2467
▁ATP	-11.2469
Update	-11.2471
▁Document	-11.2473
copy	-11.2473
▁ET	-11.2474
▁comprising	-11.2476
▁embedded	-11.248
End	-11.2481
ga	-11.2484
TYPE	-11.2485
▁acquisition	-11.2487
0447\	-11.2489
▁boxes	-11.249
▁username	-11.2491
▁acceptable	-11.2493
▁banks	-11.2493
=\"1.0\"	-11.2494
▁hosts	-11.2496
▁attachment	-11.2498
▁simulation	-11.2499
send	-11.25
▁Several	-11.2501
▁transmitted	-11.2504
▁Where	-11.2506
▁tea	-11.2507
▁Henry	-11.2509
▁beach	-11.2514
▁visiting	-11.2514
interface	-11.2515
▁explains	-11.2517
▁awards	-11.2518
▁Region	-11.2518
▁Images	-11.2519
▁19,	-11.2521
▁Support	-11.2522
▁leukemia	-11.2522
sys	-11.2522
▁(\"	-11.2525
▁17,	-11.2528
▁connector	-11.2528
nav	-11.2529
▁Head	-11.253
nHi	-11.2534
▁investors	-11.2535
▁22,	-11.2536
▁venous	-11.2537
▁IE	-11.2539
▁cortical	-11.2543
2122	-11.2547
▁AC	-11.2549
▁Daniel	-11.255
▁seriously	-11.2563
▁planet	-11.2564
▁movements	-11.2565
▁decreases	-11.2566
ata	-11.2566
▁marijuana	-11.2567
▁km	-11.2567
▁eligible	-11.2577
▁Saint	-11.2577
▁adopted	-11.2578
At	-11.2579
///	-11.2584
▁morphology	-11.2594
ya	-11.2596
▁guard	-11.2596
▁debt	-11.2597
▁Land	-11.2598
▁artificial	-11.2598
▁subjected	-11.2599
▁Unfortunately	-11.26
▁interference	-11.2601
▁plain	-11.2602
nM	-11.2602
▁redirect	-11.2604
gt	-11.2604
▁investigators	-11.2607
▁discover	-11.2609
▁reaching	-11.261
▁microM	-11.261
▁macro	-11.261
▁tri	-11.2611
mg	-11.2612
III	-11.2612
nUnited	-11.2614
▁suicide	-11.2615
▁Week	-11.2619
▁Digital	-11.2622
nselect	-11.2623
▁ill	-11.2623
▁spontaneous	-11.2623
▁rose	-11.2629
leq	-11.263
▁ear	-11.2632
▁clearance	-11.2635
=\"@	-11.2635
▁skill	-11.2635
▁judgment	-11.2636
▁cameras	-11.2636
▁2018\	-11.2637
?\"	-11.2643
case	-11.2644
▁bilateral	-11.2645
▁matters	-11.2646
react	-11.2647
ah	-11.2652
▁opposed	-11.2657
▁investigating	-11.2661
▁Greek	-11.2668
▁Content	-11.2668
▁narrow	-11.267
▁blank	-11.2671
▁sa	-11.2671
▁placement	-11.2675
▁dictionary	-11.2675
▁inclusion	-11.2675
▁convenient	-11.268
▁wrap	-11.2682
\"><	-11.2685
▁nitrogen	-11.2686
low	-11.2687
MB	-11.2687
▁dominant	-11.2687
▁25,	-11.2687
▁realized	-11.2694
▁compiled	-11.2694
▁contacts	-11.2697
▁IF	-11.2703
▁contributions	-11.2704
▁tomorrow	-11.2705
▁>>	-11.2705
za	-11.2706
such	-11.2709
▁gaming	-11.271
her	-11.2714
wide	-11.2715
none	-11.2718
▁MA	-11.2721
▁susceptibility	-11.2721
45	-11.2726
▁vocals	-11.273
▁meal	-11.2731
▁Feb	-11.2732
▁stronger	-11.2734
▁marks	-11.2737
35	-11.2739
Task	-11.274
▁conservative	-11.274
▁concrete	-11.2741
▁correction	-11.2745
amp	-11.2747
▁honor	-11.2749
▁JS	-11.2751
grid	-11.2753
▁foundation	-11.2754
▁engines	-11.2756
▁guarantee	-11.2756
▁Oregon	-11.2758
▁singles	-11.2759
▁ingredients	-11.276
▁retain	-11.276
89	-11.2767
▁persistent	-11.2769
▁longitudinal	-11.2771
Ref	-11.2771
54	-11.2775
Width	-11.2776
▁squad	-11.2777
81	-11.2778
▁opposition	-11.2781
support	-11.2782
▁focusing	-11.2782
plugin	-11.2782
sensitive	-11.2784
79	-11.2785
▁Agency	-11.2785
▁Dutch	-11.2788
▁pan	-11.2791
▁promotion	-11.2793
}}\	-11.2793
▁edges	-11.2793
Effect	-11.2797
▁Major	-11.2797
nit	-11.2797
▁smoke	-11.28
▁mono	-11.2801
▁athletes	-11.2802
containing	-11.2802
FILE	-11.2803
$.\	-11.2807
▁Message	-11.2807
▁Cu	-11.2807
▁aggressive	-11.281
_0	-11.2813
PCR	-11.2813
▁hate	-11.2813
▁separately	-11.2814
▁adolescents	-11.2816
▁principles	-11.2816
▁scoring	-11.2816
▁rain	-11.2817
▁strip	-11.2818
▁ALL	-11.2819
nWhere	-11.2819
▁bright	-11.2825
pass	-11.2825
play	-11.2826
▁Disney	-11.283
ella	-11.2837
bottom	-11.2837
▁Si	-11.2839
▁formal	-11.2839
▁emerging	-11.284
▁nanoparticles	-11.2843
▁Run	-11.2843
▁43	-11.2843
IN	-11.2844
▁TNF	-11.2849
▁tumour	-11.2851
▁expertise	-11.2851
▁doctors	-11.2852
▁Following	-11.2853
}\"	-11.2856
▁enhancement	-11.2856
▁texture	-11.2858
second	-11.286
07	-11.2861
nHis	-11.2863
▁chose	-11.2863
▁PDF	-11.2864
▁rel	-11.2865
Windows	-11.2866
▁trace	-11.2873
▁rank	-11.2874
▁Case	-11.2876
▁inline	-11.2883
▁stimulated	-11.2884
▁pet	-11.2887
▁adjustment	-11.2891
▁belt	-11.2891
▁cancers	-11.2893
Me	-11.2894
▁2018,	-11.2896
other	-11.2897
▁enrolled	-11.2899
▁xml	-11.2899
▁champion	-11.2903
func	-11.2904
▁comprises	-11.2906
▁MR	-11.2908
▁Port	-11.2909
▁Pi	-11.2911
▁foreach	-11.2911
▁Delhi	-11.2912
▁utilize	-11.2917
nWell	-11.2918
▁Math	-11.2926
▁doors	-11.2927
▁aqueous	-11.293
SD	-11.293
▁anymore	-11.2931
▁subset	-11.2932
-1,	-11.2933
nwhere	-11.2933
mat	-11.2934
ger	-11.2935
▁ABC	-11.2935
▁vital	-11.2937
Some	-11.2937
lin	-11.2938
▁:)\	-11.2939
▁angular	-11.2939
▁Frank	-11.2942
▁intravenous	-11.2945
▁Davis	-11.2947
▁23,	-11.2948
▁birds	-11.2948
▁Joseph	-11.2951
▁modulation	-11.2951
▁characterize	-11.2954
▁marine	-11.2955
pro	-11.2959
▁rely	-11.2967
▁robust	-11.2973
▁capability	-11.2973
▁burden	-11.2978
Man	-11.298
▁Victoria	-11.298
▁encountered	-11.2981
▁boot	-11.2982
hash	-11.2982
0107	-11.2983
▁metastasis	-11.2983
▁mature	-11.2984
▁garden	-11.2984
▁institution	-11.2985
▁},	-11.2985
▁Email	-11.2992
▁supplied	-11.2993
AM	-11.2993
▁holes	-11.2997
55	-11.2997
▁Tim	-11.2999
nNotes	-11.2999
▁coast	-11.3001
▁les	-11.3004
▁automated	-11.3005
ring	-11.3013
▁publish	-11.3016
▁Full	-11.3017
▁99	-11.3021
DC	-11.3022
▁communicate	-11.3023
But	-11.3025
▁28,	-11.3027
▁cycles	-11.3029
▁carefully	-11.3032
▁quantity	-11.3034
▁IgG	-11.3037
011	-11.3037
▁debug	-11.3038
▁integrity	-11.3038
command	-11.304
▁resident	-11.3043
dump	-11.3043
pos	-11.3044
▁hopes	-11.3044
▁abstract	-11.3044
ists	-11.3044
▁magic	-11.3045
▁roots	-11.305
▁confused	-11.305
nPolice	-11.3052
▁transparent	-11.3053
session	-11.3054
▁favor	-11.3056
▁dust	-11.3059
controller	-11.306
▁Node	-11.3061
▁coating	-11.3061
(&	-11.3064
▁consisted	-11.3066
▁configure	-11.3068
▁insights	-11.3074
ated	-11.3075
▁Standard	-11.3076
▁tutorial	-11.3077
▁bulk	-11.3084
▁Max	-11.3085
▁resolved	-11.3088
▁Ford	-11.3088
▁analysed	-11.3089
▁gradient	-11.3092
▁highlights	-11.3095
▁Express	-11.31
▁behaviors	-11.3101
▁qualified	-11.3102
cy	-11.3102
▁fractures	-11.3102
▁forest	-11.3104
living	-11.3106
Show	-11.3111
ndf	-11.3113
▁transient	-11.3114
▁suspension	-11.3122
96	-11.3123
▁Total	-11.3125
person	-11.3128
▁egg	-11.313
▁necrosis	-11.3131
▁theoretical	-11.3133
▁[]\	-11.3134
▁equipped	-11.3136
Post	-11.3137
▁slowly	-11.3141
▁voted	-11.3144
▁fabric	-11.3147
▁COURT	-11.3153
Connection	-11.3153
Populated	-11.3154
▁visited	-11.3155
▁attempting	-11.3155
▁wherein	-11.3157
▁enjoyed	-11.3159
▁biology	-11.316
▁complaint	-11.3162
▁strike	-11.3165
▁Iowa	-11.3165
▁thick	-11.3166
66	-11.3169
▁ignore	-11.3169
▁engaged	-11.317
▁facts	-11.317
ker	-11.3171
▁scroll	-11.3172
▁clip	-11.3173
▁EP	-11.3175
▁odd	-11.3175
▁suspended	-11.3177
▁Jesus	-11.3178
delete	-11.3178
speed	-11.3184
▁threads	-11.3188
▁dinner	-11.3189
▁bundle	-11.3192
▁Ltd	-11.3195
era	-11.3197
▁opinions	-11.3201
▁backup	-11.3203
▁competed	-11.3208
▁macrophages	-11.3212
▁shut	-11.3215
▁12-	-11.3217
▁Queen	-11.3217
▁stimuli	-11.3218
▁mM	-11.3221
▁faced	-11.3222
▁functioning	-11.3224
▁employment	-11.3224
▁apartment	-11.3225
▁Brian	-11.3229
▁finger	-11.3232
▁perceived	-11.3232
wrap	-11.3232
▁dating	-11.3233
▁Miller	-11.3242
pt	-11.3242
29	-11.3244
▁paths	-11.3246
▁Iraq	-11.3248
▁lights	-11.3253
▁checks	-11.3254
▁painting	-11.3254
▁Update	-11.3254
▁diffusion	-11.3255
▁$2	-11.3258
▁generator	-11.3263
ford	-11.3263
▁outdoor	-11.3263
▁codes	-11.3269
CH	-11.3269
▁Task	-11.3269
▁difficulties	-11.3272
▁losses	-11.3272
Block	-11.3273
▁quote	-11.3274
▁%}\	-11.3275
▁transportation	-11.3277
▁journal	-11.3278
▁bias	-11.3278
▁1960	-11.328
▁utilizing	-11.3283
▁Age	-11.3284
▁pr	-11.3287
dose	-11.329
hello	-11.329
▁26,	-11.3292
▁Sydney	-11.3295
▁odds	-11.3296
▁legs	-11.33
▁poorly	-11.33
▁hosting	-11.33
▁Indiana	-11.3301
▁mod	-11.3302
Sub	-11.3303
are	-11.3303
▁controversial	-11.3304
making	-11.3308
▁antigens	-11.3311
▁championship	-11.3314
▁neutral	-11.3314
▁modes	-11.3315
▁ischemic	-11.3315
▁Olympic	-11.3315
IV	-11.3317
▁Jeff	-11.3317
▁WARRANTY	-11.332
▁Medicine	-11.332
▁combat	-11.3323
▁prevented	-11.3325
▁React	-11.3325
▁Hollywood	-11.3326
linked	-11.3326
nDe	-11.3328
▁Sweden	-11.333
)=	-11.3331
▁shoot	-11.3331
▁Mobile	-11.3332
▁promoting	-11.3334
▁cream	-11.3336
▁Place	-11.3336
▁calendar	-11.3337
▁bid	-11.3338
▁cavity	-11.3338
▁validate	-11.3346
tools	-11.3347
▁UN	-11.3348
▁replication	-11.3348
▁brands	-11.3351
nwith	-11.3352
▁golf	-11.3353
▁knowing	-11.3358
▁Jewish	-11.3359
▁powder	-11.3362
▁vast	-11.3362
▁52	-11.3362
▁shoulder	-11.3364
▁Manchester	-11.3369
ja	-11.337
▁adjust	-11.3371
screen	-11.3372
▁2019\	-11.3373
▁restore	-11.3376
▁%>\	-11.3379
▁1999	-11.3385
▁filling	-11.3389
▁27,	-11.339
▁authentication	-11.3391
▁regulations	-11.3395
ps	-11.3396
▁celebrate	-11.3397
▁Scale	-11.3398
▁concepts	-11.3399
IF	-11.3401
▁facial	-11.3403
▁eastern	-11.3403
▁readily	-11.3405
flow	-11.3407
AD	-11.3408
device	-11.3409
▁coefficient	-11.341
▁admin	-11.3413
▁endogenous	-11.3414
▁tiny	-11.3417
▁silicon	-11.3417
▁Islamic	-11.3418
▁Country	-11.3418
air	-11.3422
▁insertion	-11.3428
▁combinations	-11.3429
▁rising	-11.3429
▁complication	-11.3429
▁kernel	-11.3437
nOf	-11.344
▁False	-11.344
▁crazy	-11.344
▁retention	-11.3441
▁worker	-11.3443
▁rarely	-11.3443
99	-11.3444
spec	-11.3444
▁moments	-11.3446
▁faith	-11.3447
▁Cir	-11.3448
▁2011,	-11.3449
▁dialog	-11.3451
▁refers	-11.3452
PATH	-11.3452
▁careful	-11.3458
▁bypass	-11.3459
Co	-11.3459
▁Aug	-11.3459
nhow	-11.3461
▁tension	-11.3461
▁ST	-11.3462
nSubject	-11.3465
Cell	-11.3467
▁chapter	-11.3467
ndo	-11.347
▁reveals	-11.3475
three	-11.3476
▁volumes	-11.3479
▁Wilson	-11.3481
▁::	-11.3483
▁ruling	-11.3484
defined	-11.3484
▁modeling	-11.3492
▁protocols	-11.3496
▁panels	-11.35
delta	-11.3501
▁Creek	-11.3504
▁Us	-11.3504
▁supplies	-11.3505
▁filters	-11.3505
▁quotes	-11.3506
▁waves	-11.3506
▁talent	-11.3506
Header	-11.3507
▁advances	-11.3511
▁herself	-11.3514
▁emails	-11.3515
▁pixel	-11.3516
fill	-11.3516
▁transactions	-11.3516
Document	-11.3521
▁manufacturer	-11.3522
ive	-11.3523
▁SC	-11.3523
stop	-11.3525
▁dimension	-11.3525
mon	-11.3526
▁streaming	-11.3527
▁quantum	-11.3528
▁invited	-11.3529
Cl	-11.3531
▁lifetime	-11.3541
▁editing	-11.3541
ke	-11.3545
▁reset	-11.3546
▁lets	-11.3547
card	-11.3548
▁bars	-11.3548
▁css	-11.355
▁widespread	-11.355
▁Saudi	-11.3551
▁queue	-11.3552
▁calculations	-11.3553
▁chairman	-11.3555
▁Work	-11.3559
▁exclusively	-11.3562
▁licensed	-11.3564
▁alive	-11.3564
▁95	-11.3565
▁eggs	-11.3566
▁interactive	-11.3566
▁directions	-11.3566
nBecause	-11.3567
▁optional	-11.3567
▁Senior	-11.3567
▁Hotel	-11.3569
▁dress	-11.3569
▁cooking	-11.3569
▁Israeli	-11.3572
Product	-11.3574
should	-11.3576
▁papers	-11.3576
▁Heart	-11.3577
77	-11.358
▁Mountain	-11.3582
nUpdate	-11.3586
auth	-11.3592
▁petition	-11.3597
################	-11.36
▁cuts	-11.3602
▁breaks	-11.3603
▁accurately	-11.3603
▁puts	-11.3603
▁align	-11.3607
▁organs	-11.361
nOnce	-11.3611
ised	-11.3611
▁finds	-11.3612
nLa	-11.3612
nAdd	-11.3616
▁landscape	-11.3625
▁birthday	-11.3626
▁pathological	-11.3626
73	-11.3626
-2-	-11.3629
▁slide	-11.363
▁designated	-11.363
▁Civil	-11.363
▁Drive	-11.3633
▁Nations	-11.3636
▁localized	-11.3637
raw	-11.3639
▁managers	-11.3641
Container	-11.3642
▁Price	-11.3643
sectional	-11.3644
▁currency	-11.3644
▁Rose	-11.3645
▁attractive	-11.3653
▁demands	-11.3654
▁preoperative	-11.3654
▁fibrosis	-11.3655
ST	-11.3656
pl	-11.3656
nJohn	-11.3657
▁personality	-11.3657
Session	-11.3658
▁engage	-11.3658
▁trailer	-11.3659
▁accordance	-11.3659
▁ownership	-11.3661
▁inputs	-11.3662
hr	-11.3662
▁antagonist	-11.3663
▁600	-11.3664
▁actress	-11.3665
▁fantastic	-11.367
▁monoclonal	-11.3672
▁extending	-11.3673
▁transplant	-11.3674
▁ranged	-11.3676
▁visits	-11.3678
▁incredible	-11.3678
▁46	-11.3679
▁contemporary	-11.3681
▁foods	-11.3684
price	-11.3689
▁Netherlands	-11.3691
town	-11.3692
ase	-11.3695
selected	-11.3696
▁31,	-11.3698
▁contest	-11.3698
xsl	-11.3702
▁taught	-11.3704
▁Win	-11.3706
▁yards	-11.3707
empty	-11.3709
▁authority	-11.371
▁2:	-11.3711
buffer	-11.3713
▁Whether	-11.3714
Olympic	-11.3714
▁proximal	-11.3715
▁spectrometry	-11.3716
▁FIG	-11.3718
nof	-11.3719
▁Stadium	-11.372
▁promoted	-11.3721
▁searched	-11.3721
TH	-11.3723
▁pitch	-11.3724
▁cats	-11.3729
▁recipients	-11.373
▁Database	-11.3731
▁Log	-11.3734
microsoft	-11.3735
▁databases	-11.3735
▁Kevin	-11.3738
▁shortly	-11.3739
▁suppression	-11.3739
▁explicitly	-11.374
▁Sir	-11.3744
▁atrial	-11.3744
ach	-11.3746
▁1998	-11.3752
▁bass	-11.3755
inflammatory	-11.3756
▁roughly	-11.3757
▁municipality	-11.3758
RT	-11.3758
▁reputation	-11.3761
▁Sky	-11.3763
▁payments	-11.3766
256	-11.3767
▁DO	-11.3769
▁skeletal	-11.377
▁maximal	-11.3777
nLike	-11.3777
▁constantly	-11.3777
dl	-11.378
round	-11.3781
▁regulate	-11.3781
▁indices	-11.3784
▁notification	-11.3784
▁TABLE	-11.3785
▁(6	-11.379
tech	-11.3793
▁st	-11.3793
▁principle	-11.3795
▁naturally	-11.3799
7684\	-11.38
▁Oracle	-11.3801
▁bottle	-11.3801
{1}{	-11.3801
▁Sen	-11.3802
▁finite	-11.3805
▁Kansas	-11.3806
▁packaging	-11.3808
▁Cell	-11.3809
▁dont	-11.3811
']\	-11.3811
▁Philadelphia	-11.3812
▁Mexican	-11.3814
▁api	-11.3816
▁Cloud	-11.3816
▁fetch	-11.3828
▁2016\	-11.3829
▁Alabama	-11.3831
▁chair	-11.3832
▁engagement	-11.3833
▁appearances	-11.3833
▁Miami	-11.3837
▁writes	-11.3837
▁residential	-11.3838
▁Rs	-11.3838
▁opens	-11.3844
▁Bridge	-11.3844
▁Mean	-11.3847
▁Market	-11.3848
▁compete	-11.3851
exports	-11.3852
=1	-11.3852
▁nested	-11.3853
▁implementing	-11.3854
▁alignment	-11.3856
▁Due	-11.3857
▁FBI	-11.3857
fcr	-11.3858
88	-11.3858
Store	-11.3859
▁Executive	-11.386
▁lifestyle	-11.3862
help	-11.3862
Items	-11.3863
▁Professor	-11.3863
▁refused	-11.3863
▁fitness	-11.3868
▁rescue	-11.3869
▁Diego	-11.387
▁monitored	-11.3871
▁emerged	-11.3874
▁Six	-11.3876
full	-11.3876
▁2010,	-11.3876
nK	-11.3876
▁consistently	-11.3879
▁Change	-11.3879
▁$$	-11.3881
Up	-11.3882
▁weird	-11.3882
▁dependence	-11.3882
Address	-11.3884
▁racing	-11.3886
sk	-11.3886
▁household	-11.3887
nHave	-11.3887
▁adaptation	-11.3888
dx	-11.3889
▁reads	-11.389
▁Event	-11.3891
▁proxy	-11.3892
▁taxes	-11.3895
▁restaurants	-11.3895
▁metastatic	-11.3896
▁runtime	-11.3897
▁deposition	-11.3899
▁Int	-11.39
▁flowers	-11.3905
▁catheter	-11.3909
ano	-11.3912
▁residual	-11.3913
▁Wars	-11.3913
▁fake	-11.3918
▁army	-11.3919
▁Inter	-11.3921
▁counsel	-11.3921
▁irradiation	-11.3922
abc	-11.3924
▁mounting	-11.3924
3059\	-11.3925
▁polymerase	-11.3925
▁Seattle	-11.3927
:21	-11.3931
▁elevation	-11.3931
],\	-11.3932
Last	-11.3932
▁Missouri	-11.3935
▁Samsung	-11.3937
▁Prince	-11.3939
▁Official	-11.3943
That	-11.3944
▁sender	-11.3945
▁async	-11.3947
▁disability	-11.3947
▁expressions	-11.3948
Settings	-11.3949
▁supporters	-11.3951
yes	-11.3955
▁reporters	-11.3958
▁invalid	-11.3959
▁implant	-11.3959
▁impressive	-11.396
grade	-11.3961
gmail	-11.3961
33	-11.3967
▁docs	-11.3968
Please	-11.3968
▁Muslim	-11.3969
rm	-11.3971
nExample	-11.3972
▁che	-11.3972
▁Scottish	-11.3973
▁benign	-11.3976
▁yeast	-11.3977
nthis	-11.3977
▁Square	-11.3979
!\"	-11.3982
▁29,	-11.3983
▁rice	-11.3984
▁settlement	-11.3986
nShare	-11.3987
nCareer	-11.3987
▁hurt	-11.3989
about	-11.3992
foot	-11.3996
▁dynamically	-11.3997
ki	-11.3997
36	-11.4001
▁cheap	-11.4001
▁falling	-11.4001
▁shots	-11.4002
▁meetings	-11.4004
▁Should	-11.4004
▁substances	-11.4005
▁spectra	-11.4006
▁heavily	-11.4006
Position	-11.4009
small	-11.4013
▁surprised	-11.4014
also	-11.4019
▁Adam	-11.4019
berg	-11.402
▁expectations	-11.402
72	-11.4028
instance	-11.4028
▁arthritis	-11.4035
▁headers	-11.4036
▁weapon	-11.4037
ola	-11.404
▁leaf	-11.4041
▁neonatal	-11.4042
▁metabolites	-11.4042
▁1996	-11.4043
▁mothers	-11.4049
ner	-11.405
linux	-11.4054
▁\"<	-11.4054
▁operators	-11.4055
▁solo	-11.4059
▁graduate	-11.4062
ready	-11.4063
▁unlikely	-11.4064
▁positively	-11.4064
▁hook	-11.4066
▁phosphate	-11.4066
▁goods	-11.407
▁kit	-11.407
▁sensory	-11.4072
▁earn	-11.4072
▁equally	-11.4075
▁blocking	-11.4076
▁listening	-11.4077
PA	-11.4078
They	-11.4079
▁pushed	-11.408
ium	-11.4081
▁Guide	-11.4086
PP	-11.4088
task	-11.4089
wiki	-11.4095
▁focuses	-11.4095
▁Lewis	-11.4096
None	-11.4098
▁plates	-11.4101
▁Swedish	-11.4103
▁pathology	-11.4105
▁protest	-11.4108
toString	-11.4109
four	-11.4109
▁voting	-11.411
▁entities	-11.4119
▁falls	-11.4121
▁Down	-11.4122
▁arr	-11.4123
▁\"/	-11.4124
ria	-11.4124
ck	-11.413
-17	-11.413
▁sql	-11.413
1\"	-11.4131
▁psychiatric	-11.4131
▁demonstrates	-11.4131
nDon	-11.4133
▁displaying	-11.4134
ten	-11.4136
▁47	-11.414
▁assuming	-11.414
custom	-11.4141
vec	-11.4141
▁je	-11.4143
▁await	-11.4144
See	-11.4146
▁twenty	-11.4146
▁Unit	-11.4147
▁Stephen	-11.4148
▁retinal	-11.4148
▁manufacturers	-11.4156
iv	-11.4156
ted	-11.4158
▁Latin	-11.4159
▁lymphoma	-11.4163
▁antibiotic	-11.4165
▁amplitude	-11.4166
▁LA	-11.4167
75	-11.4168
hand	-11.4169
▁fragments	-11.4169
▁containers	-11.4171
▁interpretation	-11.4174
▁trick	-11.4176
▁Blood	-11.4176
42	-11.4177
After	-11.4177
care	-11.4182
▁perception	-11.4182
les	-11.4182
▁attributed	-11.4183
▁shoes	-11.4187
▁grand	-11.4188
▁declare	-11.4188
▁electricity	-11.4192
▁proceed	-11.4192
disambiguation	-11.4197
▁Appellant	-11.4198
dom	-11.42
ise	-11.4201
▁wins	-11.4202
global	-11.4202
real	-11.4203
▁24-	-11.4205
▁comic	-11.4205
▁CNN	-11.421
▁params	-11.421
Target	-11.421
▁entitled	-11.421
Template	-11.4212
▁54	-11.4212
▁BUT	-11.4214
▁accomplish	-11.422
Dir	-11.4222
▁continuously	-11.4222
nWhich	-11.4223
amino	-11.4224
▁infant	-11.4224
▁rehabilitation	-11.4228
▁assumed	-11.4228
▁pseudo	-11.4229
connect	-11.4232
▁mobility	-11.4233
Buffer	-11.4233
▁Future	-11.4234
pa	-11.4236
▁indicator	-11.4239
den	-11.424
▁$(\"#	-11.4242
va	-11.4243
▁PR	-11.4245
▁Function	-11.4245
▁Final	-11.4246
▁preparing	-11.4247
▁explored	-11.4252
nT	-11.4253
////////////////	-11.4254
Token	-11.4258
82	-11.4258
▁seal	-11.4258
▁Route	-11.4258
▁Golden	-11.426
▁85	-11.4261
hydroxy	-11.4268
▁assignment	-11.4269
IC	-11.4269
dt	-11.427
Long	-11.4272
▁passenger	-11.4272
▁cookie	-11.4273
Cache	-11.4273
bound	-11.4274
▁ads	-11.4275
▁Color	-11.428
▁destroyed	-11.428
quality	-11.4282
▁induces	-11.4283
▁scenes	-11.4285
Fi	-11.4285
AC	-11.4285
Main	-11.4287
strong	-11.4289
▁participating	-11.4291
▁Product	-11.4291
final	-11.4293
▁duty	-11.4294
gastrointestinal	-11.4295
▁cited	-11.4298
▁fluorescent	-11.4302
▁8-	-11.431
debug	-11.4311
nFurther	-11.4311
▁tr	-11.4312
▁antioxidant	-11.4315
▁Child	-11.4315
▁suffer	-11.4316
▁winners	-11.4316
▁sperm	-11.4316
ell	-11.4318
▁reflected	-11.4318
}{\\	-11.4318
▁utilization	-11.4318
▁rail	-11.4319
▁complement	-11.4321
▁drives	-11.4323
loop	-11.4327
▁Th	-11.4328
process	-11.4329
▁cytokines	-11.4332
62	-11.4332
ster	-11.4334
cl	-11.4335
ToString	-11.4335
▁math	-11.4336
▁horse	-11.4337
▁frames	-11.4337
po	-11.4343
▁failing	-11.4345
▁jail	-11.4347
del	-11.4357
▁affordable	-11.4358
▁flying	-11.4358
▁algorithms	-11.4359
▁speaker	-11.4362
▁cursor	-11.4365
▁2013\	-11.4372
via	-11.4372
▁electrodes	-11.4372
▁56	-11.4379
Or	-11.4381
▁ships	-11.4381
▁markedly	-11.4385
▁portal	-11.4386
▁vectors	-11.4387
ov	-11.4388
▁passage	-11.439
▁chains	-11.4394
▁react	-11.4395
▁eliminate	-11.4396
▁evaluating	-11.4397
▁iPad	-11.4399
▁airway	-11.4401
PC	-11.4403
58	-11.4404
▁soldiers	-11.4405
▁30%	-11.4405
▁Alex	-11.4406
La	-11.4408
▁Which	-11.4408
▁tries	-11.441
▁IFN	-11.4412
Video	-11.4412
▁Dallas	-11.4413
ung	-11.4413
▁LLC	-11.4415
▁passengers	-11.4419
▁rabbit	-11.4421
▁Current	-11.4422
▁Site	-11.4423
ak	-11.4424
]);\	-11.4425
▁doc	-11.4426
▁teach	-11.4427
▁Jordan	-11.4428
asp	-11.4429
▁Channel	-11.4436
▁Bio	-11.4437
isation	-11.4439
+\\	-11.4442
▁NF	-11.4445
▁combustion	-11.4447
▁Rep	-11.445
▁extracts	-11.4451
Order	-11.4456
▁spots	-11.4456
▁Start	-11.4457
CF	-11.4458
▁excessive	-11.4459
▁relate	-11.4459
▁flexibility	-11.446
tic	-11.4462
▁modifications	-11.4462
▁namely	-11.4464
▁USE	-11.4464
▁aggregation	-11.4465
▁analog	-11.4466
Our	-11.4466
▁ultimate	-11.447
▁Exchange	-11.447
▁forth	-11.4473
98	-11.4473
▁2014\	-11.4474
ls	-11.4475
---	-11.4475
license	-11.4477
▁replacing	-11.4481
▁discrimination	-11.4482
▁franchise	-11.4487
▁everyday	-11.4489
▁ratings	-11.449
▁donors	-11.4495
▁validity	-11.4497
▁Anti	-11.4498
▁unexpected	-11.4501
▁spirit	-11.4501
▁ser	-11.4507
▁perfusion	-11.4508
nClick	-11.4509
▁struck	-11.4518
▁overview	-11.4519
schema	-11.452
▁Bush	-11.4521
▁Ukraine	-11.4523
minute	-11.4524
▁folks	-11.4525
channel	-11.4525
▁Edition	-11.4526
▁satellite	-11.4531
▁rod	-11.4531
family	-11.4532
▁steady	-11.4533
▁sequencing	-11.4533
▁offensive	-11.4538
▁Xbox	-11.4538
▁paste	-11.454
▁emissions	-11.454
67	-11.4541
▁0.001).	-11.4542
▁kick	-11.4543
▁'<	-11.4552
▁phases	-11.4556
▁concert	-11.4557
▁Tech	-11.4558
▁Low	-11.456
▁Season	-11.4561
():\	-11.4564
▁arteries	-11.4565
▁stimulus	-11.4565
▁positioned	-11.4569
Str	-11.457
▁Box	-11.4571
▁immigration	-11.4572
Output	-11.4572
59	-11.4572
▁delta	-11.4574
▁viruses	-11.4579
▁Chi	-11.4579
▁arts	-11.4581
rio	-11.4583
▁cheese	-11.4584
==	-11.4585
cs	-11.4587
▁rubber	-11.4588
ude	-11.4588
▁Ma	-11.4592
▁needle	-11.4594
▁funny	-11.4595
▁soccer	-11.4601
86	-11.4601
▁Story	-11.4602
access	-11.4603
▁bovine	-11.4604
▁EC	-11.4604
▁laptop	-11.4605
border	-11.4611
▁obtaining	-11.4612
▁mount	-11.4613
▁stretch	-11.4614
▁tone	-11.4616
▁viewed	-11.4617
▁Las	-11.4618
▁soluble	-11.4619
▁Through	-11.4622
More	-11.4627
zip	-11.4628
▁offices	-11.4628
▁sheets	-11.4636
Activity	-11.4641
sha	-11.4644
▁catalytic	-11.4647
▁carriers	-11.4648
{{	-11.4648
▁raising	-11.4649
▁derivative	-11.4653
share	-11.4656
▁prompt	-11.4657
Layout	-11.466
▁Hot	-11.4662
John	-11.4663
analysis	-11.4663
▁announce	-11.4665
▁inches	-11.4666
▁Maryland	-11.4668
▁disposed	-11.467
▁coordinates	-11.4671
▁curves	-11.4673
▁tweet	-11.4676
▁lift	-11.4677
▁Rule	-11.468
blue	-11.4682
▁wake	-11.4689
▁]	-11.4692
▁anybody	-11.4692
vi	-11.4693
▁hat	-11.4694
▁drag	-11.4694
▁antibiotics	-11.4695
▁Firefox	-11.4696
▁BC	-11.4697
GL	-11.47
▁Integer	-11.4708
(*	-11.4708
▁ms	-11.471
▁implantation	-11.4713
▁intense	-11.4714
▁passion	-11.4715
unreadable	-11.4716
▁accompanying	-11.4716
▁sorry	-11.4717
▁Galaxy	-11.4717
▁tie	-11.4719
schemas	-11.4721
▁Publication	-11.4722
▁initiation	-11.4722
▁smartphone	-11.4722
▁reproductive	-11.4724
▁Player	-11.4725
▁blade	-11.4727
▁Foo	-11.4728
▁manufacture	-11.4731
axis	-11.4731
▁WITH	-11.4733
▁metastases	-11.4733
▁storing	-11.4742
▁Eric	-11.4744
article	-11.4748
0433\	-11.4754
▁adventure	-11.4754
▁Way	-11.4756
▁microg	-11.4757
▁repeatedly	-11.476
Menu	-11.4761
OK	-11.4764
▁wing	-11.4769
▁attending	-11.477
▁neurological	-11.4772
▁2015\	-11.4774
resource	-11.4778
▁bonus	-11.4781
▁{\"	-11.4781
Microsoft	-11.4783
▁gland	-11.4784
▁scripts	-11.4788
▁explicit	-11.4788
▁emphasis	-11.4789
▁restrictions	-11.4796
how	-11.4797
▁ver	-11.4802
▁ourselves	-11.4802
Out	-11.4802
▁Continue	-11.4805
▁mammalian	-11.4806
Body	-11.4808
een	-11.4808
▁safely	-11.4811
▁clone	-11.4813
▁bear	-11.4813
▁lake	-11.4815
EN	-11.4817
▁<!--	-11.4818
▁outstanding	-11.4819
cA	-11.4821
echo	-11.4822
▁schema	-11.4823
▁footage	-11.4823
utils	-11.4825
=1}	-11.4827
▁ASP	-11.4827
▁gallery	-11.4828
▁contributing	-11.4828
▁5%	-11.4829
▁cyclic	-11.483
▁Currently	-11.4833
▁polymorphism	-11.4834
▁1.2	-11.4835
▁0.05)	-11.4835
▁canvas	-11.4835
Home	-11.4839
▁pour	-11.484
▁medal	-11.4841
▁Berlin	-11.4841
Script	-11.4843
▁applies	-11.4847
▁releases	-11.4848
CV	-11.4849
▁circulation	-11.4849
▁lawsuit	-11.485
▁mirror	-11.4852
▁Member	-11.4852
▁decreasing	-11.4853
▁rid	-11.4857
▁tied	-11.4858
insert	-11.486
})	-11.4864
▁Mayor	-11.4865
▁mom	-11.4867
▁Township	-11.4868
▁'/	-11.4869
ins	-11.4869
Two	-11.4872
▁slot	-11.4872
▁belongs	-11.4875
▁activate	-11.4876
Members	-11.4878
▁accomplished	-11.4881
▁Select	-11.4883
▁branches	-11.4885
internal	-11.4894
Go	-11.4899
▁ink	-11.4901
nTrack	-11.4903
▁las	-11.4905
▁Forest	-11.4905
▁lie	-11.4905
:@\"	-11.4907
ino	-11.4907
▁Ms	-11.4908
▁Kelly	-11.491
▁arrive	-11.491
▁Bi	-11.4912
▁Sept	-11.4912
▁sys	-11.4921
▁Card	-11.4924
062	-11.4925
▁dependencies	-11.493
EC	-11.493
▁allegations	-11.493
nBoth	-11.4933
▁personally	-11.4938
track	-11.4938
Height	-11.4941
▁59	-11.4943
▁AI	-11.4945
release	-11.4946
▁limitation	-11.4947
▁suggestion	-11.4949
activity	-11.495
sample	-11.495
▁Foreign	-11.495
▁duplicate	-11.4951
▁consent	-11.4951
Expression	-11.4952
▁tonight	-11.4953
▁PI	-11.4955
ft	-11.4957
made	-11.4959
▁Exception	-11.496
Frame	-11.4961
0442	-11.4962
▁charging	-11.4962
▁incorrect	-11.4962
unit	-11.4962
gl	-11.4965
▁zinc	-11.4966
chain	-11.4966
▁grab	-11.4969
degree	-11.4969
▁heading	-11.4973
nG	-11.4974
News	-11.4974
▁clothing	-11.4975
▁confirmation	-11.4978
▁Engineering	-11.4978
VERSION	-11.4978
▁initiative	-11.4985
comment	-11.4985
nEven	-11.4986
▁Collection	-11.4993
reference	-11.4993
tri	-11.4995
graph	-11.4999
▁STATES	-11.4999
▁congenital	-11.4999
▁defensive	-11.5
▁mixing	-11.5002
▁limb	-11.5003
▁Vice	-11.5003
▁genotype	-11.5003
▁sand	-11.5006
▁tobacco	-11.5006
ES	-11.5009
▁collections	-11.5011
five	-11.5011
stack	-11.5011
watch	-11.5013
hide	-11.5016
-20	-11.5016
▁secretary	-11.502
Attribute	-11.5021
▁yields	-11.5024
MP	-11.5024
▁Christ	-11.5027
▁como	-11.503
▁everywhere	-11.5032
green	-11.5037
▁YOU	-11.5037
apple	-11.5038
FF	-11.5041
▁kinetics	-11.5043
DS	-11.5045
▁floating	-11.5046
props	-11.5046
▁Ali	-11.5047
▁torque	-11.5049
▁NY	-11.5051
▁Atlanta	-11.5053
▁dopamine	-11.5054
▁colorectal	-11.5055
▁INTO	-11.5055
▁membership	-11.5056
▁storm	-11.5057
▁logging	-11.5059
nwhile	-11.5062
▁Singapore	-11.5063
▁encoded	-11.5064
▁slight	-11.5069
▁rendering	-11.5071
most	-11.5073
▁coaches	-11.5078
Grid	-11.5079
▁Range	-11.5081
▁calculation	-11.5083
▁generates	-11.5085
ho	-11.5086
▁downtown	-11.5088
▁Tennessee	-11.5091
▁influences	-11.5094
▁recipient	-11.5094
▁img	-11.5094
74	-11.5095
▁struggling	-11.5097
▁Still	-11.5097
▁downloaded	-11.5098
▁Early	-11.5098
▁sharp	-11.5099
▁printer	-11.5102
▁SDK	-11.5102
▁governor	-11.5104
ard	-11.5107
▁1.1	-11.511
PD	-11.5113
▁vacuum	-11.5114
ntemplate	-11.5114
▁ER	-11.5115
▁CS	-11.5115
▁operational	-11.5124
▁validated	-11.5125
▁Hence	-11.5132
▁nasal	-11.5133
▁tap	-11.5135
▁laid	-11.5135
▁performances	-11.5136
▁fever	-11.5136
▁organisms	-11.5136
▁mining	-11.5138
▁bags	-11.514
False	-11.514
▁spine	-11.5144
▁HR	-11.5146
▁simultaneous	-11.5146
▁methodology	-11.515
▁circulating	-11.5151
Identifier	-11.5151
▁pollution	-11.5152
▁Wi	-11.5152
▁relating	-11.5155
▁ceremony	-11.5157
transform	-11.5157
ities	-11.5159
▁ultra	-11.5159
=0	-11.5168
▁Console	-11.517
▁Governor	-11.5174
▁instruction	-11.5176
▁NBA	-11.5177
▁triggered	-11.5177
▁differently	-11.5185
▁(8	-11.5187
▁vulnerable	-11.5188
▁rugby	-11.5192
\"]\	-11.5194
-8\"?>\	-11.5195
▁boss	-11.5195
nmodule	-11.5196
▁90%	-11.5197
▁110	-11.5199
▁indication	-11.5204
▁genomic	-11.5204
▁anniversary	-11.5207
ret	-11.5209
▁og	-11.5211
▁180	-11.5215
RE	-11.5215
inch	-11.5215
▁infectious	-11.5216
▁Bell	-11.5216
▁Has	-11.5217
dist	-11.5217
Load	-11.5218
▁optimization	-11.5218
▁Stone	-11.5218
▁deployed	-11.5219
▁cylinder	-11.5225
▁recall	-11.5225
▁solvent	-11.5226
anti	-11.5226
Val	-11.5228
▁redistribute	-11.5229
▁circular	-11.5229
▁pad	-11.523
▁Micro	-11.5231
▁mayor	-11.5233
▁antenna	-11.5236
city	-11.5238
▁Could	-11.5239
▁Kentucky	-11.524
▁elsewhere	-11.5244
▁somebody	-11.5249
▁documentary	-11.5249
▁races	-11.5253
▁installing	-11.5253
▁fishing	-11.5255
player	-11.5256
97	-11.5261
▁reform	-11.5264
▁80%	-11.5265
▁labeled	-11.5266
▁morphological	-11.527
apply	-11.5272
${	-11.5272
▁referring	-11.5272
▁IC	-11.5272
▁acoustic	-11.5273
band	-11.5274
cut	-11.5277
-3-	-11.5279
▁reserve	-11.5281
require	-11.5282
▁tablet	-11.5283
Al	-11.5284
when	-11.5286
▁boundary	-11.5287
▁BP	-11.5287
▁Systems	-11.5288
World	-11.5289
▁pipeline	-11.529
▁districts	-11.5292
▁pushing	-11.5293
▁screw	-11.5293
nthat	-11.5294
ji	-11.5295
nToday	-11.5296
▁Empire	-11.5297
cHe	-11.5298
Json	-11.5306
012	-11.5308
▁colleagues	-11.531
▁warned	-11.5312
▁pounds	-11.5313
▁Singh	-11.5316
▁preference	-11.5316
▁selecting	-11.532
▁melanoma	-11.5321
▁forever	-11.5322
-16	-11.5322
nFollow	-11.5324
▁Affairs	-11.5324
Effects	-11.5324
party	-11.5326
▁Pan	-11.5328
▁1997	-11.5328
▁locked	-11.5328
opt	-11.5329
je	-11.5329
▁pot	-11.533
▁kid	-11.533
pop	-11.5334
▁powered	-11.5335
▁peer	-11.5335
Max	-11.5339
▁1,000	-11.534
▁Con	-11.5343
▁subunit	-11.5345
▁cytokine	-11.5346
▁expressing	-11.5347
Photo	-11.5348
nDespite	-11.5352
▁selector	-11.5352
▁appointment	-11.5352
hidden	-11.5354
▁Islands	-11.5357
National	-11.5362
▁establishment	-11.5362
▁bin	-11.5363
▁clicked	-11.5364
▁museum	-11.5364
▁ruled	-11.5366
▁craft	-11.5367
plus	-11.5369
ating	-11.5372
▁Highway	-11.5372
▁ranked	-11.5372
nRelated	-11.5372
Now	-11.5376
render	-11.5378
▁traits	-11.5378
▁Entertainment	-11.538
▁histological	-11.5381
▁Detroit	-11.5382
models	-11.5383
▁relaxation	-11.5383
▁2009,	-11.5384
▁pleased	-11.5385
\"));\	-11.5386
▁dependency	-11.5387
(4)	-11.5388
Use	-11.5388
req	-11.5389
▁objectives	-11.5391
mathcal	-11.5391
▁Plan	-11.5391
▁53	-11.5392
area	-11.5395
▁secured	-11.54
▁Double	-11.54
▁profit	-11.5405
▁radius	-11.5405
controlled	-11.5408
aka	-11.5408
▁complaints	-11.5409
▁1992	-11.541
▁confident	-11.5411
▁Ag	-11.5411
Your	-11.5418
▁0.2	-11.5419
▁Sanders	-11.5419
attribute	-11.5421
▁reversed	-11.5421
▁#1	-11.5422
▁terminals	-11.5422
▁undergo	-11.5423
▁compositions	-11.5425
▁HLA	-11.5428
▁aluminum	-11.5428
▁coal	-11.5429
IS	-11.543
nat	-11.543
▁DVD	-11.5431
oo	-11.5433
Day	-11.5433
▁predictors	-11.5434
▁js	-11.5435
Fe	-11.5436
▁Turkish	-11.5437
▁innovation	-11.5438
▁inspiration	-11.5439
021	-11.544
▁frozen	-11.5443
▁literally	-11.5443
▁initiated	-11.5443
▁Dark	-11.5448
ance	-11.5448
▁Corp	-11.5452
▁GM	-11.5453
▁finance	-11.5455
law	-11.5455
▁Vegas	-11.5458
▁partition	-11.5459
▁Jean	-11.5459
▁burn	-11.546
▁uma	-11.5462
▁tuberculosis	-11.5464
▁chocolate	-11.5465
▁reply	-11.5466
▁swimming	-11.5466
▁situated	-11.5466
▁Tony	-11.5469
▁logs	-11.5471
epsilon	-11.5472
▁conjunction	-11.5475
mark	-11.5476
▁Follow	-11.5476
▁answered	-11.5476
Listener	-11.5479
TO	-11.5479
der	-11.548
▁Sony	-11.5482
▁800	-11.5483
▁bold	-11.5484
▁Contact	-11.5485
▁rejected	-11.5488
register	-11.5494
▁rolling	-11.5496
▁Bowl	-11.5496
▁focal	-11.5497
▁commission	-11.5499
▁RA	-11.5499
44	-11.5501
▁behalf	-11.5501
▁Multi	-11.5504
▁immunity	-11.5504
▁roads	-11.5504
resources	-11.5509
▁chips	-11.5509
▁ref	-11.5509
▁graduated	-11.551
▁Ed	-11.5513
▁blockchain	-11.5514
war	-11.5514
▁prints	-11.5514
▁Compared	-11.5516
Integer	-11.5516
▁geometry	-11.552
▁Hillary	-11.552
▁clause	-11.552
▁Metro	-11.5521
▁2012\	-11.5522
▁flags	-11.5523
▁premium	-11.5523
▁4.0	-11.5523
▁dementia	-11.5523
▁Harry	-11.5525
▁Building	-11.5527
▁Training	-11.5528
▁stops	-11.5531
▁pace	-11.5532
▁Ray	-11.5534
eq	-11.5535
PS	-11.5537
▁radiotherapy	-11.5537
▁mis	-11.5537
▁mutants	-11.5539
▁Atlantic	-11.554
▁Battle	-11.5541
▁Moore	-11.5543
Instance	-11.5544
country	-11.5546
Local	-11.5547
▁Alzheimer	-11.5549
Star	-11.555
▁memories	-11.555
▁ventilation	-11.5552
▁schizophrenia	-11.5553
nEach	-11.5553
handle	-11.5556
▁fixation	-11.5557
ufeff	-11.5557
JS	-11.5558
▁Trust	-11.5559
/*\	-11.5561
▁Sri	-11.5564
▁pocket	-11.5564
▁deploy	-11.5565
▁mood	-11.5566
▁handled	-11.5566
▁jquery	-11.5568
▁Fund	-11.5569
▁troops	-11.5569
▁compensation	-11.5569
Entry	-11.557
▁murine	-11.5573
sky	-11.5574
!!!	-11.5576
▁meters	-11.5576
▁clothes	-11.5579
▁Bureau	-11.5579
▁NMR	-11.558
▁pi	-11.5581
▁Edward	-11.5582
▁interleukin	-11.5582
▁logged	-11.5586
mar	-11.5586
▁prize	-11.5595
-7	-11.5598
De	-11.5599
Build	-11.5601
▁Col	-11.5601
wp	-11.5606
▁photography	-11.5609
normal	-11.5611
▁sick	-11.5611
Category	-11.5611
▁discussions	-11.5612
kin	-11.5617
▁permitted	-11.562
▁constraints	-11.5621
▁sixth	-11.5622
▁LC	-11.5622
wa	-11.5624
▁talked	-11.5629
▁nutrition	-11.563
:10	-11.5631
'];\	-11.5632
▁symptom	-11.5633
▁nucleotide	-11.5636
▁projection	-11.5641
▁junction	-11.5642
nso	-11.5645
DM	-11.5647
▁outlet	-11.5648
prop	-11.5648
que	-11.565
nBe	-11.565
▁minimize	-11.5653
mid	-11.5653
▁batteries	-11.5656
face	-11.5656
angular	-11.5657
▁pigs	-11.5657
(@	-11.5658
▁bird	-11.5659
▁seeds	-11.566
▁Credit	-11.5663
▁engineer	-11.5663
▁Harris	-11.5664
gov	-11.5665
▁Recent	-11.5665
▁VS	-11.5671
▁typename	-11.5672
score	-11.5672
▁Nick	-11.5672
keys	-11.5673
▁obstruction	-11.5674
▁Elizabeth	-11.5676
▁distribute	-11.5682
▁charts	-11.5683
cal	-11.5683
▁125	-11.5684
BR	-11.5684
▁furniture	-11.5687
▁residence	-11.5687
▁startup	-11.5688
▁Oklahoma	-11.5688
▁assessing	-11.5689
▁lunch	-11.5689
▁publicly	-11.5694
▁multivariate	-11.5695
▁Ocean	-11.5696
▁defining	-11.5696
▁2008,	-11.57
▁suppressed	-11.5702
▁coil	-11.5703
▁clarify	-11.5705
▁Build	-11.5705
▁Norway	-11.5706
▁Property	-11.5706
▁ranges	-11.5708
SP	-11.5708
▁convenience	-11.5709
PI	-11.571
protein	-11.5711
▁micrograms	-11.5713
▁chemistry	-11.5714
▁96	-11.5714
▁specialized	-11.572
▁variance	-11.572
▁graphic	-11.5723
▁choosing	-11.5723
▁tall	-11.5724
....	-11.5724
▁inform	-11.5726
▁traveling	-11.5728
▁68	-11.573
▁fractions	-11.5731
▁'./	-11.5734
Edit	-11.5735
▁SE	-11.5735
▁Intel	-11.5739
▁Small	-11.5739
▁survive	-11.574
JSON	-11.5742
68	-11.5742
▁Officer	-11.5743
shape	-11.5743
$\\	-11.5744
▁defeat	-11.5746
▁Help	-11.575
Sportspeople	-11.5751
▁MIT	-11.5752
▁Jo	-11.5753
▁orange	-11.5753
▁Link	-11.5754
▁consequence	-11.5755
▁quiet	-11.5755
▁Javascript	-11.5757
▁har	-11.576
nEnd	-11.5761
▁subscription	-11.5764
fetch	-11.5767
▁evident	-11.5769
▁robot	-11.5769
▁wheels	-11.5771
▁stenosis	-11.5771
nUPDATE	-11.5774
Pro	-11.5775
Email	-11.5776
power	-11.5777
▁Khan	-11.5778
settings	-11.5779
▁combining	-11.578
▁MVC	-11.578
▁57	-11.5781
▁sat	-11.5781
▁universal	-11.5781
activated	-11.5782
▁guaranteed	-11.5784
>();\	-11.5785
▁compilation	-11.5786
▁holder	-11.5787
ON	-11.5787
▁Ki	-11.5787
▁Short	-11.5788
▁preparations	-11.5789
0436\	-11.5789
▁suppose	-11.5789
###	-11.5791
▁aside	-11.5791
▁ch	-11.5793
▁tooth	-11.5793
big	-11.5794
▁Custom	-11.5794
▁exhaust	-11.5795
▁Blog	-11.5795
nHope	-11.5798
▁chloride	-11.5798
IR	-11.5801
▁rendered	-11.5804
▁das	-11.5805
2192	-11.5806
▁optimized	-11.5806
▁journalist	-11.5808
install	-11.5809
Host	-11.581
sized	-11.5811
▁\"%	-11.5813
Reference	-11.5813
▁ports	-11.5814
!)	-11.5816
jsfiddle	-11.5816
▁Regional	-11.5817
▁hitting	-11.5819
)]	-11.5821
▁catalyst	-11.5821
▁Austin	-11.5822
▁Theatre	-11.5826
SQL	-11.5827
▁clusters	-11.5828
ang	-11.5828
ika	-11.5828
▁bowl	-11.5832
▁receives	-11.5833
nMake	-11.5834
▁tyrosine	-11.5834
▁shapes	-11.5837
Write	-11.5839
▁dollar	-11.5841
-1-	-11.5843
Thread	-11.5845
▁chemicals	-11.5846
85	-11.5847
▁Download	-11.5847
▁Path	-11.5848
▁append	-11.5849
▁2019,	-11.585
▁tradition	-11.585
▁phrase	-11.585
▁carotid	-11.5852
▁Miss	-11.5853
▁MD	-11.5853
Top	-11.5855
▁penalty	-11.5855
▁obese	-11.5855
▁dev	-11.5857
cmd	-11.5859
par	-11.5862
DE	-11.5864
▁Bad	-11.5865
Num	-11.5865
▁30-	-11.5868
▁operates	-11.5869
▁nurse	-11.5869
before	-11.5875
▁Fort	-11.5876
▁Given	-11.5877
▁Hg	-11.588
▁animated	-11.588
▁bash	-11.5881
Html	-11.5881
▁spectral	-11.5886
▁actively	-11.5886
▁?>\	-11.5886
▁VR	-11.5889
▁loose	-11.5889
▁estrogen	-11.5891
▁Sign	-11.5892
Reuters	-11.5895
▁Excel	-11.5895
▁updating	-11.5896
▁pixels	-11.5896
▁armed	-11.5899
▁AR	-11.5901
▁honest	-11.5902
dis	-11.5902
exec	-11.5902
▁0.3	-11.5902
inc	-11.5904
▁Multiple	-11.5904
▁Moscow	-11.5905
▁implants	-11.5907
▁abilities	-11.591
Current	-11.5915
▁zu	-11.5915
▁sky	-11.5917
▁1995	-11.5917
▁(7	-11.5927
▁58	-11.5928
British	-11.593
mysql	-11.593
▁harm	-11.5937
AB	-11.5937
▁Level	-11.5938
▁barriers	-11.5939
DNA	-11.594
▁lovely	-11.594
4+	-11.5942
▁fatal	-11.5944
aspx	-11.5948
▁fault	-11.5948
Debug	-11.595
▁territory	-11.5951
▁provision	-11.5953
▁describing	-11.5953
▁Melbourne	-11.5956
Reader	-11.5958
▁threats	-11.5959
▁OUT	-11.596
▁achieving	-11.5962
▁sensing	-11.5964
ball	-11.5964
▁Mount	-11.5967
▁Ph	-11.597
▁adsorption	-11.5971
▁mineral	-11.5975
▁destruction	-11.5978
▁pronounced	-11.5978
▁converting	-11.5978
▁alt	-11.5978
▁deployment	-11.598
▁scales	-11.5981
▁firing	-11.5983
++)\	-11.5984
offset	-11.5987
nWHERE	-11.5988
▁dramatic	-11.5988
▁restored	-11.5989
▁saline	-11.5989
ane	-11.599
variable	-11.5997
▁Bo	-11.5997
(\"%	-11.5998
▁Moon	-11.5999
▁recover	-11.6
▁Po	-11.6001
▁enabling	-11.6002
properties	-11.6004
[2]	-11.6005
▁gonna	-11.6007
▁om	-11.6009
▁medalists	-11.6011
▁retirement	-11.6013
-15	-11.6015
▁rally	-11.6016
▁possibilities	-11.6024
Binding	-11.6026
ext	-11.6028
▁stomach	-11.6028
]:	-11.6028
▁Hope	-11.6028
▁66	-11.603
▁translate	-11.6031
ai	-11.6032
▁Ti	-11.6033
che	-11.6035
▁expanding	-11.6036
▁recordings	-11.6037
▁flows	-11.6038
ura	-11.6039
even	-11.6039
▁Ruby	-11.6044
▁riding	-11.6044
▁40%	-11.6046
▁metals	-11.6049
]]	-11.6049
▁operative	-11.6049
what	-11.6051
▁junior	-11.6055
▁Eclipse	-11.6059
▁manufactured	-11.6068
▁bowel	-11.6068
▁Anderson	-11.6069
▁zip	-11.607
▁indirect	-11.607
94	-11.607
▁Activity	-11.6073
▁industries	-11.6074
▁Mi	-11.6077
▁susceptible	-11.6078
nResults	-11.6079
▁Dim	-11.6079
cr	-11.608
▁Afghanistan	-11.6084
▁Escherichia	-11.6084
▁fatigue	-11.6085
▁2017.	-11.6085
▁rough	-11.6086
*)	-11.6086
nrequire	-11.6087
phone	-11.6089
note	-11.6091
Bundle	-11.6092
');	-11.6093
▁appearing	-11.6094
▁improves	-11.6096
ENRON	-11.6097
▁ca	-11.61
Change	-11.6101
tags	-11.6102
ez	-11.6102
▁publications	-11.6104
▁interfaces	-11.6113
▁methyl	-11.6113
▁predominantly	-11.6116
▁0)\	-11.6117
▁reflection	-11.6119
▁declaration	-11.6119
TR	-11.612
just	-11.6121
▁FA	-11.6123
▁CBS	-11.6124
▁religion	-11.6124
report	-11.6129
▁transistor	-11.613
▁analytical	-11.6132
▁Jason	-11.6133
▁regime	-11.6133
tv	-11.6135
▁pharmacological	-11.6136
Level	-11.6136
▁tweeted	-11.6138
▁Band	-11.6139
__(	-11.614
math	-11.6141
SO	-11.6141
▁defeated	-11.6143
▁delivering	-11.6145
black	-11.6149
▁Brazilian	-11.6151
▁comprised	-11.6152
▁wider	-11.6156
rem	-11.6156
▁Patrick	-11.6156
clear	-11.6159
▁./	-11.6162
▁edited	-11.6162
▁ligands	-11.6162
=>	-11.6163
▁consensus	-11.6165
▁Room	-11.6166
▁gradually	-11.6167
▁Though	-11.6169
ato	-11.617
▁Wood	-11.6172
▁pen	-11.6173
▁positioning	-11.6174
infected	-11.6174
▁sad	-11.6178
▁Sciences	-11.6185
▁releasing	-11.6186
▁incubation	-11.619
▁watched	-11.6192
Films	-11.6195
▁69	-11.6197
▁Soviet	-11.6197
▁universe	-11.6198
▁Silver	-11.6198
▁miR	-11.6201
▁NBC	-11.6204
▁GET	-11.6204
▁\"\\	-11.6208
testing	-11.6208
ara	-11.621
repeat	-11.621
▁1994	-11.6213
▁transcriptional	-11.6215
▁violent	-11.6216
▁Alexander	-11.6216
libs	-11.6217
END	-11.6219
▁coefficients	-11.6219
016	-11.6223
▁guns	-11.6224
SE	-11.6226
32_	-11.6226
▁Between	-11.6228
▁ne	-11.6228
450	-11.623
▁1950	-11.6231
▁bandwidth	-11.6232
▁Allen	-11.6234
▁Defense	-11.6235
security	-11.6236
NC	-11.6238
▁Survey	-11.6238
elle	-11.6242
▁remarkable	-11.6244
▁retained	-11.6245
▁Framework	-11.6246
Foo	-11.6247
nDr	-11.6248
▁individually	-11.6249
540	-11.6249
nOver	-11.6249
▁cDNA	-11.6249
bus	-11.625
▁newsletter	-11.6253
friendly	-11.6255
37	-11.6256
Na	-11.6257
▁sheep	-11.6257
▁Ross	-11.6258
nstatic	-11.6259
team	-11.6259
▁expecting	-11.626
something	-11.626
Root	-11.6261
▁browsers	-11.6261
scanned	-11.6261
▁lacking	-11.6263
▁blow	-11.6264
annotation	-11.6264
▁occlusion	-11.6268
database	-11.6272
▁loves	-11.6274
▁Single	-11.6275
▁protecting	-11.6275
▁thrown	-11.6278
nSource	-11.6279
▁producers	-11.628
tion	-11.6282
▁boards	-11.6282
▁Authors	-11.6287
record	-11.6291
Properties	-11.6292
▁sudden	-11.6294
▁(9	-11.6294
▁pharmacokinetic	-11.6295
=$	-11.6296
place	-11.6296
▁prevents	-11.6297
Device	-11.6301
▁filename	-11.6302
▁encounter	-11.6304
▁harder	-11.6304
2:	-11.6305
ita	-11.6306
▁passive	-11.6308
▁lay	-11.6308
▁cake	-11.6308
▁/>	-11.6309
▁mesh	-11.631
Left	-11.631
▁Anthony	-11.6313
▁satisfied	-11.6315
▁duct	-11.6315
rest	-11.6316
▁chances	-11.6316
tel	-11.6321
ik	-11.6323
▁thousand	-11.6327
▁ministry	-11.6327
ari	-11.6328
▁deck	-11.6328
ig	-11.6329
▁anonymous	-11.6329
▁Flash	-11.6329
▁Reuters	-11.633
▁Fed	-11.6331
0432	-11.6334
[$	-11.6335
---\	-11.6336
▁Without	-11.6339
▁Assistant	-11.6339
▁Magazine	-11.634
▁agonist	-11.6342
don	-11.6342
▁musicians	-11.6346
1),	-11.6348
▁hypo	-11.6351
German	-11.6351
▁belong	-11.6352
AR	-11.6354
▁strategic	-11.6354
{%	-11.6355
▁correlations	-11.6362
▁packed	-11.6367
▁favourite	-11.6368
TEST	-11.6371
▁comparative	-11.6374
▁embryos	-11.6374
▁hybridization	-11.6378
▁selectively	-11.6381
▁Die	-11.6381
▁employ	-11.6382
platform	-11.6383
▁walked	-11.6384
▁headed	-11.6385
=0;	-11.6385
▁gathered	-11.6385
▁Labour	-11.6386
shell	-11.6386
▁arrival	-11.639
▁hopefully	-11.6392
\"))\	-11.6392
▁savings	-11.6392
nSet	-11.6392
▁Azure	-11.6394
nCreate	-11.6396
▁cancel	-11.6398
▁opt	-11.6398
Obj	-11.6399
▁nitric	-11.6401
▁Memorial	-11.6402
▁veteran	-11.6402
▁Command	-11.6403
▁themes	-11.6404
▁specification	-11.6405
▁rings	-11.6408
our	-11.6408
▁ret	-11.6409
▁notable	-11.6409
bash	-11.641
iso	-11.641
48	-11.6414
▁medications	-11.6414
▁metres	-11.6415
▁Dead	-11.6416
prefix	-11.6418
Run	-11.6418
▁Dave	-11.6419
▁negatively	-11.6419
ans	-11.642
BC	-11.6422
▁Maria	-11.6423
Password	-11.6424
▁struggle	-11.6425
▁Polish	-11.6428
▁venue	-11.6433
nJ	-11.6435
being	-11.6435
▁peri	-11.6437
MAX	-11.6438
▁Railway	-11.6439
▁highlighted	-11.6441
▁Tokyo	-11.6441
▁lucky	-11.6442
▁Disease	-11.6443
eg	-11.6445
▁pig	-11.6447
Var	-11.6447
▁gotten	-11.6448
▁deletion	-11.6449
▁rejection	-11.6452
▁cooperation	-11.6453
▁Ga	-11.6454
▁arbitrary	-11.6454
rows	-11.6458
▁survived	-11.6462
▁$5	-11.6463
assembly	-11.6465
Dialog	-11.6466
▁undertaken	-11.6466
▁instant	-11.6467
▁speakers	-11.6468
▁Yet	-11.647
▁pg	-11.6474
▁Capital	-11.6474
stone	-11.6477
▁placing	-11.6478
▁Word	-11.6479
▁67	-11.6481
▁1/2	-11.6481
▁entrance	-11.6481
▁101	-11.6483
cThere	-11.6484
cthe	-11.6484
▁Safety	-11.6484
▁transformed	-11.6489
About	-11.649
▁contamination	-11.6492
facebook	-11.6493
▁firms	-11.6494
▁everybody	-11.6494
▁Method	-11.6496
▁CYP	-11.6496
++;\	-11.6496
depth	-11.6497
▁rotate	-11.6498
▁Response	-11.6499
▁Song	-11.65
▁anesthesia	-11.65
▁equations	-11.6502
▁associate	-11.6503
▁integrate	-11.6504
▁DE	-11.6504
▁regulating	-11.6506
room	-11.6508
▁pointing	-11.651
ative	-11.6512
member	-11.6514
▁digits	-11.6514
▁optimize	-11.6517
▁predetermined	-11.6519
▁possession	-11.652
▁preserve	-11.6523
▁physically	-11.6523
▁towns	-11.6525
ram	-11.6526
rc	-11.6528
▁logistic	-11.6529
▁sulfate	-11.6529
▁Simple	-11.653
ial	-11.653
▁recruited	-11.6531
▁FM	-11.6532
Directory	-11.6534
▁finishing	-11.6534
ene	-11.6534
▁Utah	-11.6535
▁vaccination	-11.6536
▁overflow	-11.6539
▁bile	-11.654
▁DOM	-11.6546
▁Look	-11.6546
▁unchanged	-11.6547
▁limiting	-11.6547
▁standardized	-11.6548
Values	-11.6548
▁Thirty	-11.6548
▁inhibits	-11.6552
private	-11.6552
(0)	-11.6552
▁bonds	-11.6553
▁merely	-11.6553
sel	-11.6556
▁25%	-11.6556
▁unlike	-11.6559
▁epithelium	-11.6561
nCurrently	-11.6561
prototype	-11.6562
▁Trade	-11.6564
▁tennis	-11.6566
sch	-11.6566
▁RAM	-11.6568
▁fraud	-11.6569
▁pink	-11.657
▁2016.	-11.657
▁cute	-11.657
▁nose	-11.6571
▁competing	-11.6571
nreturn	-11.6573
▁Lady	-11.6574
▁rotating	-11.6576
▁Editor	-11.6577
▁sole	-11.6581
▁dorsal	-11.6581
BL	-11.6582
▁photographs	-11.6586
▁considerably	-11.6587
▁Technical	-11.6587
▁PET	-11.6588
▁GC	-11.6588
cloud	-11.6589
▁intention	-11.6591
tan	-11.6591
sigma	-11.6591
▁danger	-11.6592
▁implies	-11.6593
▁rated	-11.6597
topic	-11.66
pp	-11.66
▁Swift	-11.66
▁simulations	-11.6601
▁withdrawal	-11.6602
▁Taiwan	-11.6604
▁keyword	-11.6605
tor	-11.6607
▁indicators	-11.6608
▁io	-11.6608
AA	-11.6609
▁Oh	-11.6612
▁\\\\\	-11.6619
2(	-11.6619
▁packet	-11.6619
▁titled	-11.6628
▁threatened	-11.6628
▁Antonio	-11.6628
▁designing	-11.6628
▁Website	-11.6629
▁Cl	-11.663
▁farmers	-11.6632
▁ED	-11.6632
nil	-11.6632
▁fiction	-11.6634
▁contracts	-11.6634
▁prototype	-11.6635
pkg	-11.6637
{2	-11.6638
▁symbols	-11.6643
▁mi	-11.6644
Any	-11.6645
contact	-11.6645
▁MORE	-11.665
▁feasible	-11.665
svg	-11.665
▁fibroblasts	-11.6651
Async	-11.6651
▁Aim	-11.6651
▁Natural	-11.6652
Free	-11.6652
gnu	-11.6653
▁kinetic	-11.6654
▁APPEALS	-11.6654
▁crimes	-11.6658
nwhich	-11.6659
dot	-11.666
▁attacked	-11.666
▁Student	-11.666
▁backing	-11.666
▁Language	-11.6665
▁observe	-11.6666
Media	-11.6669
RA	-11.6674
▁hypoxia	-11.6678
▁62	-11.6681
▁hearts	-11.6682
Tree	-11.6684
▁femoral	-11.6686
ze	-11.6688
▁ocean	-11.6688
▁accessing	-11.669
Database	-11.6693
▁[3	-11.6693
ek	-11.6695
▁Ser	-11.6696
▁allele	-11.6696
ping	-11.6696
▁Limited	-11.6704
▁powers	-11.6705
▁ORDER	-11.6705
▁Sheriff	-11.6706
▁figured	-11.6707
▁flex	-11.6709
▁Authority	-11.6709
▁63	-11.6713
▁sustainable	-11.6714
▁trail	-11.6715
▁flap	-11.6716
▁excretion	-11.6724
▁CF	-11.6724
▁encouraged	-11.6724
▁corn	-11.6725
▁ordinary	-11.6725
▁mL	-11.6726
nFollowing	-11.6727
▁fa	-11.6728
▁destroy	-11.6728
▁Oxford	-11.6728
▁alternate	-11.6728
▁viewers	-11.6734
▁leak	-11.6736
▁implicated	-11.6737
▁landing	-11.6738
ron	-11.6742
2),	-11.6743
▁microbial	-11.6743
▁Federation	-11.6743
▁stood	-11.6744
▁adhesive	-11.6745
equal	-11.6745
ev	-11.6745
▁verified	-11.6745
▁hall	-11.6746
▁anchor	-11.6747
idae	-11.6747
Icon	-11.6749
▁Example	-11.6749
[0].	-11.675
DR	-11.675
123	-11.6753
pr	-11.6754
▁dis	-11.6754
edge	-11.6754
▁Representatives	-11.6754
▁preferences	-11.6754
French	-11.6756
▁Details	-11.6757
▁RE	-11.6758
▁compute	-11.6759
▁Recently	-11.6764
▁sorted	-11.6765
Vector	-11.6767
▁Phone	-11.677
▁Cambridge	-11.6771
▁skip	-11.6777
▁BSD	-11.6777
▁delicious	-11.6777
▁luxury	-11.6778
connection	-11.6779
ons	-11.6779
▁prefix	-11.678
▁lab	-11.678
winning	-11.6782
▁apt	-11.6782
▁viable	-11.6783
▁meets	-11.6785
stat	-11.6785
▁Vancouver	-11.6785
▁infinite	-11.6785
▁Syrian	-11.6787
▁breakfast	-11.6788
▁establishing	-11.6789
▁Tri	-11.679
▁wet	-11.679
▁Keep	-11.6791
▁loops	-11.6791
▁precursor	-11.6792
▁absent	-11.6792
▁excluded	-11.6794
▁Fair	-11.6795
▁throwing	-11.6796
▁substitute	-11.6802
▁estimation	-11.6804
super	-11.6805
▁epilepsy	-11.6814
Process	-11.6814
oma	-11.6814
▁speeds	-11.6814
▁Third	-11.6814
▁nutritional	-11.6815
▁deficit	-11.6815
▁accommodate	-11.6816
account	-11.6816
▁triple	-11.6816
47	-11.6818
▁Egypt	-11.6819
▁conservation	-11.682
▁whilst	-11.6823
▁Garden	-11.6823
▁suddenly	-11.6823
▁Organization	-11.6825
▁rs	-11.6826
▁ignored	-11.6831
▁Request	-11.6833
▁revision	-11.6834
▁Round	-11.6835
▁Arab	-11.6839
▁Section	-11.684
▁Quality	-11.6841
▁albumin	-11.6842
▁Gen	-11.6843
▁jet	-11.6844
▁partly	-11.6844
▁similarly	-11.6847
▁newer	-11.6847
▁afford	-11.6847
nTake	-11.6849
▁relevance	-11.6851
▁TGF	-11.6852
▁oldest	-11.6852
▁exploration	-11.6853
▁likelihood	-11.6855
▁2.1	-11.6859
▁satisfactory	-11.6861
▁sinus	-11.6864
▁HP	-11.6865
▁Protection	-11.6867
▁argued	-11.6867
▁CHECK	-11.6867
▁Computer	-11.6869
illa	-11.6871
▁brake	-11.6871
▁Native	-11.6873
▁demographic	-11.6874
▁tower	-11.6878
▁arg	-11.6882
▁ensuring	-11.6882
▁Philippines	-11.6883
lan	-11.6886
▁END	-11.6889
▁Financial	-11.6889
▁leather	-11.689
▁2011\	-11.6892
▁mit	-11.6893
▁atomic	-11.6894
▁$10	-11.6895
▁Net	-11.6895
▁synthase	-11.6897
-18	-11.6898
▁survivors	-11.6899
▁Common	-11.6899
execute	-11.6899
▁Item	-11.69
▁Ken	-11.69
▁regeneration	-11.6901
5)	-11.6903
cost	-11.6903
▁Death	-11.6904
▁pd	-11.6906
▁accessed	-11.6908
)]\	-11.691
▁tackle	-11.691
Record	-11.6911
▁cartilage	-11.6915
▁viability	-11.6917
▁collecting	-11.6918
sen	-11.692
▁60%	-11.692
▁claiming	-11.6921
mathrm	-11.6927
hat	-11.6927
▁qualitative	-11.6927
▁ip	-11.6928
Panel	-11.6929
▁coordinate	-11.6929
ship	-11.6929
shared	-11.693
▁fold	-11.6931
▁endoscopic	-11.6933
▁FREE	-11.6934
bo	-11.6934
nError	-11.6936
▁glad	-11.6937
▁convention	-11.6939
regulated	-11.694
▁SF	-11.694
▁mellitus	-11.6941
▁convicted	-11.6942
▁conserved	-11.6944
▁IMPLIED	-11.6946
Mo	-11.6949
500	-11.6952
▁360	-11.6953
▁typing	-11.6956
buf	-11.6958
▁preview	-11.6959
University	-11.6959
High	-11.6959
AF	-11.696
▁descent	-11.696
▁78	-11.6961
▁distress	-11.6963
(+)	-11.6963
nas	-11.6971
then	-11.6972
▁occasion	-11.6973
▁terrorist	-11.6976
trans	-11.6978
generated	-11.698
▁76	-11.698
GC	-11.6982
rt	-11.6984
▁Associated	-11.6986
XML	-11.6986
=(	-11.6987
▁MB	-11.6989
▁bedroom	-11.6991
fields	-11.6992
▁cocaine	-11.6996
▁arrangements	-11.6996
nconsole	-11.6999
▁unnecessary	-11.6999
▁incredibly	-11.7005
▁enterprise	-11.7006
▁BMI	-11.7007
▁gray	-11.7008
widget	-11.7008
boot	-11.7009
▁vi	-11.7014
▁POST	-11.7014
128	-11.7015
▁Simon	-11.7016
ix	-11.7017
▁2007,	-11.7017
omega	-11.7017
▁Rails	-11.7018
▁Stack	-11.7019
si	-11.7019
short	-11.702
▁cytotoxic	-11.702
▁hub	-11.702
▁brush	-11.7021
▁Greece	-11.7023
xi	-11.7023
[:	-11.7024
stylesheet	-11.7025
\"];\	-11.7026
▁slower	-11.7026
▁++	-11.7026
▁pressed	-11.7027
pur	-11.7027
▁LIMITED	-11.7027
▁bathroom	-11.7027
lines	-11.7029
▁nuclei	-11.703
▁lambda	-11.7031
gate	-11.7031
▁ties	-11.7032
required	-11.7035
▁recruitment	-11.7038
▁enemy	-11.7038
▁cannabis	-11.7039
folder	-11.704
▁Malaysia	-11.7045
▁gl	-11.7045
▁"{\	-11.7046
▁attach	-11.7048
▁stolen	-11.7048
▁4.5	-11.7051
▁1993	-11.7051
▁2015.	-11.7051
▁legacy	-11.7052
results	-11.7053
▁abortion	-11.7054
▁98	-11.7055
▁spell	-11.7055
PR	-11.7055
season	-11.7056
▁disaster	-11.7057
---------------\	-11.7059
▁prop	-11.7062
▁reaches	-11.7063
▁Sound	-11.7068
▁accessories	-11.7069
▁spokesperson	-11.7071
▁Title	-11.7072
▁cytochrome	-11.7073
▁Specifically	-11.7073
▁btn	-11.7073
▁det	-11.7075
▁king	-11.7077
▁silent	-11.7081
▁autoimmune	-11.7081
39	-11.7086
)=\\	-11.7088
▁refresh	-11.7089
fire	-11.7091
▁CURIAM	-11.7091
bool	-11.7092
▁surname	-11.7093
▁Independent	-11.7094
▁Champions	-11.7094
▁mucosa	-11.7097
▁msg	-11.7098
▁donation	-11.7098
▁productivity	-11.7098
▁Button	-11.71
▁criticism	-11.71
Layer	-11.7101
▁virtually	-11.7101
▁favorable	-11.7102
1/2	-11.7103
▁balls	-11.7104
+1)	-11.7106
09\	-11.7106
▁Jay	-11.7109
pc	-11.711
800	-11.711
▁crypto	-11.7111
▁Nintendo	-11.7112
hljs	-11.7113
▁GOP	-11.7113
nTherefore	-11.7114
▁77	-11.7115
ology	-11.7117
▁exploring	-11.7118
▁potassium	-11.7118
she	-11.7119
▁predicting	-11.7119
Role	-11.712
▁fits	-11.712
▁Save	-11.7121
▁specialist	-11.7121
thread	-11.7124
▁Madrid	-11.7124
78	-11.7126
▁Would	-11.7129
nFind	-11.7129
▁nations	-11.713
▁allocated	-11.713
▁GB	-11.713
zero	-11.7131
▁laparoscopic	-11.7132
▁deputy	-11.7132
cIf	-11.7134
RR	-11.7134
▁reactivity	-11.7135
▁dehydrogenase	-11.7137
▁curious	-11.7137
11\	-11.7139
2026]\	-11.7142
▁Village	-11.7146
▁}}\	-11.7148
▁rabbits	-11.7148
▁streams	-11.7149
▁developments	-11.7151
▁adjusting	-11.7152
▁templates	-11.7153
square	-11.7154
▁2014.	-11.7154
Right	-11.7155
▁Side	-11.7155
▁lawyers	-11.7156
(__	-11.7158
DOCTYPE	-11.7161
▁Netflix	-11.7161
▁CP	-11.7162
success	-11.7165
▁1991	-11.7165
▁Morgan	-11.7165
▁impacts	-11.7165
▁arise	-11.7166
▁Prize	-11.7168
Con	-11.7171
▁breathing	-11.7172
▁banned	-11.7173
▁Gallery	-11.7174
▁closest	-11.7175
▁downstream	-11.7178
panel	-11.7181
▁responsive	-11.7181
▁inferior	-11.7182
▁begun	-11.7182
▁flavor	-11.7185
Library	-11.7187
▁bench	-11.7194
nGo	-11.7194
3/	-11.7195
ski	-11.7197
▁medial	-11.7197
▁carries	-11.7197
▁piano	-11.7198
▁manipulation	-11.7199
▁steam	-11.72
nBest	-11.7202
▁engaging	-11.7204
▁funded	-11.7205
▁logical	-11.7207
▁couples	-11.7209
▁publishing	-11.7209
▁Portland	-11.7211
ries	-11.7211
▁AN	-11.7214
▁podcast	-11.7217
▁Swiss	-11.7219
▁Switzerland	-11.7221
▁soul	-11.7222
▁Ge	-11.7223
▁ajax	-11.7224
Option	-11.7224
▁inverse	-11.7224
▁deeply	-11.7232
▁HERE	-11.7234
▁2018.	-11.7235
▁agricultural	-11.7235
▁symptomatic	-11.7238
▁worried	-11.724
▁NASA	-11.7243
▁HA	-11.7243
▁organisation	-11.7243
▁governed	-11.7246
▁polymorphisms	-11.7247
xx	-11.7248
(2+)	-11.7249
▁Wild	-11.7249
exp	-11.725
▁Primary	-11.725
▁Files	-11.7251
▁gut	-11.7252
▁Seven	-11.7252
MD	-11.7253
▁meaningful	-11.7254
enable	-11.7255
▁seeks	-11.7256
▁hell	-11.7256
Close	-11.7257
▁precisely	-11.7257
▁Del	-11.7258
▁intersection	-11.726
▁argue	-11.7262
▁Mass	-11.7262
who	-11.7262
▁Archives	-11.7263
▁popularity	-11.7263
tz	-11.7265
▁Vol	-11.7267
▁cricket	-11.7272
▁embryonic	-11.7273
▁spray	-11.7273
radio	-11.7274
▁collapse	-11.7274
▁Hamilton	-11.7275
▁Walker	-11.7275
0219	-11.7275
dll	-11.7276
matrix	-11.7277
49	-11.7278
▁DateTime	-11.7278
▁Client	-11.7278
▁ArrayList	-11.7281
▁inspection	-11.7281
▁asks	-11.7282
▁Da	-11.7288
▁executing	-11.7289
Call	-11.7289
▁Cape	-11.729
SS	-11.7291
LY	-11.7293
&#	-11.7293
Where	-11.7293
▁cook	-11.7293
▁deeper	-11.7294
▁hormones	-11.7294
▁74	-11.7294
▁Francis	-11.7294
▁repo	-11.7294
▁influenza	-11.7295
▁certified	-11.7296
▁til	-11.7297
osis	-11.7298
▁translated	-11.7299
▁gem	-11.7299
▁Mail	-11.73
▁bronze	-11.7301
▁Cook	-11.7301
impl	-11.7303
▁Size	-11.7304
▁stunning	-11.7308
▁cmd	-11.7309
Save	-11.7309
▁contributes	-11.731
▁Far	-11.731
▁Reading	-11.7311
▁charity	-11.7315
▁Rio	-11.7317
▁detector	-11.7318
'],	-11.7322
▁reflects	-11.7322
ky	-11.7324
fish	-11.7325
▁systolic	-11.7327
▁cattle	-11.7328
here	-11.7329
DA	-11.7332
▁GH	-11.7333
▁surrounded	-11.7335
ette	-11.7339
▁helper	-11.7339
()->	-11.734
▁possess	-11.734
▁elimination	-11.7341
nWelcome	-11.7341
role	-11.7343
href	-11.7346
▁lamp	-11.7346
▁regulator	-11.7348
▁casting	-11.7351
▁pressing	-11.7355
▁(*	-11.7356
▁captain	-11.736
iz	-11.736
rie	-11.736
▁2013.	-11.7361
▁conducting	-11.7361
itis	-11.7362
▁grey	-11.7362
▁dye	-11.7362
▁grounds	-11.7364
Total	-11.7364
FM	-11.7364
▁pending	-11.7367
▁untreated	-11.7367
<!--	-11.7369
▁0);\	-11.7369
multi	-11.7374
▁evil	-11.7377
ap	-11.7378
▁Argentina	-11.7379
▁Within	-11.7381
▁custody	-11.7382
ERROR	-11.7383
▁fitting	-11.7383
▁Mini	-11.7383
▁73	-11.7384
▁Person	-11.7385
▁Hz	-11.7385
▁theorem	-11.7389
▁1988	-11.7392
created	-11.7394
▁substitution	-11.7394
(1	-11.7396
▁twin	-11.7396
▁constants	-11.7399
('./	-11.7399
▁Franklin	-11.7402
▁Ch	-11.7404
▁contraction	-11.7404
▁minority	-11.7405
edu	-11.7405
▁Norwegian	-11.7405
Account	-11.7407
▁84	-11.7408
▁sight	-11.7408
job	-11.7408
▁incidents	-11.7409
▁Gas	-11.741
▁exhibition	-11.7411
since	-11.7412
▁Camp	-11.7413
▁thinks	-11.7413
performance	-11.7416
▁Phase	-11.7417
▁antimicrobial	-11.7419
▁enum	-11.7422
▁jury	-11.7426
many	-11.7427
▁hydraulic	-11.7429
▁Jon	-11.743
▁dramatically	-11.7435
standard	-11.7435
▁som	-11.7438
▁outputs	-11.7439
▁horses	-11.7439
▁Ko	-11.7446
▁rounds	-11.7447
▁Clark	-11.745
BB	-11.7454
▁4)	-11.7454
▁(4)	-11.7457
▁regimen	-11.7457
radius	-11.7459
▁Liverpool	-11.746
▁sync	-11.746
▁Trans	-11.7461
▁Louisiana	-11.7462
▁discount	-11.7468
▁SET	-11.7468
▁Profile	-11.7469
SB	-11.747
▁61	-11.747
▁navigate	-11.7471
native	-11.7474
ade	-11.7475
▁AF	-11.7475
▁experiencing	-11.7476
▁shops	-11.7478
SH	-11.748
▁RF	-11.748
nGiven	-11.7481
▁electrophoresis	-11.7482
▁wealth	-11.7483
▁displacement	-11.7483
▁intrinsic	-11.7484
LIB	-11.7486
▁Va	-11.7486
▁dismissed	-11.7486
▁lenses	-11.749
▁respondents	-11.7491
▁reward	-11.7492
▁solely	-11.7492
▁tendency	-11.7492
▁bills	-11.7492
▁agreements	-11.7494
mb	-11.7497
▁Cruz	-11.7498
▁buried	-11.7498
▁sin	-11.7499
▁crop	-11.7499
▁archive	-11.7499
▁Rob	-11.75
▁Off	-11.75
▁Democrat	-11.7501
▁accordingly	-11.7502
▁generations	-11.7502
▁contacted	-11.7503
▁switches	-11.7503
▁Release	-11.7503
Auto	-11.7504
▁Val	-11.7505
▁Castle	-11.7506
▁roster	-11.7506
▁initialize	-11.7508
▁wrapped	-11.7512
Port	-11.7514
▁Thailand	-11.7515
▁endpoint	-11.7516
▁distinguish	-11.7516
▁illustrated	-11.7517
▁consuming	-11.7521
**\	-11.7523
▁switched	-11.7523
HA	-11.7524
120	-11.7529
▁deficits	-11.753
▁critically	-11.7532
▁feasibility	-11.7532
▁locus	-11.7537
▁elastic	-11.7541
▁sera	-11.7541
2;\	-11.7545
Helper	-11.7546
▁assemblies	-11.7547
▁Self	-11.7549
▁Jose	-11.7556
hover	-11.7556
▁med	-11.7559
addr	-11.7561
2)\	-11.7562
▁Beijing	-11.7562
▁Appeal	-11.7562
43	-11.7563
▁defines	-11.7564
▁representatives	-11.7568
▁Boy	-11.7568
▁lipoprotein	-11.7569
cYou	-11.757
▁attitude	-11.757
2\\	-11.757
▁Professional	-11.7573
Widget	-11.7575
bed	-11.7576
▁quoted	-11.7576
▁feelings	-11.7576
▁tunnel	-11.7577
framework	-11.7577
▁deviation	-11.7578
▁headquarters	-11.758
▁starring	-11.758
▁reception	-11.7581
▁rhythm	-11.7581
arm	-11.7581
▁Girl	-11.7582
▁shirt	-11.7583
▁Baseball	-11.7584
fs	-11.7585
▁formats	-11.7586
Col	-11.7588
▁Howard	-11.7589
0119	-11.759
▁sends	-11.759
▁blind	-11.7591
download	-11.7592
▁Steam	-11.7593
pe	-11.7594
eta	-11.7597
generation	-11.7598
▁breath	-11.7599
)))\	-11.7601
wing	-11.7603
▁networking	-11.7605
▁Ver	-11.7607
▁residue	-11.7607
▁01	-11.7608
▁attitudes	-11.7608
▁fastest	-11.7609
▁transit	-11.7609
▁2.4	-11.7609
?>\	-11.761
▁delegate	-11.7613
▁allergic	-11.7614
▁pathogens	-11.762
▁1920	-11.7621
▁restart	-11.7622
▁Indonesia	-11.7625
▁Chairman	-11.7627
▁subscribe	-11.7628
▁addressing	-11.7629
▁locate	-11.7629
▁scans	-11.7629
▁exhibits	-11.763
▁IGF	-11.7632
▁Was	-11.7633
king	-11.7633
▁router	-11.7635
Hi	-11.7638
▁striking	-11.764
▁locking	-11.7641
six	-11.7641
BP	-11.7643
▁1.3	-11.7643
0627\	-11.7643
▁educated	-11.7644
nextern	-11.7645
▁Additional	-11.7645
nEarly	-11.7648
dfrac	-11.7649
▁cycling	-11.7652
▁responding	-11.7654
▁occasionally	-11.7654
HOME	-11.7654
▁synaptic	-11.7655
▁Smart	-11.7656
ando	-11.7658
▁violation	-11.7659
▁Ball	-11.766
▁Performance	-11.7661
▁turbine	-11.7661
▁fitted	-11.7662
MA	-11.7664
▁Arkansas	-11.7664
▁incorporation	-11.7667
Enter	-11.7667
▁brothers	-11.7668
west	-11.7669
▁designers	-11.7669
▁adaptive	-11.7669
▁probes	-11.767
▁Marvel	-11.767
collection	-11.7672
▁linking	-11.7675
▁angiography	-11.7676
▁extensions	-11.7677
▁stadium	-11.7679
▁mile	-11.768
nMeanwhile	-11.7681
▁belonging	-11.7683
▁steroid	-11.7684
▁weights	-11.7686
▁dense	-11.7687
▁importantly	-11.7687
▁Rick	-11.7689
nbsp	-11.7689
▁140	-11.7691
▁afraid	-11.7691
▁Arabia	-11.7691
rule	-11.7692
▁0.001)	-11.7693
▁SR	-11.7695
Func	-11.7696
▁protests	-11.7699
▁82	-11.7699
▁inventory	-11.7699
▁dozen	-11.7701
▁7-	-11.7702
▁restoration	-11.7703
▁pharmaceutical	-11.7705
CONFIG	-11.7706
▁cure	-11.7706
▁97	-11.7707
▁Default	-11.7708
▁backed	-11.7713
600	-11.7715
gr	-11.7715
▁optic	-11.7716
▁crude	-11.7717
▁rent	-11.7718
des	-11.772
entity	-11.7721
Next	-11.7721
story	-11.7722
▁Orange	-11.7722
▁counting	-11.7724
springframework	-11.7727
▁hemorrhage	-11.7727
▁zones	-11.773
▁registry	-11.7731
▁salary	-11.7735
zo	-11.7736
▁screens	-11.7737
▁CR	-11.7737
▁solving	-11.7739
AT	-11.774
▁timer	-11.7741
▁Cal	-11.7741
▁spec	-11.7742
CE	-11.7742
▁roller	-11.7742
▁1%	-11.7743
▁correlate	-11.7743
▁Process	-11.7744
▁drum	-11.7744
▁butter	-11.7747
▁knife	-11.7747
▁Ex	-11.7748
archive	-11.775
BA	-11.7751
▁briefly	-11.7751
▁elegant	-11.7751
▁20-	-11.7752
▁Cat	-11.7756
▁ethnic	-11.7757
▁cart	-11.7757
▁Cr	-11.7758
▁snippet	-11.776
▁AIDS	-11.776
_{\\	-11.7761
2).	-11.7765
▁biomarkers	-11.7766
fr	-11.7766
counter	-11.7766
nFinally	-11.7767
▁slice	-11.7769
both	-11.7773
▁rails	-11.7774
▁pursue	-11.7774
tests	-11.7778
Offset	-11.778
TM	-11.7781
▁visibility	-11.7783
▁dialysis	-11.7783
▁tubes	-11.7783
▁ordering	-11.7783
▁vacation	-11.7784
▁varies	-11.7785
▁Pa	-11.7785
▁Body	-11.7786
▁sentenced	-11.7789
nInstead	-11.7791
regulation	-11.7792
▁hire	-11.7794
▁decimal	-11.7795
▁NHL	-11.7796
▁Junior	-11.7799
▁filing	-11.78
▁LPS	-11.7803
▁Marine	-11.7805
▁wanting	-11.7806
▁fiscal	-11.7807
▁adherence	-11.7808
▁households	-11.7809
▁\"${	-11.7811
▁VM	-11.7812
▁injections	-11.7813
▁plaque	-11.7815
bot	-11.7815
[3]	-11.7815
3063\	-11.7819
▁expects	-11.7819
▁Mars	-11.7819
▁Expression	-11.7821
cli	-11.7822
▁alloc	-11.7823
LC	-11.7824
84	-11.7828
ALL	-11.7828
▁CH	-11.7829
▁sufficiently	-11.7832
▁villages	-11.7833
driven	-11.7834
▁bath	-11.7836
profit	-11.7837
El	-11.7838
▁structured	-11.7839
nsudo	-11.784
▁conductive	-11.7841
ify	-11.7841
▁mess	-11.7842
▁prevalent	-11.7842
▁invest	-11.7842
▁pulling	-11.7842
▁shaped	-11.7843
▁ranking	-11.7844
South	-11.7844
▁Did	-11.7846
Delta	-11.7847
▁Similarly	-11.7848
▁eliminated	-11.7848
▁journalists	-11.7849
▁coordination	-11.785
▁hospitalization	-11.785
▁retrospectively	-11.7852
▁radial	-11.7854
▁0.01).	-11.7855
▁Thread	-11.7856
▁160	-11.7857
▁simulated	-11.7857
lar	-11.7857
nW	-11.7858
ido	-11.7858
▁moon	-11.7859
components	-11.786
▁pp	-11.7861
▁Vietnam	-11.7861
▁Left	-11.7861
▁performs	-11.7861
▁Youth	-11.7864
▁Resources	-11.7865
▁drain	-11.7865
▁pleasure	-11.787
▁Iranian	-11.787
loc	-11.7874
▁departments	-11.7875
independent	-11.7875
pattern	-11.7876
▁gifts	-11.7877
She	-11.7877
▁transgenic	-11.7879
▁glutathione	-11.788
▁Rome	-11.7881
=\"{	-11.7882
▁Address	-11.7884
▁amplification	-11.7885
▁bread	-11.7885
▁definitions	-11.7885
plot	-11.7887
▁lessons	-11.7887
}$$\	-11.7887
▁pituitary	-11.7887
▁interpreted	-11.7888
▁blot	-11.7889
▁examinations	-11.7891
oid	-11.7892
▁stent	-11.7892
▁88	-11.7892
done	-11.7893
detail	-11.7895
▁promised	-11.7895
▁polymers	-11.7896
▁acquire	-11.7898
▁quit	-11.7899
▁actin	-11.7899
operative	-11.7899
▁NC	-11.7903
▁pricing	-11.7904
ids	-11.7905
bcg	-11.7906
▁blend	-11.7907
han	-11.7909
▁discusses	-11.7909
▁imported	-11.7912
▁een	-11.7914
▁Drug	-11.7915
▁genera	-11.7918
▁DA	-11.792
Here	-11.7921
theme	-11.7922
▁severely	-11.7922
drop	-11.7924
▁Specific	-11.7924
▁reversible	-11.7924
Abstract	-11.7925
▁dataset	-11.7926
HTML	-11.7928
live	-11.7928
▁Ka	-11.793
▁permeability	-11.7931
▁permits	-11.7931
▁ambient	-11.7933
▁0.4	-11.7936
▁consist	-11.7938
▁exam	-11.7938
treatment	-11.7938
▁swing	-11.7939
▁axial	-11.794
ula	-11.7942
demo	-11.7942
enron	-11.7942
▁scenarios	-11.7943
▁gains	-11.7943
▁integers	-11.7946
aws	-11.7947
▁amongst	-11.7947
▁configurations	-11.7948
▁corrected	-11.795
▁compartment	-11.7953
▁70%	-11.7954
rightarrow	-11.7956
nADVERTISEMENT	-11.7958
▁0.0	-11.7958
▁flights	-11.7959
▁maturation	-11.7963
▁opioid	-11.7964
▁Students	-11.7968
▁79	-11.797
fer	-11.7971
desc	-11.7972
▁bonding	-11.7973
▁Very	-11.7975
0439	-11.7975
▁Duke	-11.7976
▁LIABILITY	-11.7976
▁predictor	-11.7978
▁tubular	-11.7979
▁cytotoxicity	-11.7979
▁Queensland	-11.7981
FS	-11.7981
▁staying	-11.7983
▁0.05	-11.7984
▁Euro	-11.7984
▁fingers	-11.7984
▁consumed	-11.7985
▁128	-11.7985
1>	-11.7987
▁Sarah	-11.7987
▁numpy	-11.7988
▁burning	-11.7989
pragma	-11.799
▁wires	-11.799
force	-11.7991
▁adapter	-11.7991
▁remission	-11.7992
equiv	-11.7993
▁gather	-11.7993
products	-11.7993
▁vocal	-11.7995
▁Ram	-11.7996
▁tear	-11.7999
export	-11.8
▁NSString	-11.8005
▁86	-11.8006
▁dish	-11.8007
▁trains	-11.8007
▁ma	-11.8007
▁sauce	-11.8009
▁Background	-11.8009
▁seizures	-11.8012
osa	-11.8013
▁steering	-11.8015
▁subgroup	-11.8018
queue	-11.8022
▁discrete	-11.8022
ld	-11.8022
▁coronavirus	-11.8023
400	-11.8023
▁2010\	-11.8024
Player	-11.8024
▁preserved	-11.8024
▁collision	-11.8027
nUnder	-11.8028
pad	-11.8029
▁suite	-11.803
▁pneumonia	-11.803
Details	-11.8031
▁conditioning	-11.8033
▁Warren	-11.8033
▁antagonists	-11.8034
ice	-11.8036
▁newest	-11.8037
posts	-11.8038
▁accounting	-11.8039
▁JP	-11.8039
▁cleavage	-11.8039
wave	-11.804
▁juice	-11.8041
▁impression	-11.8042
▁param	-11.8045
nelse	-11.8045
▁10,000	-11.8046
▁globe	-11.8047
▁Author	-11.8048
▁Sport	-11.805
▁consultation	-11.8051
▁Czech	-11.8053
▁alternatives	-11.8053
▁Cleveland	-11.8054
dale	-11.8059
tvar	-11.8062
▁enhancing	-11.8063
AL	-11.8064
▁HN	-11.8064
2}	-11.8064
▁Record	-11.8066
▁grep	-11.8066
under	-11.8068
▁hero	-11.8068
▁Nothing	-11.8073
▁highway	-11.8074
▁mold	-11.8076
ups	-11.8076
▁1.4	-11.8078
▁Fifth	-11.8078
reg	-11.8078
▁Brooklyn	-11.8078
Tab	-11.8083
▁adoption	-11.8084
▁connectivity	-11.8085
▁NK	-11.8086
▁reproduce	-11.8086
▁tumours	-11.8087
▁subjective	-11.8089
▁toxin	-11.8094
RS	-11.8095
▁COPYRIGHT	-11.8098
▁copied	-11.8098
▁cabinet	-11.8098
▁coaching	-11.81
Repository	-11.8104
packages	-11.8105
▁sequential	-11.8106
▁fluids	-11.8108
▁infrared	-11.8109
▁waters	-11.8109
▁HCV	-11.8113
Can	-11.8114
▁numerical	-11.8114
▁tends	-11.8115
▁2012.	-11.8116
para	-11.8116
▁rotor	-11.8116
▁hanging	-11.8117
▁regarded	-11.8118
KEY	-11.8119
▁thrombosis	-11.8119
[[	-11.8119
simple	-11.8119
▁regards	-11.8122
▁UFC	-11.8122
▁TB	-11.8122
▁Pradesh	-11.8123
1000	-11.8123
▁grass	-11.8124
▁unfortunately	-11.8125
▁composer	-11.8125
▁drinks	-11.8126
▁alarm	-11.8127
▁SA	-11.8127
DD	-11.8127
▁Modern	-11.8127
▁employing	-11.8129
▁promotes	-11.813
▁celebration	-11.8132
▁leakage	-11.8133
▁Justin	-11.8133
▁AA	-11.8133
▁Info	-11.8134
▁dioxide	-11.8136
▁Sometimes	-11.8136
FA	-11.8138
▁stopping	-11.8138
▁ablation	-11.814
▁vibration	-11.8141
Pages	-11.8141
▁appellant	-11.8141
draw	-11.8143
;}\	-11.8144
▁aromatic	-11.8144
▁Alaska	-11.8146
▁LV	-11.8146
▁resting	-11.8146
▁portfolio	-11.8147
ber	-11.8147
▁curl	-11.8147
▁Communications	-11.8147
▁Baltimore	-11.8148
nEvery	-11.8149
route	-11.8149
▁vaccines	-11.815
▁130	-11.8151
▁Connecticut	-11.8154
▁Machine	-11.8155
▁evolved	-11.8155
frequency	-11.8157
▁engineers	-11.8157
▁Challenge	-11.8157
▁Doctor	-11.816
▁painted	-11.8161
▁moisture	-11.8162
▁handles	-11.8163
▁costly	-11.8163
▁grain	-11.8164
-13	-11.8164
▁2006,	-11.8165
ator	-11.8167
-21	-11.8169
▁pa	-11.8169
Plugin	-11.817
▁spleen	-11.817
=2	-11.817
▁1.6	-11.817
▁Learn	-11.8171
▁insufficient	-11.8171
ei	-11.8172
▁contributor	-11.8173
▁computational	-11.8174
Red	-11.8176
UK	-11.8179
▁widget	-11.8181
▁hang	-11.8182
▁sees	-11.8182
▁directors	-11.8185
▁searches	-11.8187
▁Staff	-11.8188
configuration	-11.8188
▁Account	-11.8188
nN	-11.8189
▁Denver	-11.8189
▁universities	-11.819
▁okay	-11.819
▁elucidate	-11.8193
▁15-	-11.8194
▁oven	-11.8194
▁dreams	-11.8198
▁mathematical	-11.8198
▁amid	-11.8202
▁pelvic	-11.8203
▁Classic	-11.8205
▁docker	-11.8208
▁Ha	-11.8209
aria	-11.8211
▁capillary	-11.8211
▁MI	-11.8211
▁simpler	-11.8211
▁sclerosis	-11.8212
▁NCAA	-11.8212
▁potentials	-11.8212
▁(20	-11.8213
Writer	-11.8213
▁surprising	-11.8216
▁Join	-11.8217
ay	-11.8218
▁Magic	-11.8219
▁offense	-11.8219
▁boundaries	-11.8222
▁81	-11.8223
32\	-11.8224
▁confusion	-11.8224
▁pretreatment	-11.8224
▁incorporate	-11.8225
▁pressures	-11.8226
69	-11.8229
Api	-11.8231
▁killer	-11.8231
=\"/	-11.8233
half	-11.8234
▁PlayStation	-11.8235
events	-11.8235
('/	-11.8236
modal	-11.8236
objects	-11.8237
▁credentials	-11.8238
tfor	-11.8239
good	-11.824
▁pose	-11.824
▁Du	-11.824
▁auditory	-11.8241
:[	-11.8243
ese	-11.8244
nCopyright	-11.8245
▁3:	-11.8245
▁agenda	-11.8247
Math	-11.8248
▁licenses	-11.825
▁uploaded	-11.825
▁123	-11.8251
▁recipes	-11.8251
▁detectable	-11.8251
micro	-11.8253
▁zoom	-11.8254
▁Dog	-11.8254
ery	-11.8255
▁conditional	-11.8257
yo	-11.8258
▁demonstrating	-11.8259
▁Arena	-11.826
▁wrapper	-11.8261
Unit	-11.8261
▁Below	-11.8261
ctx	-11.8263
▁django	-11.8264
Access	-11.8265
Parameters	-11.8266
▁legend	-11.8266
▁bomb	-11.8266
pool	-11.8267
▁5.0	-11.8267
▁Para	-11.8269
▁publisher	-11.827
▁yielded	-11.827
▁metadata	-11.827
▁Judges	-11.8271
▁independence	-11.8271
vm	-11.8272
▁intellectual	-11.8272
▁bases	-11.8274
manager	-11.8275
▁interferon	-11.8278
nCould	-11.8278
▁mitochondria	-11.8281
▁Settings	-11.8281
▁hr	-11.8282
ifdef	-11.8283
▁extensively	-11.8283
▁71	-11.8285
▁fate	-11.8287
▁belief	-11.8287
HTTP	-11.8288
Editor	-11.8289
SR	-11.8289
▁screened	-11.829
nGoogle	-11.829
▁2.2	-11.8291
BE	-11.8291
nSt	-11.8291
▁flower	-11.8293
▁heated	-11.8293
▁ES	-11.8293
▁worn	-11.8297
▁coin	-11.8297
MC	-11.8298
▁colony	-11.8299
▁!==	-11.8301
▁coat	-11.8301
▁abundance	-11.8301
▁datetime	-11.8301
arch	-11.8303
▁Ice	-11.8305
▁Hockey	-11.8308
pack	-11.8308
▁Returns	-11.8308
Google	-11.8309
▁ja	-11.8313
▁timeout	-11.8313
▁surgeon	-11.8316
▁joy	-11.8318
▁embryo	-11.8319
cp	-11.832
bootstrap	-11.8322
poly	-11.8322
▁(15	-11.8322
fast	-11.8323
CN	-11.8324
gi	-11.8325
▁disadvantage	-11.8325
TB	-11.8326
browser	-11.8327
▁Maine	-11.8328
:19	-11.8328
▁ISO	-11.8329
▁letting	-11.8331
▁Return	-11.8333
▁cutaneous	-11.8333
nCast	-11.8333
resolution	-11.8333
▁Environment	-11.8334
▁drops	-11.8335
Files	-11.8335
▁carcinomas	-11.8337
▁sur	-11.8338
▁Ad	-11.8338
=\"#	-11.8341
ph	-11.8341
▁incomplete	-11.8345
▁dir	-11.8346
▁Explorer	-11.8347
▁Bible	-11.8348
▁1984	-11.8349
▁hired	-11.8351
HPP	-11.8352
▁Te	-11.8352
▁Iron	-11.8353
▁assembled	-11.8355
▁breeding	-11.8355
▁disadvantages	-11.8356
▁electronics	-11.8357
▁crossing	-11.8357
▁Bishop	-11.8357
▁Upon	-11.8357
▁Ba	-11.8358
▁builder	-11.8361
east	-11.8362
▁latency	-11.8366
Parameter	-11.8367
▁Nigeria	-11.8367
▁squamous	-11.8367
▁wavelength	-11.8368
▁governments	-11.8369
▁listener	-11.837
Login	-11.8372
geq	-11.8374
VI	-11.8375
Game	-11.8375
▁auf	-11.8376
▁testosterone	-11.8377
▁relapse	-11.8377
▁pole	-11.8377
▁ankle	-11.838
▁defend	-11.8381
▁horror	-11.8381
typename	-11.8384
▁aggregate	-11.8385
Canadian	-11.8386
201319	-11.8389
▁isolate	-11.8392
▁similarity	-11.8392
▁1930	-11.8392
▁jar	-11.8393
▁desk	-11.8394
▁habitat	-11.8397
'));\	-11.8399
MR	-11.84
nAppeal	-11.8401
▁depressive	-11.8402
children	-11.8403
selector	-11.8403
▁purchasing	-11.8404
Char	-11.8405
blind	-11.8405
IE	-11.8406
nThus	-11.8407
▁Rural	-11.8411
socket	-11.8414
▁occasions	-11.8415
NH	-11.8416
services	-11.8417
▁nationwide	-11.8424
▁poverty	-11.8425
nUnfortunately	-11.8426
▁KEY	-11.8427
▁blast	-11.8432
▁comparisons	-11.8432
▁polar	-11.8436
▁unrelated	-11.8438
▁Gy	-11.8443
av	-11.8444
artifactId	-11.8444
▁beliefs	-11.8445
-11	-11.8445
▁indoor	-11.8445
▁1;	-11.8447
nNext	-11.8449
▁complementary	-11.8449
Back	-11.8449
▁manifestations	-11.8451
▁Phil	-11.8454
uint	-11.8455
▁converter	-11.8456
▁demonstration	-11.8457
▁immigrants	-11.8458
▁Share	-11.846
▁Tree	-11.846
▁Active	-11.846
▁explaining	-11.8461
▁canal	-11.8462
▁stayed	-11.8463
▁Cox	-11.8464
Folder	-11.8464
▁vec	-11.8468
ney	-11.8468
alert	-11.8468
▁Studios	-11.8469
▁babies	-11.847
▁Mode	-11.8477
▁decent	-11.8479
▁py	-11.8479
▁0.8	-11.8479
▁breakdown	-11.848
▁Block	-11.8481
Part	-11.8482
▁Senator	-11.8485
▁guided	-11.8486
CS	-11.8486
limit	-11.8486
▁GUI	-11.8488
stimulated	-11.8489
▁consistency	-11.8489
ET	-11.8491
▁Lo	-11.8493
▁attenuated	-11.8495
▁"![](	-11.8497
Center	-11.8497
▁labeling	-11.8497
▁iconic	-11.8499
▁differentiated	-11.8499
▁appeals	-11.85
▁drainage	-11.8501
wrapper	-11.8501
NT	-11.8501
▁ARE	-11.8502
▁aligned	-11.8505
▁assumption	-11.8505
▁Ar	-11.8505
▁Gulf	-11.8505
▁dining	-11.8505
Callback	-11.8506
▁sexually	-11.8512
▁Temple	-11.8512
▁OTHER	-11.8512
▁rape	-11.8515
▁Han	-11.8517
▁MPs	-11.8519
▁ge	-11.8519
nTrump	-11.8519
▁tablets	-11.852
▁Mid	-11.852
▁supplementation	-11.852
nEl	-11.8522
▁acceptance	-11.8523
spring	-11.8523
▁filtering	-11.8526
ensis	-11.8526
/>\	-11.8526
▁coated	-11.8531
▁balloon	-11.8531
nBiography	-11.8533
▁garage	-11.8533
▁mat	-11.8533
density	-11.8535
sex	-11.8536
diff	-11.8537
▁1.8	-11.8539
266	-11.8541
▁fabrication	-11.8543
▁atoms	-11.8543
cThey	-11.8543
▁gross	-11.8545
▁Stage	-11.8546
bytes	-11.8547
▁picking	-11.8547
▁wheat	-11.8547
▁1986	-11.8548
▁inherited	-11.8549
▁ui	-11.855
nShould	-11.8554
▁satisfy	-11.8556
{\"	-11.8557
▁physics	-11.8558
▁activists	-11.8559
ica	-11.8561
▁premature	-11.8561
▁indications	-11.8563
▁rigid	-11.8566
Display	-11.8566
zi	-11.8566
▁Meta	-11.8567
▁AWS	-11.857
WriteLine	-11.8571
▁volunteer	-11.8571
▁resort	-11.8572
▁timely	-11.8573
zone	-11.8573
▁bugs	-11.8573
▁mucosal	-11.8574
▁distributions	-11.8574
▁formulation	-11.8575
▁outbreak	-11.8577
▁angles	-11.8577
ever	-11.8579
▁Quebec	-11.858
▁equilibrium	-11.858
Utils	-11.858
▁lying	-11.8584
▁strictly	-11.8584
Book	-11.8585
▁corneal	-11.8586
▁Later	-11.8587
▁Reserve	-11.8587
▁uterine	-11.8588
▁Together	-11.859
plugins	-11.8591
▁kDa	-11.8593
▁launching	-11.8594
▁DJ	-11.8599
▁mo	-11.8601
Custom	-11.8602
▁clones	-11.8602
▁transmit	-11.8603
▁Grant	-11.8604
Child	-11.8609
▁promises	-11.8609
▁lip	-11.861
▁sophisticated	-11.8611
HD	-11.8612
▁commercially	-11.8613
exit	-11.8613
▁shadow	-11.8616
▁ESPN	-11.8617
ida	-11.8617
▁Lesser	-11.8618
pid	-11.8619
ntypedef	-11.862
▁beef	-11.862
▁Stock	-11.862
▁fantasy	-11.8621
▁0.6	-11.8621
webkit	-11.8624
▁Barack	-11.8624
▁distant	-11.8624
▁Something	-11.8625
Pre	-11.8625
Delegate	-11.8626
▁qui	-11.8626
▁bitcoin	-11.8626
▁instability	-11.8627
▁SS	-11.8628
▁donations	-11.8628
assert	-11.8628
▁workshop	-11.8629
▁tongue	-11.8631
▁examining	-11.8631
Parser	-11.8633
▁reproduction	-11.8634
har	-11.8634
▁prescription	-11.8638
▁polls	-11.8638
▁judges	-11.8639
▁Everything	-11.8641
▁MC	-11.8642
network	-11.8646
▁Mississippi	-11.8647
\")]\	-11.8648
▁drums	-11.8649
Price	-11.8649
▁foam	-11.8649
▁stimulate	-11.865
?)	-11.8651
▁gang	-11.8652
223	-11.8655
nLe	-11.8656
ju	-11.8657
▁diffuse	-11.8657
▁defence	-11.8658
checkbox	-11.8659
▁dozens	-11.8659
driver	-11.8662
Handle	-11.8663
▁ionic	-11.8666
▁vegetables	-11.8667
3+	-11.867
Big	-11.8672
▁annually	-11.8672
▁adequately	-11.8676
▁Dakota	-11.8678
Types	-11.868
▁recommendation	-11.868
▁tabs	-11.8681
ide	-11.8683
▁Hi	-11.8683
▁Doppler	-11.8685
▁shower	-11.8685
▁charset	-11.8686
Report	-11.8687
assisted	-11.8688
▁cotton	-11.8689
▁Alan	-11.8692
▁invite	-11.8694
▁skilled	-11.8694
▁DM	-11.8697
▁deadline	-11.8699
▁flip	-11.87
▁prescribed	-11.8701
▁Customer	-11.8701
▁courts	-11.8702
▁Participants	-11.8703
▁Lower	-11.8705
▁putative	-11.8705
▁settled	-11.8707
mathbf	-11.871
▁philosophy	-11.8711
▁{'	-11.8711
PE	-11.8712
▁easiest	-11.8715
▁Labor	-11.8717
▁cryptocurrency	-11.8718
▁anticipated	-11.8719
ence	-11.872
41	-11.872
▁uncertainty	-11.8721
▁adapt	-11.8723
▁1);\	-11.8725
672	-11.8725
▁quantities	-11.8727
▁constitute	-11.8728
150	-11.8728
▁"/*	-11.8729
nImage	-11.8729
▁Der	-11.8729
▁metallic	-11.873
nStep	-11.873
▁shifts	-11.873
▁paired	-11.8731
▁87	-11.8731
▁digit	-11.8731
Active	-11.8734
▁collective	-11.8734
Villages	-11.8737
▁abandoned	-11.8738
▁lymphocyte	-11.8739
Impl	-11.8741
▁Graham	-11.8743
▁Belgium	-11.8743
▁dad	-11.8743
▁longest	-11.8744
▁Captain	-11.8746
▁proportional	-11.8746
photo	-11.8746
▁cows	-11.8746
CSF	-11.8746
▁photographer	-11.8749
▁cout	-11.8749
sign	-11.8751
▁controversy	-11.8752
GA	-11.8752
▁Ho	-11.8753
cin	-11.8753
▁corruption	-11.8754
▁glutamate	-11.8755
▁cargo	-11.8757
human	-11.8757
)}	-11.8758
▁Barcelona	-11.876
▁mock	-11.8762
▁HPV	-11.8763
▁introducing	-11.8763
▁Dean	-11.8763
unique	-11.8764
▁disruption	-11.8765
Common	-11.8767
▁competitions	-11.8768
▁Lu	-11.877
▁champions	-11.8771
▁Alliance	-11.8773
▁Animal	-11.8776
▁smile	-11.8776
▁mol	-11.8777
▁builds	-11.8777
'),	-11.8779
0)	-11.878
▁identifier	-11.878
▁Tag	-11.878
▁Pay	-11.8781
▁Perhaps	-11.8781
▁ce	-11.8781
nMay	-11.8784
unsigned	-11.8786
▁sealed	-11.8786
▁warnings	-11.8789
Font	-11.879
▁phosphatase	-11.8791
LA	-11.8791
▁sorting	-11.8794
▁lady	-11.8795
▁15%	-11.8796
Note	-11.8797
▁mmol	-11.8798
▁hypertensive	-11.8799
▁Finance	-11.8799
▁affiliate	-11.88
▁cloned	-11.88
May	-11.8801
▁resume	-11.8803
▁stupid	-11.8804
vis	-11.8805
exists	-11.8806
▁LDL	-11.8807
ntype	-11.8811
parser	-11.8811
2000	-11.8812
jo	-11.8813
▁94	-11.8813
▁Ron	-11.8814
SC	-11.8814
Generic	-11.8815
▁meals	-11.8816
▁2.7	-11.8824
▁Having	-11.8825
▁Gary	-11.8825
▁spotted	-11.8825
▁handed	-11.8826
▁acetate	-11.8826
▁arch	-11.8829
cur	-11.8829
▁hint	-11.883
runtime	-11.883
▁parental	-11.8831
▁gathering	-11.8831
inner	-11.8832
▁Finland	-11.8833
▁lyrics	-11.8837
▁LP	-11.8838
▁Denmark	-11.8839
▁1983	-11.8842
▁Advanced	-11.8842
▁lightweight	-11.8846
▁Users	-11.8847
sdk	-11.8848
▁microscopic	-11.8848
▁spoken	-11.885
▁enjoying	-11.8851
▁(18	-11.8851
United	-11.8851
▁valves	-11.8852
▁talented	-11.8856
▁abroad	-11.8856
▁Deputy	-11.8857
nGood	-11.8857
▁Consequently	-11.8858
▁rival	-11.8863
▁Again	-11.8864
nSources	-11.8867
▁asymptomatic	-11.8868
▁comprise	-11.8869
▁Typically	-11.8869
▁thoracic	-11.887
▁csv	-11.8871
▁92	-11.8872
▁83	-11.8872
ati	-11.8872
▁2005,	-11.8873
▁occupational	-11.8874
once	-11.8875
0.5	-11.8875
CP	-11.8875
▁incoming	-11.8876
nforeach	-11.8877
through	-11.8881
Parent	-11.8883
▁enzymatic	-11.8883
▁constraint	-11.8884
▁timestamp	-11.8885
▁Things	-11.8885
directory	-11.8885
▁cytoplasmic	-11.8886
Delete	-11.8887
▁witness	-11.8888
Find	-11.889
▁realistic	-11.889
USER	-11.8894
▁degeneration	-11.8895
▁quarterback	-11.8896
▁folders	-11.8896
2$	-11.8897
ectomy	-11.8899
▁adjuvant	-11.8899
▁lithium	-11.89
points	-11.8901
71	-11.8905
▁2010.	-11.8906
▁Nevada	-11.8909
▁liked	-11.8911
▁dosage	-11.8912
kind	-11.8913
▁delays	-11.8915
▁dielectric	-11.8915
▁hereby	-11.8918
UP	-11.8918
▁ELISA	-11.8918
NSString	-11.8918
▁lawmakers	-11.8919
)?\	-11.892
▁formerly	-11.892
▁equality	-11.8922
EF	-11.8923
ruby	-11.8923
▁mandatory	-11.8924
▁ocular	-11.8924
▁Input	-11.8926
nik	-11.8926
▁Fall	-11.8927
vo	-11.8927
▁racial	-11.8927
▁heterogeneous	-11.8931
▁Girls	-11.8932
▁encouraging	-11.8933
primary	-11.8938
▁Direct	-11.8938
▁Laid	-11.894
▁drill	-11.894
▁Query	-11.894
▁exclude	-11.8941
▁cumulative	-11.8941
▁balanced	-11.8941
▁lipids	-11.8942
2550\	-11.8942
Be	-11.8943
▁Engine	-11.8943
▁tropical	-11.8944
▁artwork	-11.8945
▁lumbar	-11.8946
▁etiology	-11.8946
▁Addiction	-11.8948
▁exceptional	-11.8949
Moths	-11.895
▁Books	-11.8951
▁volatile	-11.8953
mol	-11.8953
▁Risk	-11.8956
2265	-11.8957
▁parser	-11.8957
▁hydrolysis	-11.8958
▁occupied	-11.8959
ras	-11.8959
46	-11.8961
▁Neither	-11.8964
!!\	-11.8964
nAFFIRMED	-11.8967
gg	-11.8968
front	-11.8968
▁Hawaii	-11.8969
ntry	-11.8971
cha	-11.8972
Adapter	-11.8975
▁gestation	-11.8975
2015	-11.8976
om	-11.8976
▁temporarily	-11.8977
▁opponent	-11.8977
cout	-11.8977
-----\	-11.8977
>::	-11.8979
▁differentiate	-11.898
▁adrenal	-11.8981
▁Come	-11.8982
▁nobody	-11.8982
▁grafts	-11.8982
▁acceleration	-11.8984
van	-11.899
▁Days	-11.8991
▁electrically	-11.8991
▁joints	-11.8993
▁Pass	-11.8993
Un	-11.8995
▁trim	-11.8996
▁inch	-11.8998
▁grip	-11.8998
▁stats	-11.8999
cv	-11.9
▁fixing	-11.9004
▁approached	-11.9005
▁terrible	-11.9005
▁indexes	-11.9006
safe	-11.9007
nOut	-11.9007
sync	-11.9007
▁sudo	-11.9008
ante	-11.9009
region	-11.901
▁Bruce	-11.901
ME	-11.9011
▁Status	-11.9011
▁aureus	-11.9011
cup	-11.9013
fit	-11.9013
▁Er	-11.9015
▁transported	-11.9015
az	-11.9016
gz	-11.9018
▁rational	-11.9021
▁flux	-11.9021
▁exceptions	-11.9022
▁washing	-11.9022
▁whereby	-11.9022
▁Anna	-11.9023
▁practitioners	-11.9023
▁compatibility	-11.9025
10\	-11.9027
General	-11.9027
3089\	-11.9029
pin	-11.9029
ile	-11.903
▁matrices	-11.903
▁concurrent	-11.9032
-1.	-11.9032
iter	-11.9034
expression	-11.9037
▁Sh	-11.9038
4-	-11.9039
▁Dis	-11.904
▁Tournament	-11.9042
▁Gov	-11.9043
▁fought	-11.9044
▁loans	-11.9047
groupId	-11.9048
nDim	-11.9049
tal	-11.905
▁exterior	-11.905
▁VA	-11.9052
▁GPS	-11.9053
\"),\	-11.9054
▁municipal	-11.9055
▁Job	-11.9056
mac	-11.9058
▁diets	-11.9061
12\	-11.9061
▁expatriate	-11.9062
▁seventh	-11.9063
(),\	-11.9064
Operation	-11.9066
COM	-11.9067
▁banking	-11.9067
▁1985	-11.9069
▁sizeof	-11.907
▁heparin	-11.907
▁Delta	-11.907
▁Hampshire	-11.907
▁cables	-11.9073
▁Nos	-11.9074
▁89	-11.9074
▁overnight	-11.9077
eclipse	-11.9082
▁demanding	-11.9082
▁Parkinson	-11.9086
▁Privacy	-11.9086
▁1989	-11.9088
angle	-11.909
engine	-11.909
▁Article	-11.9091
ios	-11.9093
▁dot	-11.9094
▁tokens	-11.9095
fp	-11.9095
▁newborn	-11.9096
▁Gordon	-11.9096
▁Nature	-11.9096
Rule	-11.9097
Scale	-11.9098
▁completing	-11.9101
▁islands	-11.9104
eight	-11.9105
▁contributors	-11.9106
▁existed	-11.9108
▁sc	-11.9108
▁iTunes	-11.911
▁93	-11.9111
Welcome	-11.9112
▁Lane	-11.9113
PG	-11.9114
▁lengths	-11.9119
wise	-11.912
▁LH	-11.9121
▁expense	-11.9122
▁hydro	-11.9122
▁swap	-11.9123
▁esophageal	-11.9123
▁hemoglobin	-11.9123
nThree	-11.9124
▁globally	-11.9124
NULL	-11.9128
handler	-11.9129
aci	-11.9129
▁endemic	-11.9129
▁3.2	-11.913
▁summit	-11.9133
▁linux	-11.9135
▁Forum	-11.9136
Original	-11.9138
_1_0.	-11.9139
▁heterogeneity	-11.9139
▁arrow	-11.914
▁Resource	-11.9141
▁warrant	-11.9142
▁moral	-11.9143
▁arc	-11.9144
without	-11.9144
▁remarks	-11.9145
▁listings	-11.9146
>\";\	-11.9148
▁placeholder	-11.915
▁Django	-11.9151
▁traumatic	-11.9153
▁novels	-11.9155
▁dem	-11.9156
Match	-11.9156
6)	-11.9157
▁cleared	-11.9157
eba	-11.916
▁pride	-11.9161
▁adenocarcinoma	-11.9162
+1	-11.9166
▁Enjoy	-11.917
▁\"\"\	-11.9172
nShow	-11.9173
▁adenosine	-11.9173
▁GT	-11.9174
▁Created	-11.9174
▁rental	-11.9177
important	-11.9178
▁smallest	-11.918
3046\	-11.918
▁credits	-11.9181
▁Dublin	-11.9181
▁env	-11.9181
▁pos	-11.9181
▁suited	-11.9184
▁Py	-11.9186
2500\	-11.9187
ye	-11.9191
▁Friends	-11.9192
EE	-11.9192
shift	-11.9194
▁Thompson	-11.9197
▁OP	-11.9198
▁och	-11.9201
▁analyzing	-11.9201
▁Mc	-11.9201
bank	-11.9203
▁relatives	-11.9203
▁upstream	-11.9204
▁TRUE	-11.9205
Route	-11.9206
▁imposed	-11.9206
Person	-11.9208
▁Economic	-11.9209
▁nominated	-11.921
▁borders	-11.9214
▁Serum	-11.9214
dia	-11.9214
▁predictions	-11.9216
Contact	-11.9216
▁(12	-11.9218
▁venues	-11.9218
▁105	-11.9219
nCREATE	-11.922
▁freely	-11.9221
▁$100	-11.9222
▁veterans	-11.9223
▁Montreal	-11.9223
▁Ham	-11.9223
▁Makeup	-11.9223
will	-11.9223
Channel	-11.9224
▁spreading	-11.9225
0105	-11.9225
▁wafer	-11.9225
▁scattering	-11.9226
move	-11.9227
Schema	-11.9228
▁Marketing	-11.9229
▁negotiations	-11.923
▁Austria	-11.9231
▁Guard	-11.9231
▁Reference	-11.9236
'],\	-11.9238
▁prompted	-11.9239
▁manifest	-11.924
▁divide	-11.9241
▁jazz	-11.9244
Job	-11.9244
▁filtration	-11.9245
proto	-11.9245
upload	-11.9246
CL	-11.9246
▁surveys	-11.9248
Screen	-11.9249
▁Shop	-11.9251
▁schemes	-11.9252
▁advised	-11.9252
owned	-11.9252
▁vinyl	-11.9253
▁shoe	-11.9254
▁Andy	-11.9254
▁MMP	-11.9256
Queue	-11.9257
have	-11.9258
▁Danish	-11.9259
▁accounted	-11.9259
▁expenses	-11.926
▁runner	-11.9262
tus	-11.9265
▁adopt	-11.9265
▁singing	-11.9265
DATA	-11.9267
▁alias	-11.9268
▁campaigns	-11.9269
blob	-11.9269
loader	-11.927
Win	-11.9271
▁biosynthesis	-11.9277
hard	-11.9278
▁Pittsburgh	-11.928
▁methylation	-11.9281
Per	-11.9281
▁Culture	-11.9283
▁Phoenix	-11.9285
▁mu	-11.9285
▁Pop	-11.9287
▁NH	-11.9289
▁parks	-11.9294
▁Controller	-11.9297
sim	-11.93
storage	-11.9302
▁pins	-11.9306
▁mapped	-11.9306
▁creator	-11.931
third	-11.931
▁directive	-11.9311
Black	-11.9312
lat	-11.9312
train	-11.9316
▁Farm	-11.9319
2.0	-11.9319
▁grateful	-11.9319
▁Style	-11.9321
ent	-11.9321
▁1987	-11.9321
▁referenced	-11.9324
▁Besides	-11.9325
▁optimum	-11.9326
▁frontal	-11.9329
▁Hunter	-11.9329
subject	-11.9329
▁coalition	-11.9332
logo	-11.9332
▁plugins	-11.9333
memory	-11.9334
tis	-11.9335
there	-11.9338
▁Secret	-11.9338
Http	-11.9339
▁porn	-11.9341
argv	-11.9341
linear	-11.9345
BF	-11.9346
}\"\	-11.9348
▁golden	-11.9348
▁qualify	-11.9353
▁controllers	-11.9353
▁succeed	-11.9354
▁metric	-11.9355
▁defendant	-11.9355
▁urged	-11.9357
▁evoked	-11.9358
fl	-11.9359
▁attract	-11.9359
▁gravity	-11.9359
▁biopsies	-11.9361
VA	-11.9362
rel	-11.9364
▁Modi	-11.9364
margin	-11.9365
nPhoto	-11.9365
▁Target	-11.937
▁selectivity	-11.9374
▁dt	-11.9374
▁Motor	-11.9376
▁notifications	-11.9376
▁iteration	-11.9376
▁backend	-11.9377
▁parliament	-11.9377
\"],\	-11.9379
▁bones	-11.9381
used	-11.9383
▁commented	-11.9383
▁emitting	-11.9386
▁iterate	-11.9389
typeof	-11.939
▁pdf	-11.9393
blogger	-11.9393
▁dump	-11.9394
▁barrel	-11.9394
▁Fourth	-11.9395
DT	-11.9396
▁uncommon	-11.9396
toggle	-11.9399
nWatch	-11.9399
0163	-11.94
▁tire	-11.94
▁oxidase	-11.9401
▁unilateral	-11.9405
try	-11.9405
▁vesicles	-11.9406
▁2009\	-11.9407
FD	-11.9407
deficient	-11.9408
▁rep	-11.9409
▁Environmental	-11.9411
▁dairy	-11.9412
▁ko	-11.9415
▁deposit	-11.9416
▁illustrate	-11.9416
Space	-11.9417
▁admit	-11.9418
▁habits	-11.942
▁Chelsea	-11.942
SA	-11.942
▁suspects	-11.9421
0443	-11.9424
▁Puerto	-11.9425
▁interviewed	-11.9425
▁grows	-11.9427
▁staging	-11.9428
▁Audio	-11.9428
matched	-11.9429
▁larvae	-11.9432
5-	-11.9433
History	-11.9433
Network	-11.9434
PO	-11.9436
▁ceramic	-11.9436
PT	-11.9439
mate	-11.9441
▁clinicians	-11.9442
▁sympathetic	-11.9443
▁Component	-11.9443
school	-11.9444
▁abundant	-11.9445
▁Mrs	-11.9449
Storage	-11.9452
▁chrome	-11.9453
▁Anne	-11.9454
▁Hard	-11.9454
▁Poly	-11.9454
▁2011.	-11.9454
developer	-11.9456
▁GA	-11.9457
nHer	-11.9459
▁avoided	-11.9459
▁Meanwhile	-11.9462
▁Forty	-11.9462
Changed	-11.9463
▁sepsis	-11.9464
1.5	-11.9468
▁beating	-11.9468
GM	-11.9469
▁trunk	-11.947
▁fi	-11.9471
▁lesser	-11.9472
apk	-11.9472
▁Ave	-11.9473
youtube	-11.9473
▁{@	-11.9474
▁toys	-11.9475
▁Christopher	-11.9475
checked	-11.948
3055\	-11.9481
▁gases	-11.9482
▁dissection	-11.9482
nby	-11.9483
▁apple	-11.9485
▁overlap	-11.9485
ani	-11.9485
08\	-11.9485
ou	-11.9486
ich	-11.9486
▁blame	-11.9487
▁dataframe	-11.9488
▁alkaline	-11.9491
▁seasonal	-11.9491
▁Portugal	-11.9494
▁merged	-11.9494
=4	-11.9495
▁achievement	-11.9497
▁varchar	-11.9497
▁stationary	-11.9501
}</	-11.9504
company	-11.9504
▁Nevertheless	-11.9504
▁Alberta	-11.9506
Copy	-11.9508
▁turnover	-11.9509
▁Angular	-11.9509
-100	-11.9509
-----	-11.951
▁genre	-11.951
▁Greg	-11.9511
]$	-11.9515
▁Wayne	-11.9516
▁excel	-11.9516
▁anatomical	-11.9518
▁Intelligence	-11.9519
▁18-	-11.9522
▁cAMP	-11.9522
250	-11.9524
▁suppress	-11.9525
▁javax	-11.9526
Program	-11.9527
oh	-11.9531
▁scratch	-11.9531
▁concomitant	-11.9534
▁implanted	-11.9535
fo	-11.9536
effective	-11.9537
▁Holy	-11.9537
▁Hand	-11.9538
▁depletion	-11.9538
nWho	-11.9539
▁dict	-11.9539
▁harmful	-11.9542
▁electromagnetic	-11.9542
▁exec	-11.9543
▁\\\\	-11.9544
▁Orleans	-11.9544
▁ein	-11.9545
▁Basic	-11.9546
▁sealing	-11.9547
▁duo	-11.9548
▁#2	-11.9548
▁-->	-11.9549
▁Works	-11.955
▁sanctions	-11.9551
▁aneurysm	-11.9552
nine	-11.9553
▁distances	-11.9553
▁genetically	-11.9553
▁wooden	-11.9555
▁Sp	-11.9557
▁Liberal	-11.9557
▁mistakes	-11.9561
▁2.6	-11.9563
energy	-11.9564
▁Original	-11.9566
▁deny	-11.9566
maps	-11.9566
▁subunits	-11.9567
mobile	-11.9568
▁Mg	-11.9568
▁adolescent	-11.9569
▁Learning	-11.9571
▁buyers	-11.9572
▁diagram	-11.9573
nEmail	-11.9573
stock	-11.9573
▁centres	-11.9574
tl	-11.9575
▁venture	-11.9576
▁Lincoln	-11.9576
bad	-11.9578
▁assisted	-11.9578
▁dialogue	-11.958
▁distinguished	-11.958
▁musician	-11.958
▁Stewart	-11.9581
▁fallen	-11.9582
▁hack	-11.9585
▁peritoneal	-11.9586
▁linkage	-11.9588
phenyl	-11.9589
▁Russell	-11.9589
1)\	-11.9592
URI	-11.9595
▁regulators	-11.9596
▁Money	-11.9596
▁slope	-11.9598
▁joins	-11.9599
▁depressed	-11.96
▁nail	-11.9602
ising	-11.9602
Engine	-11.9604
nBelow	-11.9605
kit	-11.9606
▁parish	-11.9606
▁req	-11.9606
groups	-11.9608
▁dropping	-11.9609
▁91	-11.9609
▁theatre	-11.9609
▁percutaneous	-11.961
▁opponents	-11.961
▁overhead	-11.961
flag	-11.9612
▁lungs	-11.9612
die	-11.9614
-9	-11.9615
▁ranks	-11.9615
▁lineup	-11.9616
press	-11.9617
ston	-11.9618
DATE	-11.962
proc	-11.9622
nSeveral	-11.9624
▁Count	-11.9625
Release	-11.9626
▁Hills	-11.9626
▁scaling	-11.9627
Place	-11.9627
▁revised	-11.9627
▁protease	-11.9628
factor	-11.9632
▁preservation	-11.9632
ax	-11.9634
:0	-11.9638
▁avoiding	-11.9639
▁NT	-11.9639
▁[1]	-11.9639
▁homeostasis	-11.9639
▁holidays	-11.964
▁forums	-11.9646
▁5.5	-11.9648
▁VEGF	-11.9651
93	-11.9652
▁advise	-11.9653
▁hippocampus	-11.9654
▁'@	-11.9655
istic	-11.9658
▁differed	-11.9658
▁challenged	-11.9661
▁Kit	-11.9662
assets	-11.9664
▁sexy	-11.9666
▁shipped	-11.9667
▁checkout	-11.9669
▁2.3	-11.967
IT	-11.9673
bridge	-11.9673
▁coins	-11.9678
▁shed	-11.968
▁Insurance	-11.968
nAccordingly	-11.9681
▁succeeded	-11.9684
▁16-	-11.9686
▁inappropriate	-11.9686
best	-11.9687
▁tuned	-11.9688
▁ceiling	-11.9688
▁hunting	-11.9689
▁immunohistochem	-11.9691
Australian	-11.9692
dim	-11.9692
▁Tar	-11.9692
▁Vi	-11.9693
quad	-11.9693
▁confusing	-11.9694
▁700	-11.9694
▁atherosclerosis	-11.9694
▁crystals	-11.9694
▁Tower	-11.9695
▁disappeared	-11.9696
▁Salt	-11.9696
▁cement	-11.9697
▁Boost	-11.9697
mask	-11.9699
▁unstable	-11.9699
▁mmHg	-11.9699
PL	-11.97
▁invoke	-11.9701
▁spiritual	-11.9702
▁activist	-11.9702
▁shear	-11.9703
▁broader	-11.9704
▁mystery	-11.9706
▁overseas	-11.9707
▁ya	-11.9711
ag	-11.9715
encode	-11.9716
▁brilliant	-11.9716
MI	-11.9719
Pos	-11.972
▁theater	-11.972
▁debugging	-11.9724
61	-11.9724
▁purchases	-11.9727
2.5	-11.973
▁Nation	-11.973
▁onclick	-11.973
Hash	-11.9733
▁Sales	-11.9734
tool	-11.9735
▁painful	-11.9736
▁competitors	-11.9737
▁MT	-11.9738
▁'%	-11.9739
▁moth	-11.974
▁heritage	-11.9743
▁simplified	-11.9744
nDavid	-11.9745
▁EVENT	-11.9747
▁pepper	-11.9748
▁terror	-11.9748
▁tired	-11.9749
▁encryption	-11.9749
▁sec	-11.975
▁pathogenic	-11.9752
▁Ro	-11.9753
▁apologize	-11.9753
bio	-11.9754
▁attendance	-11.9754
▁proposals	-11.9756
▁Nelson	-11.9757
▁cyst	-11.9758
series	-11.9759
protocol	-11.9759
▁Matthew	-11.976
Package	-11.976
▁seemingly	-11.9764
▁aorta	-11.9764
▁affiliated	-11.9765
▁proximity	-11.9767
▁SSL	-11.9769
-4-	-11.9769
▁mainstream	-11.977
▁crack	-11.9771
▁gorgeous	-11.9771
days	-11.9773
issues	-11.9773
▁Steven	-11.9775
▁browse	-11.9775
basic	-11.9776
▁wounds	-11.9777
zer	-11.9777
fan	-11.9777
▁poster	-11.9777
▁1.7	-11.9778
Param	-11.978
say	-11.9782
▁Front	-11.9784
▁\"@	-11.9784
xxx	-11.9787
Spec	-11.9788
▁trucks	-11.9789
▁copying	-11.9789
lab	-11.9789
▁hypothesized	-11.9791
▁Jun	-11.9791
▁102	-11.9791
maker	-11.9793
reactive	-11.9794
▁trap	-11.9795
▁remainder	-11.9796
▁accepting	-11.9796
rat	-11.9797
▁pointers	-11.9798
nEarlier	-11.9799
▁corresponds	-11.9802
Don	-11.9802
▁CNS	-11.9804
ris	-11.9805
▁Carter	-11.9805
details	-11.9807
▁Leader	-11.9807
▁$('.	-11.9808
iterator	-11.9809
%20	-11.9811
dialog	-11.9811
▁brick	-11.9811
▁precedent	-11.9812
▁friction	-11.9813
▁assessments	-11.9813
▁Biden	-11.9814
prod	-11.9815
dependency	-11.9815
▁1)\	-11.9817
▁teen	-11.9817
▁collaborative	-11.982
2026]	-11.9827
ros	-11.9827
▁$3	-11.9829
bg	-11.983
▁Private	-11.9832
DF	-11.9834
▁fruits	-11.9834
windows	-11.9835
ufffd	-11.9836
▁Products	-11.9838
▁Tax	-11.984
▁Movie	-11.984
▁consume	-11.9842
▁NaN	-11.9842
▁initiatives	-11.9843
▁discussing	-11.9843
integer	-11.9845
scripts	-11.9847
nWill	-11.9848
▁Made	-11.9849
▁deserve	-11.9851
<!	-11.9851
▁subtle	-11.9851
▁deposits	-11.9853
▁PE	-11.9854
▁attracted	-11.9855
▁celebrated	-11.9855
▁tune	-11.9856
87	-11.9857
=\"0\"	-11.9858
▁BJP	-11.9859
▁USD	-11.9859
▁lowered	-11.9861
▁combines	-11.9864
▁Mission	-11.9866
▁numeric	-11.9866
▁Commissioner	-11.9867
▁anime	-11.9867
▁IR	-11.9867
▁Similar	-11.9868
reported	-11.987
Lib	-11.9873
3053\	-11.9873
▁Brexit	-11.9875
aw	-11.9875
VM	-11.9876
editor	-11.988
▁hotels	-11.9881
▁workplace	-11.9882
Why	-11.9884
▁meter	-11.9884
HP	-11.9884
▁DS	-11.9885
▁microwave	-11.9886
▁Gi	-11.9887
▁Write	-11.9887
▁Lawrence	-11.9887
NF	-11.9888
▁Ab	-11.9889
▁exercises	-11.989
▁underground	-11.9891
Matrix	-11.9893
%2	-11.9894
▁inhibiting	-11.9898
▁colours	-11.9899
focus	-11.9901
▁followers	-11.9901
▁critics	-11.9901
Just	-11.9901
▁350	-11.9901
▁2.8	-11.9901
▁determinants	-11.9902
▁purification	-11.9902
iya	-11.9903
merge	-11.9903
▁intestine	-11.9903
▁trusted	-11.9904
Italian	-11.9905
nHello	-11.9905
▁dans	-11.9906
▁drove	-11.9908
▁specimen	-11.9912
▁transcript	-11.9912
▁besides	-11.9913
▁likes	-11.9913
▁Otherwise	-11.9917
▁screenshot	-11.9917
▁trait	-11.9918
pic	-11.992
▁une	-11.992
▁yard	-11.992
▁enhances	-11.9923
-14	-11.9926
▁bottles	-11.993
▁ME	-11.9931
▁programmes	-11.9931
ace	-11.9932
Doc	-11.9936
▁Wright	-11.9937
▁Monte	-11.9937
▁Universal	-11.9939
chart	-11.9939
▁VALUES	-11.9939
errors	-11.9939
▁Mother	-11.994
767	-11.9941
▁authorized	-11.9941
Parse	-11.9941
▁Put	-11.9945
▁Enter	-11.9945
▁Jonathan	-11.9946
▁executable	-11.9946
▁forecast	-11.9948
▁therein	-11.9948
▁proton	-11.995
bat	-11.995
▁sits	-11.9952
▁parsing	-11.9953
▁hydrophobic	-11.9953
enter	-11.9954
▁atom	-11.9955
bl	-11.9957
ops	-11.9957
very	-11.9958
▁durable	-11.9959
▁HF	-11.9959
▁dirty	-11.9962
▁Harvard	-11.9965
▁sleeping	-11.9966
1;	-11.9968
▁este	-11.9968
▁sorts	-11.9969
▁exceed	-11.9972
▁magazines	-11.9975
yan	-11.9975
▁makers	-11.9978
enabled	-11.9978
▁plasmid	-11.998
▁vol	-11.9981
▁generalized	-11.9981
▁loci	-11.9982
West	-11.9982
Rows	-11.9983
▁Unlike	-11.9984
▁correlates	-11.9987
▁Edge	-11.9987
▁enemies	-11.9987
Enabled	-11.9989
▁IDE	-11.999
▁Yu	-11.9991
▁presumably	-11.9993
wait	-11.9994
▁vaginal	-11.9994
▁angry	-11.9995
▁drilling	-11.9995
▁104	-11.9997
▁discharged	-11.9998
psi	-11.9999
▁Josh	-12
▁fires	-12
▁Jane	-12.0001
▁angiotensin	-12.0001
▁headache	-12.0002
▁Never	-12.0002
▁stones	-12.0003
ware	-12.0005
▁deadly	-12.0006
single	-12.0006
▁Knight	-12.0007
▁Sep	-12.001
▁Remove	-12.001
▁Stop	-12.0012
▁Deep	-12.0015
▁seizure	-12.0016
=\"\"	-12.0017
▁Draft	-12.0018
▁(16	-12.0019
ori	-12.0019
▁malignancy	-12.002
film	-12.0021
expected	-12.0022
Stack	-12.0022
▁Race	-12.0022
▁literal	-12.0023
▁Tesla	-12.0023
Share	-12.0023
▁progesterone	-12.0025
▁Douglas	-12.0026
▁Significant	-12.0026
▁Fast	-12.0027
▁shelter	-12.003
▁remodeling	-12.0031
▁nerves	-12.0032
Buildings	-12.0034
!\"\	-12.0035
▁facebook	-12.0035
▁Par	-12.0038
▁Buy	-12.004
columns	-12.004
▁allocation	-12.0041
▁coastal	-12.0042
eri	-12.0042
yard	-12.0043
]]\	-12.0044
▁Dream	-12.0044
▁lasting	-12.0045
▁Experience	-12.0046
▁shit	-12.0047
tra	-12.0047
▁journals	-12.0047
▁Working	-12.0047
▁protesters	-12.0048
▁disclaimer	-12.005
▁Different	-12.0052
▁Dragon	-12.0053
▁cortisol	-12.0054
▁edema	-12.0054
APP	-12.0054
2264	-12.0054
▁stating	-12.0056
▁Vector	-12.0057
▁2017.\	-12.0057
ably	-12.0057
▁Switch	-12.0059
▁VI	-12.006
▁vapor	-12.006
▁rolled	-12.0061
ws	-12.0062
rum	-12.0063
▁raises	-12.0066
▁Formula	-12.0067
▁Adams	-12.0067
▁curriculum	-12.0068
▁Events	-12.0071
nCurrent	-12.0071
rangle	-12.0072
▁notion	-12.0073
▁welfare	-12.0073
▁Convention	-12.0073
▁compressed	-12.0073
▁transduction	-12.0073
Python	-12.0073
Collections	-12.0074
▁dying	-12.0074
▁Manhattan	-12.0075
▁threw	-12.0076
▁Oil	-12.0077
▁Calendar	-12.0077
▁interfere	-12.0079
▁hazard	-12.008
▁morphine	-12.0082
▁girlfriend	-12.0082
▁thirty	-12.0082
▁counties	-12.0082
▁regulates	-12.0084
wall	-12.0084
EA	-12.0084
▁organism	-12.0086
▁envelope	-12.0087
tin	-12.0089
central	-12.009
▁{%	-12.009
▁2004,	-12.0093
Card	-12.0094
▁constitutional	-12.0095
▁Assessment	-12.0095
▁projected	-12.0095
▁Lanka	-12.0095
▁Lab	-12.0099
pages	-12.0099
nMaybe	-12.01
▁Patient	-12.01
▁0.9	-12.0101
▁guinea	-12.0101
▁Changes	-12.0105
views	-12.0105
agent	-12.0106
▁dishes	-12.0108
▁sponsored	-12.0108
▁surely	-12.0109
▁temple	-12.0109
▁rewrite	-12.0111
▁Gram	-12.0112
▁1976	-12.0116
▁outlets	-12.0116
▁neo	-12.0117
▁Palestinian	-12.0118
▁props	-12.0119
10.	-12.012
▁ski	-12.0122
▁CV	-12.0124
***	-12.0124
▁considerations	-12.0125
▁ester	-12.0126
▁bracket	-12.0126
▁hardly	-12.0127
Global	-12.0127
▁wiring	-12.0127
Japanese	-12.0129
▁overexpression	-12.013
▁reservoir	-12.013
▁nomination	-12.0131
inter	-12.0131
▁className	-12.0133
▁contaminated	-12.0134
▁Complete	-12.0134
64\	-12.0136
064	-12.0137
▁encode	-12.0137
▁Constitution	-12.0138
▁INCLUDING	-12.0139
▁smokers	-12.014
Empty	-12.014
amine	-12.0141
▁Eight	-12.0141
▁Rev	-12.0144
▁deemed	-12.0145
▁modulate	-12.0145
eval	-12.0146
▁[];\	-12.0147
▁Estate	-12.0148
▁auction	-12.0148
($_	-12.015
ABSTRACT	-12.015
▁0.01)	-12.0152
datetime	-12.0153
▁THEN	-12.0154
▁connects	-12.0154
FE	-12.0155
xy	-12.0158
▁2%	-12.0159
▁mountains	-12.016
▁pizza	-12.016
▁Large	-12.016
▁Freedom	-12.0161
▁Kennedy	-12.0162
▁WordPress	-12.0163
Dictionary	-12.0163
▁citizen	-12.0165
▁quantification	-12.0165
▁folding	-12.0169
▁rocket	-12.017
▁CSF	-12.017
▁Being	-12.0171
Railway	-12.0173
nDate	-12.0174
▁stays	-12.0174
ima	-12.0176
Tests	-12.0176
tes	-12.0177
▁accelerated	-12.0179
▁workaround	-12.018
▁dispute	-12.0181
▁Members	-12.0185
▁3.1	-12.0186
▁$$\	-12.0186
▁joke	-12.0187
▁sleeve	-12.0188
▁diode	-12.0189
▁airline	-12.0191
mass	-12.0191
▁Carl	-12.0191
▁Cooper	-12.0193
▁icons	-12.0193
▁Properties	-12.0195
▁routing	-12.0195
▁DNS	-12.0199
Arg	-12.02
▁Living	-12.0201
▁renamed	-12.0201
Yes	-12.0202
▁verification	-12.0202
▁romantic	-12.0204
▁shifted	-12.0205
drawable	-12.0207
▁PT	-12.0209
BD	-12.0209
Indian	-12.0213
▁theories	-12.0214
large	-12.0214
▁Dar	-12.0214
▁sliding	-12.0215
▁blockade	-12.0217
▁sink	-12.0217
▁motivation	-12.0217
▁departure	-12.0218
REQUEST	-12.0218
▁%{	-12.022
▁platelets	-12.0221
▁Putin	-12.0223
▁@\"	-12.0224
aged	-12.0226
▁trips	-12.0227
▁caspase	-12.0227
▁bicycle	-12.0232
▁lactate	-12.0232
▁outline	-12.0232
▁momentum	-12.0233
away	-12.0233
▁2000,	-12.0234
▁crashes	-12.0234
▁Know	-12.0234
▁MY	-12.0236
cross	-12.0238
▁Location	-12.024
Rect	-12.024
▁Commons	-12.024
▁Ukrainian	-12.0244
▁binds	-12.0245
▁Islam	-12.0245
▁bat	-12.0245
▁EXPRESS	-12.0246
1.0	-12.0247
nPosted	-12.0248
▁wildlife	-12.025
kar	-12.025
▁administrator	-12.025
▁extraordinary	-12.0251
▁subtypes	-12.0251
▁brackets	-12.0253
▁diastolic	-12.0254
▁spam	-12.0254
▁),\	-12.0258
▁affairs	-12.0258
seq	-12.026
▁notified	-12.026
▁pathogen	-12.026
GO	-12.0262
med	-12.0262
▁gaps	-12.0264
▁Literature	-12.0265
▁jurisdiction	-12.027
▁2018.\	-12.0271
▁nM	-12.0273
▁Sale	-12.0274
LD	-12.0275
▁fungal	-12.0276
▁duties	-12.0277
design	-12.0277
▁tweets	-12.028
▁slip	-12.028
▁analyst	-12.0281
▁drew	-12.0283
▁sons	-12.0285
▁Corps	-12.0286
▁investments	-12.0288
▁cam	-12.0288
bis	-12.029
▁prone	-12.029
▁classroom	-12.0292
▁GP	-12.0294
▁relay	-12.0294
▁chi	-12.0295
DateTime	-12.0295
▁microscope	-12.0297
▁Greater	-12.0299
▁sectors	-12.0299
▁Visit	-12.0299
▁straightforward	-12.0299
nOutput	-12.0301
years	-12.0301
ser	-12.0301
phosphate	-12.0302
RF	-12.0303
▁Appellee	-12.0304
▁cheaper	-12.0305
▁directories	-12.0305
▁drawings	-12.0305
▁bucket	-12.0305
▁hippocampal	-12.0306
▁Muslims	-12.0308
nContact	-12.0309
▁Voivodeship	-12.0309
▁termination	-12.0309
▁serotonin	-12.0309
▁defender	-12.031
ors	-12.0311
▁inadequate	-12.0312
▁"---\	-12.0313
▁evolutionary	-12.0314
▁equals	-12.0317
▁dismiss	-12.0318
they	-12.0319
eh	-12.032
▁(17	-12.032
was	-12.0322
▁NEW	-12.0322
▁arising	-12.0323
▁Urban	-12.0323
nRecently	-12.0327
Admin	-12.0327
▁Military	-12.033
▁Mal	-12.0332
▁midfielder	-12.0333
▁Options	-12.0333
Params	-12.0334
/**	-12.0334
▁wallet	-12.0336
▁Fame	-12.0338
iness	-12.0339
nSelect	-12.0341
▁ethical	-12.0347
▁Nine	-12.0349
nOfficial	-12.0351
▁nearest	-12.0352
▁:)	-12.0354
▁modifying	-12.0356
▁75%	-12.0356
▁crown	-12.0356
Bean	-12.0358
▁2016.\	-12.0359
▁Mumbai	-12.0359
▁inequality	-12.036
▁genotypes	-12.036
▁transistors	-12.036
▁peaks	-12.0364
▁formatting	-12.0364
▁0.7	-12.0366
▁Tab	-12.0369
nPost	-12.0369
▁Emergency	-12.037
▁typedef	-12.037
proxy	-12.037
▁anemia	-12.0371
▁Gene	-12.0371
gui	-12.0373
▁narrative	-12.0374
▁Transport	-12.0377
▁Comments	-12.0378
2);\	-12.0381
▁0$	-12.0381
▁Jews	-12.0384
▁3.3	-12.0385
Lock	-12.0385
▁retailers	-12.0387
▁2019.	-12.0387
▁inherent	-12.0388
▁bipolar	-12.0388
3082\	-12.0389
▁accidents	-12.039
Mobile	-12.0391
▁architect	-12.0392
▁polynomial	-12.0393
▁100%;\	-12.0396
CB	-12.0397
Si	-12.0399
▁Charlie	-12.04
nBasically	-12.04
histochemistry	-12.0401
▁Grid	-12.0401
▁Virtual	-12.0402
▁cc	-12.0402
▁surgeons	-12.0403
▁Enron	-12.0403
▁organisations	-12.0404
▁disclose	-12.0405
▁accumulated	-12.0405
City	-12.041
▁radar	-12.041
▁Promise	-12.041
▁<?	-12.0412
▁inflation	-12.0412
nProduct	-12.0413
▁modal	-12.0413
▁agonists	-12.0415
▁capacitor	-12.0416
▁Industry	-12.0416
▁glands	-12.0418
▁EF	-12.0419
qu	-12.0421
884	-12.0422
▁triggers	-12.0422
ij	-12.0423
▁liberal	-12.0424
▁quest	-12.0427
▁conversations	-12.043
▁burst	-12.0431
▁Intent	-12.0431
nPeople	-12.0432
▁refugees	-12.0433
St	-12.0433
dat	-12.0434
▁reductions	-12.0434
Bbb	-12.0438
▁customize	-12.0439
mann	-12.0439
▁Mario	-12.0439
Platform	-12.044
ami	-12.044
ble	-12.0441
▁periodic	-12.0443
-1}	-12.0444
tint	-12.0445
▁folk	-12.0446
▁mast	-12.0446
▁Include	-12.0447
▁piston	-12.0448
▁PROVIDED	-12.045
(2	-12.0452
rank	-12.0452
▁Previous	-12.0453
▁translocation	-12.0454
▁Ward	-12.0454
ABC	-12.0454
rock	-12.0454
▁checkbox	-12.0455
cher	-12.0455
▁masses	-12.0455
Ex	-12.0457
▁problematic	-12.0458
▁apoptotic	-12.046
▁acidic	-12.046
▁cricketers	-12.046
▁Gr	-12.0462
▁CE	-12.0462
▁dat	-12.0462
▁Metal	-12.0463
▁Baby	-12.0464
▁vendor	-12.0464
▁compromise	-12.0466
▁Soccer	-12.047
▁HCC	-12.0471
▁inactive	-12.0472
▁retina	-12.0472
▁diff	-12.0472
2010	-12.0472
▁Pen	-12.0473
▁diminished	-12.0474
[...]
