<unk>	0
<s>	0
</s>	0
▁	-2.63181
\	-3.10502
n	-3.22443
.	-3.58476
▁the	-3.79294
,	-3.82535
a	-4.01934
s	-4.12367
▁of	-4.23149
▁and	-4.37888
▁to	-4.48015
"	-4.48135
":	-4.59403
▁in	-4.59465
-	-4.59994
_	-4.61583
e	-4.72802
u	-4.7353
t	-4.75668
:	-4.9504
(	-4.97179
d	-5.01291
▁{"	-5.01534
)	-5.17645
▁is	-5.19226
i	-5.2158
o	-5.24766
I	-5.33403
'	-5.37121
▁for	-5.38698
▁with	-5.51306
r	-5.54109
name	-5.57148
set	-5.57817
▁that	-5.62164
text	-5.63897
meta	-5.69156
pile	-5.70605
"}}	-5.70784
A	-5.70903
▁on	-5.73611
",	-5.73862
ing	-5.74338
c	-5.78504
/	-5.79296
l	-5.80551
m	-5.83386
▁was	-5.91754
▁as	-6.00894
▁be	-6.03303
▁by	-6.03933
▁it	-6.05478
=	-6.08735
▁The	-6.08801
2	-6.11823
▁this	-6.13154
▁are	-6.13835
▁from	-6.15054
p	-6.15442
y	-6.18452
▁you	-6.20618
b	-6.28513
f	-6.28816
▁an	-6.29875
1	-6.32204
▁or	-6.34866
▁have	-6.35095
▁\"	-6.35503
▁not	-6.48204
C	-6.48593
▁were	-6.50175
S	-6.54249
▁can	-6.55016
2019	-6.58285
g	-6.60989
$	-6.63227
h	-6.63697
00	-6.66054
x	-6.72298
▁has	-6.7604
P	-6.7714
3	-6.78168
ly	-6.79869
T	-6.80175
nCategory	-6.8116
<	-6.81188
▁will	-6.82162
▁but	-6.83324
201	-6.85325
nThe	-6.85901
▁which	-6.87611
▁your	-6.92631
k	-6.94427
D	-6.96431
B	-6.98059
M	-7.01348
0	-7.06632
{	-7.06877
▁all	-7.07794
▁we	-7.08066
CC	-7.09813
PubMed	-7.10672
;	-7.11816
▁Abstract	-7.12319
4	-7.12484
v	-7.12554
*	-7.13211
▁one	-7.14837
R	-7.15664
Pile	-7.17119
▁more	-7.17289
▁also	-7.18746
E	-7.19648
;\	-7.19785
Q	-7.21332
▁if	-7.2191
▁{\	-7.22299
▁use	-7.23924
▁been	-7.23936
F	-7.26635
▁their	-7.28175
▁my	-7.28668
▁do	-7.28839
▁new	-7.29104
▁In	-7.29419
▁patients	-7.29715
[	-7.30391
5	-7.30722
>\	-7.32283
H	-7.34857
N	-7.35586
?	-7.35818
L	-7.36868
?\	-7.37426
▁when	-7.37527
▁using	-7.3761
▁like	-7.39524
#	-7.4034
▁time	-7.41408
w	-7.41715
▁after	-7.43523
▁other	-7.44512
▁than	-7.45073
>	-7.45166
▁there	-7.46354
▁may	-7.46589
▁out	-7.4676
▁he	-7.47559
}\	-7.47817
G	-7.48104
▁his	-7.48257
O	-7.4841
▁two	-7.48639
▁about	-7.49202
=\"	-7.49516
▁who	-7.50416
Stack	-7.50899
Exchange	-7.51614
▁It	-7.52495
9	-7.53162
6	-7.53717
▁up	-7.54307
▁into	-7.54311
▁would	-7.54604
▁had	-7.56928
▁some	-7.57193
▁This	-7.57454
▁get	-7.58795
▁they	-7.59184
▁between	-7.60029
▁first	-7.60395
▁only	-7.60931
▁its	-7.62299
com	-7.6367
j	-7.64156
▁our	-7.65055
8	-7.65527
▁these	-7.65574
7	-7.66017
]	-7.66052
+	-7.66206
▁data	-7.66896
▁used	-7.67149
Text	-7.69596
@	-7.70957
Open	-7.71067
Web	-7.72803
U	-7.73163
▁any	-7.7381
▁We	-7.73823
!	-7.74626
z	-7.74626
▁over	-7.80506
▁study	-7.80587
}	-7.80737
▁said	-7.81386
▁just	-7.81486
ve	-7.81695
▁what	-7.82587
://	-7.82739
K	-7.82951
);\	-7.83029
▁such	-7.83332
▁need	-7.84955
V	-7.85315
▁make	-7.86803
▁how	-7.88487
▁want	-7.88526
▁should	-7.89539
&	-7.90103
2013	-7.90416
▁me	-7.90849
▁function	-7.90965
▁cells	-7.93241
▁could	-7.93724
▁well	-7.95235
W	-7.9548
▁work	-7.95848
▁both	-7.96277
▁during	-7.98383
▁found	-7.98959
▁way	-8.00249
▁people	-8.00494
▁high	-8.00618
X	-8.00873
▁}\	-8.01228
▁most	-8.0159
▁years	-8.02702
▁under	-8.03182
▁different	-8.03948
▁file	-8.04206
Wikipedia	-8.04649
▁where	-8.06415
▁her	-8.07186
▁through	-8.0746
</	-8.07766
\"\	-8.0849
▁code	-8.10125
▁group	-8.10478
▁system	-8.12296
▁results	-8.13968
▁know	-8.14928
▁class	-8.14945
▁same	-8.15375
The	-8.15844
//	-8.16082
▁number	-8.16322
▁each	-8.16527
▁see	-8.16836
▁treatment	-8.17252
▁cell	-8.17533
Github	-8.17731
▁type	-8.17747
()	-8.17818
▁them	-8.19333
▁value	-8.22748
▁here	-8.22959
nIn	-8.24574
▁method	-8.25061
▁now	-8.25929
▁while	-8.2674
▁following	-8.26987
▁He	-8.27111
(\"	-8.27443
J	-8.27695
▁return	-8.27769
▁three	-8.27988
▁before	-8.28277
▁those	-8.28759
▁non	-8.28996
▁because	-8.29118
▁case	-8.29816
▁end	-8.3092
▁provide	-8.31277
nReferences	-8.32177
▁many	-8.32734
▁information	-8.32756
▁very	-8.33331
nThis	-8.34174
▁year	-8.34352
▁without	-8.34455
▁being	-8.34477
▁present	-8.38624
▁10	-8.38834
▁find	-8.38843
▁help	-8.39149
▁back	-8.39239
able	-8.39383
▁control	-8.40079
▁made	-8.4051
▁part	-8.42359
▁does	-8.42554
▁show	-8.4288
▁long	-8.43254
▁public	-8.43255
▁own	-8.43492
%	-8.43574
▁take	-8.43672
and	-8.45351
▁don	-8.45808
▁even	-8.45839
▁last	-8.45946
▁You	-8.46617
▁activity	-8.46665
2014	-8.47984
▁disease	-8.48885
▁example	-8.49047
▁including	-8.49324
the	-8.49428
▁effect	-8.4966
▁did	-8.49806
Y	-8.50137
▁good	-8.50187
▁right	-8.50586
('	-8.51246
▁If	-8.51718
▁she	-8.52089
▁No	-8.53104
▁test	-8.53253
!\	-8.54366
▁within	-8.55022
▁analysis	-8.55568
▁support	-8.55846
▁clinical	-8.56407
▁change	-8.56422
▁For	-8.56428
▁line	-8.56974
▁model	-8.57758
▁associated	-8.58016
▁order	-8.58162
▁human	-8.58412
▁New	-8.59076
03	-8.59342
▁day	-8.60374
▁levels	-8.61292
▁still	-8.61492
▁protein	-8.61629
▁user	-8.6167
▁These	-8.6229
▁possible	-8.62353
▁increased	-8.62505
▁However	-8.62654
▁much	-8.627
▁expression	-8.62791
nYou	-8.62808
▁best	-8.63303
▁based	-8.63385
▁second	-8.63475
▁per	-8.63619
▁go	-8.64024
▁problem	-8.6431
▁available	-8.64961
▁age	-8.65216
▁effects	-8.65258
▁single	-8.65931
▁list	-8.66024
▁significant	-8.66096
();\	-8.66527
▁against	-8.66635
q	-8.66968
▁low	-8.67626
▁post	-8.68015
30	-8.68632
▁development	-8.69128
▁process	-8.69474
▁To	-8.69489
▁since	-8.70026
▁compared	-8.70504
▁significantly	-8.70649
▁create	-8.70697
▁site	-8.70991
▁state	-8.71155
▁something	-8.71266
▁around	-8.71512
▁studies	-8.71546
▁level	-8.71747
▁down	-8.71809
nHow	-8.71917
▁cases	-8.72039
▁showed	-8.72205
▁think	-8.72591
▁error	-8.72702
www	-8.7276
▁response	-8.72821
...	-8.73676
▁life	-8.7377
▁//	-8.73805
▁result	-8.73957
▁another	-8.74191
▁children	-8.74641
▁rate	-8.74734
▁days	-8.74992
nIf	-8.75294
▁small	-8.75815
▁current	-8.75937
div	-8.76032
▁changes	-8.76176
▁known	-8.76194
▁cancer	-8.76285
get	-8.76368
▁free	-8.76421
▁higher	-8.7681
▁form	-8.76977
▁home	-8.77023
▁version	-8.77129
▁pre	-8.77169
043	-8.77255
▁team	-8.77283
▁risk	-8.77431
▁specific	-8.77557
nIt	-8.77607
▁game	-8.78125
▁page	-8.78335
▁role	-8.78424
▁important	-8.78773
type	-8.79231
▁main	-8.79893
▁run	-8.7998
▁image	-8.80454
▁water	-8.80513
).\	-8.80523
▁family	-8.80643
▁health	-8.81486
▁total	-8.81495
▁add	-8.82283
▁potential	-8.82666
org	-8.8279
▁women	-8.82965
▁There	-8.83074
▁great	-8.83371
▁look	-8.83475
▁application	-8.83559
▁world	-8.83646
▁string	-8.84223
▁him	-8.84709
▁large	-8.84912
▁All	-8.85131
▁better	-8.85485
▁groups	-8.85874
▁working	-8.85888
▁care	-8.85937
▁open	-8.85992
▁every	-8.86241
▁increase	-8.86428
▁either	-8.86934
▁due	-8.87013
▁less	-8.87447
▁blood	-8.87456
▁content	-8.87496
▁values	-8.87693
▁few	-8.87853
▁patient	-8.87968
▁=>	-8.88167
ary	-8.88289
ity	-8.88338
▁size	-8.886
▁place	-8.88774
year	-8.88813
▁anti	-8.88972
▁local	-8.891
ation	-8.89441
▁field	-8.89552
▁But	-8.89867
▁project	-8.89903
▁might	-8.90367
nWe	-8.91011
▁reported	-8.91015
▁left	-8.91097
▁players	-8.91226
▁four	-8.91512
▁License	-8.91549
▁must	-8.91897
->	-8.91985
▁links	-8.92109
▁having	-8.92231
▁several	-8.92334
▁really	-8.92355
tic	-8.92392
▁normal	-8.93132
▁next	-8.93384
▁access	-8.93398
ers	-8.93494
▁among	-8.93605
▁off	-8.93621
▁range	-8.94308
▁device	-8.94361
▁include	-8.94678
▁below	-8.94825
man	-8.94979
▁call	-8.94985
▁So	-8.9579
▁trying	-8.95938
▁months	-8.96013
▁question	-8.96738
\",\	-8.96846
▁similar	-8.97299
▁var	-8.97321
▁service	-8.97345
▁gene	-8.97448
▁sure	-8.97802
data	-8.97991
▁report	-8.98079
▁observed	-8.9828
▁program	-8.98482
▁able	-8.98561
▁full	-8.98616
▁going	-8.98644
▁video	-8.98936
hether	-8.9904
▁20	-8.99203
▁array	-8.99366
▁acid	-8.99849
▁early	-9.00106
this	-9.00172
▁multiple	-9.00387
▁mean	-9.00685
▁body	-9.00696
▁side	-9.00828
▁point	-9.0104
string	-9.01296
▁say	-9.01338
http	-9.01417
▁object	-9.01476
▁series	-9.01545
▁12	-9.01744
US	-9.01876
▁key	-9.02052
▁lower	-9.02806
▁read	-9.02832
▁County	-9.02863
nimport	-9.02898
▁called	-9.03002
▁United	-9.03232
▁above	-9.03274
▁via	-9.03543
▁research	-9.03576
time	-9.03749
▁week	-9.0379
▁Background	-9.03906
▁power	-9.04012
\",	-9.04084
end	-9.04173
▁event	-9.04308
nTo	-9.04343
,\"	-9.04422
▁play	-9.04665
▁app	-9.04786
▁start	-9.04901
▁light	-9.05562
▁sub	-9.05731
test	-9.05749
▁source	-9.06052
▁structure	-9.06482
▁table	-9.06499
▁addition	-9.06513
▁true	-9.06588
▁growth	-9.06914
▁self	-9.07278
▁performed	-9.07656
html	-9.07657
▁factors	-9.08019
▁American	-9.08065
based	-9.08143
▁required	-9.08912
▁little	-9.09132
▁season	-9.09201
▁try	-9.09758
▁--	-9.09939
▁simple	-9.10088
▁further	-9.10185
▁got	-9.10194
▁species	-9.10294
▁related	-9.10799
▁put	-9.10846
▁doesn	-9.1087
▁area	-9.10906
▁And	-9.10938
▁check	-9.10972
▁always	-9.10997
▁give	-9.11078
▁systems	-9.11303
▁given	-9.11737
▁respectively	-9.12801
Name	-9.12803
out	-9.12915
▁love	-9.12987
▁surface	-9.13363
one	-9.13383
▁conditions	-9.13383
▁company	-9.13383
▁common	-9.13528
▁They	-9.13631
▁film	-9.13636
▁*/\	-9.138
▁therapy	-9.1395
▁solution	-9.14132
▁design	-9.14303
▁quality	-9.1439
▁population	-9.14551
▁view	-9.14593
▁until	-9.14688
\">\	-9.14729
()\	-9.14846
▁described	-9.14915
▁least	-9.1526
▁major	-9.15319
include	-9.15495
▁States	-9.15518
▁become	-9.15672
▁release	-9.15773
▁methods	-9.15991
old	-9.16062
▁suggest	-9.16222
▁performance	-9.16341
▁http	-9.16585
▁means	-9.16748
▁15	-9.16817
▁already	-9.16921
nExternal	-9.17031
▁lot	-9.17264
▁experience	-9.17345
▁features	-9.17672
2018	-9.17707
▁University	-9.17771
▁come	-9.18487
▁top	-9.18605
line	-9.19397
▁display	-9.19528
▁why	-9.19689
▁period	-9.19908
▁often	-9.20116
▁works	-9.20169
▁factor	-9.20584
▁production	-9.20679
▁review	-9.21115
▁developed	-9.21459
▁included	-9.2147
▁general	-9.21752
▁man	-9.22273
▁later	-9.22347
▁co	-9.22661
▁approach	-9.2288
file	-9.23111
▁</	-9.23143
▁space	-9.23254
▁along	-9.23279
frac	-9.23591
▁according	-9.23605
▁won	-9.23676
▁times	-9.24007
ous	-9.24215
▁keep	-9.24349
▁looking	-9.24577
▁however	-9.24653
nWhat	-9.24963
▁action	-9.2535
▁website	-9.25564
php	-9.25643
▁relative	-9.2632
▁short	-9.26385
▁server	-9.265
▁$\\	-9.26574
▁tried	-9.27139
▁When	-9.27354
▁received	-9.27396
▁devices	-9.27449
...\	-9.27538
▁things	-9.27558
\");\	-9.27859
▁community	-9.28152
▁primary	-9.28278
▁allow	-9.28368
▁course	-9.28521
▁files	-9.28695
▁making	-9.28733
▁DNA	-9.28974
nFor	-9.28981
key	-9.29118
▁position	-9.29228
▁head	-9.29298
▁She	-9.29372
▁complex	-9.29396
https	-9.29482
▁properties	-9.29578
▁real	-9.29636
of	-9.29653
▁issue	-9.29676
▁across	-9.29725
▁30	-9.30085
▁pressure	-9.30249
▁done	-9.30288
▁*\	-9.30317
▁five	-9.30369
▁far	-9.3083
▁again	-9.30965
▁says	-9.31013
▁follow	-9.31208
▁added	-9.31349
PTO	-9.31481
String	-9.31552
▁obtained	-9.31667
▁products	-9.31672
▁On	-9.31828
▁determine	-9.32265
▁created	-9.32306
value	-9.32327
▁presence	-9.32413
($	-9.3247
▁date	-9.32511
▁school	-9.32519
▁today	-9.32727
▁Our	-9.32734
▁provided	-9.33105
Type	-9.33215
▁One	-9.33454
▁never	-9.33652
▁let	-9.33687
▁tissue	-9.33774
▁together	-9.33832
▁+/-	-9.33886
▁old	-9.33907
▁National	-9.33926
▁near	-9.34127
▁multi	-9.34148
▁tumor	-9.34258
▁Re	-9.34279
▁evidence	-9.34288
▁output	-9.34322
▁hand	-9.34481
▁drug	-9.34998
▁positive	-9.35051
▁identified	-9.35076
▁services	-9.35326
▁getting	-9.35723
▁11	-9.36286
▁doing	-9.36312
▁World	-9.36333
nSo	-9.36361
▁business	-9.36477
▁product	-9.36478
▁element	-9.3657
▁instead	-9.36648
▁region	-9.37481
▁studied	-9.37484
like	-9.37545
▁final	-9.37634
induced	-9.38015
▁1,	-9.38285
log	-9.38354
▁else	-9.38472
▁"[	-9.38488
▁caption	-9.38749
▁shown	-9.38897
▁currently	-9.39127
▁weeks	-9.39418
by	-9.39425
▁After	-9.39533
▁micro	-9.39549
▁seems	-9.39557
▁rats	-9.3969
▁inside	-9.39786
ID	-9.39883
▁South	-9.39935
▁events	-9.3995
▁management	-9.39954
▁difference	-9.40071
▁May	-9.40238
▁standard	-9.40293
▁located	-9.4047
].\	-9.40589
▁future	-9.40706
ive	-9.40991
▁running	-9.41007
▁reduced	-9.41042
▁treated	-9.4117
▁heart	-9.41298
▁color	-9.41304
▁users	-9.41307
▁link	-9.41341
went	-9.41458
▁seen	-9.41503
▁media	-9.41517
▁==	-9.41747
▁software	-9.41837
▁members	-9.41868
▁recent	-9.42222
▁revealed	-9.42367
Data	-9.42466
▁cause	-9.42791
nadd	-9.42843
▁diagnosis	-9.42858
▁100	-9.42944
▁complete	-9.42956
▁history	-9.4329
arious	-9.43313
▁involved	-9.43332
▁past	-9.43373
▁My	-9.4339
▁network	-9.43448
▁cannot	-9.43477
▁findings	-9.43607
▁require	-9.43641
▁account	-9.43743
▁please	-9.43761
▁brain	-9.44283
▁released	-9.44383
▁web	-9.44391
▁surgery	-9.44579
▁copy	-9.44591
▁shows	-9.44665
▁variable	-9.44666
nAs	-9.44677
▁strong	-9.45072
▁State	-9.45133
▁receptor	-9.45173
▁certain	-9.4531
▁effective	-9.45339
▁16	-9.45433
▁energy	-9.45535
.\"\	-9.45564
2026	-9.45778
▁live	-9.45915
▁index	-9.45931
▁types	-9.46089
///	-9.4613
▁weight	-9.46191
▁18	-9.46284
list	-9.4634
▁million	-9.46358
▁mice	-9.46507
▁target	-9.46708
▁former	-9.46765
▁social	-9.46864
▁men	-9.46951
▁medical	-9.47029
▁input	-9.47109
▁differences	-9.47115
▁death	-9.47161
▁particular	-9.47379
▁once	-9.47389
▁told	-9.47407
▁contact	-9.47564
▁thing	-9.47587
▁search	-9.47675
new	-9.47697
nSee	-9.47701
▁though	-9.47797
▁active	-9.4782
▁concentration	-9.47872
▁bit	-9.47886
term	-9.47911
▁food	-9.47931
▁yet	-9.48009
▁answer	-9.48059
▁article	-9.48128
▁void	-9.48138
This	-9.48139
nBut	-9.48201
▁member	-9.48305
▁air	-9.48341
▁city	-9.48471
▁II	-9.48649
▁country	-9.48742
less	-9.48895
▁online	-9.48971
▁memory	-9.49056
▁hours	-9.49145
▁hard	-9.49146
▁close	-9.49251
▁binding	-9.49319
▁book	-9.49515
▁flow	-9.4952
▁database	-9.4959
▁original	-9.4971
▁build	-9.498
');\	-9.49893
▁command	-9.49992
▁male	-9.50003
▁24	-9.50146
▁14	-9.50175
user	-9.50376
▁default	-9.50485
▁needs	-9.50545
▁With	-9.50548
▁photo	-9.50681
▁likely	-9.50743
▁Here	-9.51196
▁month	-9.51358
▁additional	-9.51364
▁City	-9.51888
▁York	-9.52354
▁indicate	-9.52357
▁proteins	-9.52362
):\	-9.5254
▁paper	-9.52554
▁government	-9.5268
▁measured	-9.52726
▁third	-9.5288
List	-9.5296
related	-9.53037
▁police	-9.53228
▁students	-9.53428
▁cost	-9.53472
▁plasma	-9.53499
▁special	-9.53544
▁determined	-9.53666
function	-9.53669
▁status	-9.53739
▁infection	-9.53914
▁car	-9.53969
▁CD	-9.53994
▁base	-9.54193
▁loss	-9.54235
▁samples	-9.543
▁That	-9.54403
ized	-9.5457
class	-9.54619
▁address	-9.54754
▁understand	-9.54775
▁lead	-9.548
▁message	-9.54822
nThere	-9.54907
▁etc	-9.55133
born	-9.55201
▁North	-9.55249
nvar	-9.55352
▁invention	-9.55468
▁material	-9.55509
▁whole	-9.55562
var	-9.55602
▁property	-9.55661
▁problems	-9.55694
▁investigated	-9.55943
▁novel	-9.55974
▁St	-9.56066
▁District	-9.56094
▁images	-9.56237
▁football	-9.56266
▁useful	-9.56367
▁serum	-9.56585
▁actually	-9.56658
▁away	-9.56674
▁considered	-9.5677
▁Court	-9.56993
▁big	-9.57004
▁models	-9.57004
▁six	-9.57082
script	-9.57154
▁column	-9.57256
▁length	-9.57288
▁amount	-9.574
▁false	-9.57446
▁OF	-9.57464
▁needed	-9.57504
▁greater	-9.57622
ally	-9.57663
▁music	-9.57769
▁pain	-9.57805
▁probably	-9.57823
▁affect	-9.57836
▁subjects	-9.57843
▁select	-9.57856
▁liver	-9.57902
▁designed	-9.57958
▁produced	-9.57977
▁write	-9.57987
▁decreased	-9.58021
▁relationship	-9.58037
▁bone	-9.5812
While	-9.582
▁individual	-9.58265
▁person	-9.58283
nWhen	-9.58288
for	-9.58325
▁easy	-9.58367
▁law	-9.58433
▁culture	-9.58473
path	-9.58505
▁path	-9.58509
▁How	-9.5867
▁art	-9.58759
▁games	-9.58773
▁started	-9.59064
▁dose	-9.59145
▁fine	-9.59147
▁elements	-9.59204
▁functional	-9.59222
▁points	-9.59371
▁lines	-9.59401
▁expected	-9.59431
ate	-9.59481
\";\	-9.5953
▁50	-9.59594
▁concentrations	-9.59597
▁What	-9.59674
▁phase	-9.59855
▁areas	-9.59875
▁parameters	-9.59904
▁private	-9.60348
▁unique	-9.60397
▁record	-9.60429
▁March	-9.60735
▁includes	-9.60974
ment	-9.61022
▁rates	-9.61224
▁acute	-9.61384
▁recently	-9.61448
▁idea	-9.61523
▁previous	-9.61616
▁option	-9.61665
▁impact	-9.61885
▁presented	-9.61976
▁clear	-9.62155
▁pro	-9.62178
▁took	-9.62252
▁terms	-9.62462
▁night	-9.62542
▁average	-9.62546
return	-9.62553
▁print	-9.62584
▁demonstrated	-9.62699
▁births	-9.62792
▁enough	-9.6284
▁technique	-9.63085
▁language	-9.63092
▁formation	-9.63203
▁correct	-9.63229
▁played	-9.63471
▁published	-9.63487
containing	-9.6354
▁particularly	-9.63546
▁child	-9.63552
▁highly	-9.63614
▁style	-9.63729
▁email	-9.63785
.\"	-9.63863
▁13	-9.63894
▁request	-9.63934
View	-9.64054
▁environment	-9.64222
▁directly	-9.64396
▁molecular	-9.64409
▁prevent	-9.64498
▁mechanism	-9.64618
▁chronic	-9.64699
▁details	-9.64765
▁store	-9.64776
▁sample	-9.64884
▁pattern	-9.64889
▁followed	-9.65069
▁System	-9.65147
▁practice	-9.65166
▁query	-9.65168
▁inter	-9.65281
\")\	-9.65298
▁move	-9.65332
▁update	-9.65414
▁established	-9.65585
▁reference	-9.65662
▁functions	-9.65668
day	-9.6581
▁reduce	-9.65896
▁previously	-9.65982
▁physical	-9.66053
▁stage	-9.66111
▁double	-9.66146
▁half	-9.66314
▁distribution	-9.66362
age	-9.66637
▁January	-9.66762
▁location	-9.66778
▁survival	-9.66881
▁skin	-9.66946
▁kind	-9.67038
▁auto	-9.67128
▁evaluated	-9.67151
▁vitro	-9.67222
▁story	-9.67243
▁Trump	-9.67321
▁computer	-9.67369
▁technology	-9.67489
▁anyone	-9.67513
▁building	-9.67608
▁rather	-9.67668
▁Co	-9.67736
ness	-9.67811
▁background	-9.67881
▁ever	-9.67918
▁young	-9.67984
▁mass	-9.67993
▁training	-9.68013
▁US	-9.68052
▁applications	-9.68159
▁white	-9.68237
▁June	-9.6824
▁percent	-9.6825
▁toward	-9.68285
code	-9.68315
▁examined	-9.68324
▁block	-9.68337
▁aim	-9.68437
▁signal	-9.68588
▁especially	-9.68759
nHe	-9.68775
▁selected	-9.6882
▁questions	-9.6883
▁cross	-9.68833
taking	-9.6884
▁decrease	-9.6896
▁comes	-9.68975
▁anything	-9.69071
▁25	-9.69079
▁ability	-9.69164
▁See	-9.69184
▁limited	-9.69314
▁beta	-9.6941
▁match	-9.69433
▁improve	-9.69443
▁caused	-9.69473
▁temperature	-9.69559
▁null	-9.69596
▁OR	-9.69615
▁stress	-9.69655
▁someone	-9.697
▁hope	-9.69899
▁statement	-9.69903
▁sites	-9.69963
▁unit	-9.70011
▁thought	-9.70024
▁issues	-9.7004
field	-9.70093
dependent	-9.70308
▁ratio	-9.7037
app	-9.70422
▁defined	-9.70468
▁reaction	-9.70684
▁Do	-9.7077
▁films	-9.70772
▁genes	-9.70871
';\	-9.70925
▁button	-9.70958
input	-9.71
▁offer	-9.71051
nThanks	-9.71056
▁John	-9.71063
▁Google	-9.71181
▁remain	-9.71192
Value	-9.71229
npublic	-9.71383
▁induced	-9.71466
▁April	-9.71564
▁trans	-9.71592
▁static	-9.71656
▁fact	-9.71674
▁looks	-9.71816
▁direct	-9.7184
----------------	-9.71914
▁player	-9.71921
▁believe	-9.72003
▁click	-9.72006
nHere	-9.72114
▁android	-9.72254
▁operation	-9.72267
size	-9.72354
nMy	-9.72429
add	-9.72469
['	-9.72471
▁Ca	-9.72486
▁July	-9.72503
▁install	-9.72518
▁prior	-9.72537
▁activities	-9.72742
▁intra	-9.72797
▁House	-9.72855
▁rat	-9.72874
table	-9.73036
▁taken	-9.73076
▁receive	-9.73342
▁De	-9.73398
▁condition	-9.7348
▁minutes	-9.73483
▁applied	-9.73569
▁wide	-9.73573
▁components	-9.73592
▁detected	-9.73612
▁String	-9.73683
);	-9.73693
▁feature	-9.73811
date	-9.73826
▁symptoms	-9.74004
▁distributed	-9.7405
item	-9.74072
▁17	-9.74166
nAnd	-9.74207
▁contains	-9.74292
▁hospital	-9.74349
▁sequence	-9.74465
▁didn	-9.74587
▁alpha	-9.74629
nhttp	-9.74673
▁muscle	-9.74755
▁injury	-9.74774
▁host	-9.74787
▁severe	-9.74834
▁frequency	-9.74977
▁exposure	-9.75046
▁feel	-9.7505
▁detection	-9.7506
▁activation	-9.75113
▁subject	-9.75135
▁step	-9.75192
▁items	-9.75235
▁wrong	-9.75348
▁load	-9.75373
▁black	-9.75384
▁produce	-9.7546
use	-9.75522
min	-9.75618
▁held	-9.75674
▁School	-9.75729
▁resistance	-9.75912
▁options	-9.75935
▁late	-9.75936
▁League	-9.7596
▁improved	-9.76019
▁min	-9.76034
▁built	-9.76065
▁administration	-9.76113
▁reduction	-9.76251
▁title	-9.76261
▁official	-9.76288
▁came	-9.76331
body	-9.76333
▁import	-9.76485
▁syndrome	-9.76511
all	-9.76546
▁initial	-9.76607
▁album	-9.76662
▁central	-9.76787
▁remove	-9.7694
▁share	-9.77331
▁item	-9.77367
▁job	-9.7738
▁poly	-9.77385
▁West	-9.77477
▁tool	-9.77594
▁controls	-9.77602
▁consider	-9.77644
▁combination	-9.77868
▁Copyright	-9.7789
▁front	-9.77903
▁membrane	-9.77997
▁reason	-9.78058
▁reading	-9.7811
▁screen	-9.78246
alpha	-9.78319
▁By	-9.78492
▁market	-9.78602
▁natural	-9.7871
▁mechanisms	-9.7876
▁THE	-9.78793
▁others	-9.79076
▁des	-9.791
▁upon	-9.79187
',\	-9.79326
▁knowledge	-9.7935
▁news	-9.7943
\">	-9.79462
▁face	-9.79566
▁deal	-9.79624
▁numbers	-9.79649
▁negative	-9.79688
color	-9.79817
specific	-9.79952
▁female	-9.80157
▁character	-9.80213
▁October	-9.80238
▁necessary	-9.80342
▁techniques	-9.80389
▁red	-9.80411
$$\	-9.80522
▁September	-9.80566
▁writing	-9.80621
▁script	-9.80731
▁plan	-9.80788
▁behavior	-9.80792
▁everything	-9.80899
▁overall	-9.81051
▁evaluate	-9.81098
▁bring	-9.81165
▁dis	-9.81213
▁word	-9.81423
▁volume	-9.81615
▁reports	-9.81688
▁characteristics	-9.81765
306	-9.81859
▁proposed	-9.81868
▁longer	-9.81868
▁almost	-9.81986
▁missing	-9.82002
▁component	-9.82029
▁generally	-9.82043
right	-9.8205
▁December	-9.82143
▁extra	-9.82334
▁association	-9.82355
▁const	-9.82614
▁tested	-9.82657
▁imaging	-9.82705
▁named	-9.8277
▁vehicle	-9.82848
index	-9.83017
▁August	-9.83035
▁written	-9.8318
▁mode	-9.83329
▁money	-9.83386
▁relates	-9.8351
▁national	-9.83607
▁latest	-9.83627
▁2016	-9.8367
▁center	-9.83681
▁document	-9.83714
▁virus	-9.83735
▁animals	-9.83748
▁healthy	-9.8383
▁custom	-9.84033
▁format	-9.84079
▁house	-9.84119
▁America	-9.84237
▁ago	-9.84401
▁influence	-9.84479
▁super	-9.84562
];\	-9.84578
Living	-9.84855
▁turn	-9.84934
▁pass	-9.8512
▁November	-9.85121
▁count	-9.85149
▁President	-9.85188
▁thus	-9.85192
▁Of	-9.85205
▁testing	-9.85227
▁allows	-9.85228
▁send	-9.85265
title	-9.8535
▁isolated	-9.85373
▁purpose	-9.8545
ious	-9.85463
▁variety	-9.85528
▁damage	-9.85548
▁usually	-9.85623
▁simply	-9.85682
▁increasing	-9.85704
▁room	-9.8575
bar	-9.85823
▁section	-9.85976
▁responses	-9.85998
▁height	-9.86094
▁ex	-9.86222
▁bio	-9.86255
▁whereas	-9.8628
define	-9.86283
▁station	-9.86399
came	-9.86466
▁gas	-9.86705
▁tests	-9.86774
page	-9.86775
We	-9.87022
▁collection	-9.87218
▁map	-9.87239
lib	-9.87259
▁General	-9.87307
▁tell	-9.87339
▁difficult	-9.8736
with	-9.87372
▁failure	-9.87403
▁contrast	-9.87455
▁identify	-9.87493
▁$(	-9.87635
▁procedure	-9.87684
github	-9.87752
▁outside	-9.8783
▁understanding	-9.87941
left	-9.8795
form	-9.88005
▁professional	-9.88148
▁itself	-9.88298
▁package	-9.88351
▁40	-9.88433
▁confirmed	-9.88435
Test	-9.88445
▁personal	-9.88651
▁From	-9.8883
▁phone	-9.88888
▁More	-9.8889
▁appears	-9.88891
▁Windows	-9.8892
▁processes	-9.88943
▁window	-9.89119
▁fun	-9.89197
▁https	-9.89203
▁career	-9.89263
▁enzyme	-9.89383
')\	-9.89402
txt	-9.89526
▁develop	-9.89621
▁setting	-9.89629
▁assess	-9.89637
20	-9.89688
▁materials	-9.89777
url	-9.89796
▁continue	-9.89923
▁que	-9.89968
▁bar	-9.8997
▁surgical	-9.90002
▁global	-9.90091
▁basis	-9.90153
▁band	-9.90248
▁price	-9.90321
using	-9.90326
▁matter	-9.90419
style	-9.90442
▁structures	-9.90469
▁individuals	-9.90509
▁approximate	-9.90665
▁client	-9.90733
▁IL	-9.90822
▁district	-9.90832
ization	-9.90883
File	-9.9133
▁leading	-9.91429
▁seem	-9.91444
▁rest	-9.91476
▁court	-9.91552
self	-9.9156
▁2015	-9.91656
▁library	-9.91667
array	-9.91698
10	-9.91699
Object	-9.91712
▁apply	-9.91747
▁quite	-9.91793
▁metal	-9.9185
nOn	-9.91894
▁avoid	-9.91911
nNo	-9.92071
▁lung	-9.92194
▁context	-9.92326
▁office	-9.92394
▁Friday	-9.92496
▁stop	-9.92588
ities	-9.92594
▁force	-9.92741
▁},\	-9.92764
▁security	-9.92816
▁hit	-9.92949
▁variables	-9.93058
▁investigate	-9.93088
span	-9.93211
▁India	-9.93233
▁layer	-9.93246
▁conventional	-9.9329
▁safety	-9.93337
▁San	-9.93473
▁radio	-9.93479
044	-9.9355
▁21	-9.93639
▁mobile	-9.93646
▁processing	-9.93651
▁plant	-9.93695
▁drugs	-9.9375
▁except	-9.9376
▁evaluation	-9.93766
▁asked	-9.93833
▁storage	-9.93901
▁Although	-9.93995
▁renal	-9.93995
▁focus	-9.94082
▁box	-9.94308
xml	-9.94479
existing	-9.94507
▁industry	-9.94586
▁interest	-9.9466
▁immuno	-9.94808
▁demonstrate	-9.94826
link	-9.94968
▁popular	-9.95074
▁visit	-9.95135
▁announced	-9.9525
▁vivo	-9.9526
map	-9.95266
▁speed	-9.95309
val	-9.95348
beta	-9.95384
▁instance	-9.95392
▁machine	-9.95395
▁goal	-9.95461
▁English	-9.95486
▁Un	-9.95554
▁sex	-9.95667
▁/>\	-9.9568
▁interface	-9.95775
▁connect	-9.95782
▁China	-9.95808
▁transfer	-9.95882
▁independent	-9.95922
▁pretty	-9.95966
▁decision	-9.96028
▁experimental	-9.96107
▁loop	-9.96202
land	-9.96236
▁appear	-9.96248
▁adult	-9.96287
▁village	-9.9629
▁row	-9.96362
ter	-9.96401
▁List	-9.96444
▁nothing	-9.96683
▁although	-9.96695
▁party	-9.96714
▁February	-9.96748
but	-9.96798
▁behind	-9.96904
▁forward	-9.96921
▁2012	-9.96988
▁La	-9.96991
free	-9.9704
▁diseases	-9.97112
').	-9.9715
▁entire	-9.97241
▁generated	-9.97269
▁Art	-9.97364
▁mortality	-9.97395
▁outcome	-9.97546
length	-9.97556
▁daily	-9.97589
▁neuro	-9.97676
▁mouse	-9.977
▁width	-9.97747
(2)	-9.97783
▁woman	-9.97923
▁soon	-9.98012
ated	-9.98124
▁compounds	-9.98145
▁node	-9.98193
▁genetic	-9.98264
ural	-9.98265
▁Center	-9.98275
▁domain	-9.98343
▁oil	-9.98421
▁combined	-9.98424
▁analyzed	-9.98569
▁Group	-9.9862
▁...	-9.98802
▁international	-9.98824
▁diet	-9.9885
head	-9.99014
▁->	-9.99073
▁changed	-9.99083
▁breast	-9.99131
▁CI	-9.99145
));\	-9.99183
▁uses	-9.99198
▁living	-9.99218
TO	-9.9927
▁therefore	-9.99346
▁degree	-9.99362
▁club	-9.99374
▁heat	-9.99374
▁correspond	-9.99528
▁assessed	-9.9981
▁score	-9.99817
▁Monday	-9.99844
Please	-9.99884
▁rights	-9.99934
▁Public	-9.99947
▁[\	-10.0005
▁gives	-10.001
▁staff	-10.001
▁discussed	-10.0019
▁Department	-10.0021
▁19	-10.0035
▁worked	-10.0035
nclass	-10.0041
▁Go	-10.0044
▁suggested	-10.0054
▁internal	-10.0066
▁60	-10.0073
▁save	-10.0082
view	-10.0088
▁coming	-10.0094
▁perform	-10.0118
▁meet	-10.013
▁visual	-10.0133
▁connection	-10.0134
▁express	-10.0142
▁conducted	-10.0146
▁download	-10.0148
});\	-10.015
▁task	-10.0154
▁died	-10.0162
▁refer	-10.0163
▁easily	-10.0167
▁license	-10.0174
▁wanted	-10.0178
▁contribute	-10.0184
▁therapeutic	-10.0191
▁drive	-10.0191
▁Data	-10.02
▁root	-10.0202
▁words	-10.0209
▁Now	-10.0225
▁education	-10.0244
▁synthesis	-10.025
▁expressed	-10.0251
▁remains	-10.0252
▁represent	-10.0253
▁stay	-10.0253
▁friends	-10.0263
▁lesions	-10.0276
image	-10.028
▁learn	-10.0286
▁selection	-10.0287
▁success	-10.0315
▁occurred	-10.0319
config	-10.0321
state	-10.0325
▁solid	-10.0335
▁API	-10.0341
▁learning	-10.0343
not	-10.0352
))\	-10.036
0430	-10.0366
▁countries	-10.0372
▁module	-10.0383
▁highest	-10.0383
};\	-10.0395
▁chemical	-10.0401
▁literature	-10.0402
▁attention	-10.0402
▁separate	-10.0405
▁providing	-10.0417
▁parts	-10.042
▁High	-10.0427
▁win	-10.0431
▁22	-10.0436
▁delivery	-10.045
▁track	-10.0455
▁pay	-10.0458
▁chain	-10.0464
▁affected	-10.0468
▁achieve	-10.0475
▁interaction	-10.0478
▁California	-10.0491
regarding	-10.0507
Free	-10.0525
▁generate	-10.0531
▁console	-10.0541
▁TV	-10.0544
▁ensure	-10.0548
content	-10.0556
Class	-10.056
▁completely	-10.0566
▁degrees	-10.057
▁states	-10.0583
▁3,	-10.0583
cell	-10.0586
▁couple	-10.0588
/**\	-10.0592
▁lost	-10.0594
▁song	-10.0599
▁requires	-10.0603
▁digital	-10.0607
▁regular	-10.0608
▁appropriate	-10.0613
▁companies	-10.0617
▁Facebook	-10.0618
▁War	-10.0619
▁obtain	-10.0621
▁assessment	-10.063
▁Some	-10.0631
▁cut	-10.0631
▁recorded	-10.0636
▁2018	-10.0636
▁birth	-10.0641
▁basic	-10.0645
▁Central	-10.0645
▁detect	-10.0649
▁led	-10.0656
▁indicated	-10.0656
▁throughout	-10.0667
▁capacity	-10.0689
▁incidence	-10.0692
▁playing	-10.0695
▁correlation	-10.0696
group	-10.0697
Enron	-10.0705
▁Park	-10.0711
▁Can	-10.0712
▁wall	-10.0717
▁inhibition	-10.0718
▁Thus	-10.0718
▁formed	-10.072
▁British	-10.0726
▁agents	-10.0726
▁comparison	-10.0729
he	-10.0734
▁medium	-10.0736
▁IN	-10.0743
▁International	-10.0753
▁offers	-10.0761
▁profile	-10.0764
▁motor	-10.0784
▁safe	-10.0784
▁hyper	-10.0789
▁creating	-10.0805
▁expect	-10.0809
▁trial	-10.0809
version	-10.0813
▁critical	-10.0813
▁yield	-10.082
ED	-10.0821
▁bad	-10.0835
▁objects	-10.0837
▁earlier	-10.0838
\").	-10.0841
ley	-10.0874
▁liquid	-10.0878
▁European	-10.088
▁characters	-10.0888
▁convert	-10.0888
▁Cup	-10.0889
▁sensitivity	-10.0891
▁maximum	-10.0895
▁investigation	-10.0896
▁Me	-10.0899
News	-10.09
▁patterns	-10.0901
▁completed	-10.0902
nHowever	-10.0908
▁Two	-10.0912
▁fast	-10.0919
▁outcomes	-10.0922
▁starting	-10.0939
ish	-10.0946
▁tools	-10.096
▁para	-10.0963
▁card	-10.0965
off	-10.0966
▁alone	-10.0966
box	-10.0972
▁town	-10.0976
▁break	-10.099
▁IS	-10.0993
▁seven	-10.1002
▁Health	-10.1003
▁serve	-10.1013
▁sent	-10.1016
▁carcinoma	-10.1018
▁oral	-10.1019
▁older	-10.102
▁Or	-10.1022
▁ground	-10.1023
▁Please	-10.1032
▁Australia	-10.1035
▁cardia	-10.1037
▁Be	-10.1038
▁comments	-10.104
32	-10.1054
[]	-10.1058
▁Tuesday	-10.1065
▁complications	-10.1081
People	-10.1081
▁matrix	-10.1087
void	-10.109
▁places	-10.1097
▁returns	-10.11
().	-10.1103
▁mind	-10.1107
Each	-10.1115
true	-10.1117
▁sign	-10.1128
▁communication	-10.1132
▁eye	-10.1153
▁directory	-10.1155
▁border	-10.1156
05	-10.116
sum	-10.1168
▁external	-10.1168
▁transport	-10.1169
▁resulting	-10.1178
American	-10.118
▁Sunday	-10.1187
▁2017	-10.1187
Error	-10.1191
▁describe	-10.1199
vascular	-10.1209
pite	-10.121
▁browser	-10.1215
++	-10.1225
▁adding	-10.123
▁Also	-10.1233
▁round	-10.1244
▁assay	-10.125
▁cover	-10.1254
max	-10.1255
▁forms	-10.1266
▁enable	-10.1267
▁figure	-10.1268
▁electronic	-10.1268
from	-10.1272
53	-10.1272
▁tumors	-10.1275
▁term	-10.1281
▁disorders	-10.1293
core	-10.1306
▁perfect	-10.1308
▁limit	-10.131
▁alternative	-10.131
red	-10.1313
▁deaths	-10.1314
▁Na	-10.1318
▁Street	-10.133
▁Thursday	-10.1333
▁resources	-10.1336
▁exercise	-10.1341
ful	-10.135
▁density	-10.1355
▁sound	-10.1361
![](	-10.1369
android	-10.137
▁choice	-10.1372
▁comment	-10.1377
▁larger	-10.1378
▁fluid	-10.139
▁2008	-10.139
▁traditional	-10.1404
▁biological	-10.1408
▁AND	-10.1408
{\\	-10.1414
▁Android	-10.1419
width	-10.1424
▁successful	-10.1425
▁Day	-10.1425
▁consist	-10.1428
Item	-10.143
▁president	-10.1437
▁direction	-10.1445
Date	-10.1447
▁everyone	-10.1449
▁parameter	-10.1468
▁board	-10.1469
▁Wednesday	-10.1477
▁enjoy	-10.148
which	-10.1488
row	-10.1488
▁Al	-10.149
▁contain	-10.1491
uff	-10.1498
▁cardio	-10.1501
▁lack	-10.1502
▁developing	-10.1506
▁amino	-10.1507
▁His	-10.151
▁glucose	-10.1525
side	-10.1535
some	-10.1544
▁failed	-10.1551
▁morning	-10.1554
ile	-10.1555
▁def	-10.1563
▁measures	-10.1564
Many	-10.1564
nNow	-10.1566
▁eight	-10.1568
▁consistent	-10.1571
▁London	-10.1583
▁enter	-10.1583
▁leave	-10.1587
▁guide	-10.16
▁channel	-10.1612
▁2011	-10.1617
▁measure	-10.162
▁Canada	-10.1621
▁collected	-10.1623
▁Inc	-10.1631
package	-10.1633
▁fields	-10.164
▁sleep	-10.164
▁mono	-10.1646
2+	-10.1656
▁rare	-10.1657
▁Saturday	-10.1657
▁fixed	-10.167
import	-10.168
▁exist	-10.1685
nCan	-10.1687
open	-10.1704
▁echo	-10.1707
▁essential	-10.171
Our	-10.1711
▁programs	-10.1714
▁ways	-10.1722
▁fire	-10.1735
▁Pro	-10.1737
▁television	-10.1742
▁increases	-10.1745
▁insulin	-10.1749
){#	-10.1754
▁immune	-10.1754
▁diabetes	-10.1758
▁showing	-10.1764
▁artery	-10.1766
▁UK	-10.1768
▁closed	-10.1774
▁linear	-10.1783
▁distance	-10.1784
▁26	-10.1785
▁HIV	-10.1799
▁statistical	-10.1802
▁born	-10.1807
▁blog	-10.1821
ndef	-10.1827
Get	-10.1828
json	-10.1855
▁First	-10.1855
▁Your	-10.1858
error	-10.1865
post	-10.1874
▁promote	-10.1879
▁regions	-10.1881
▁allowed	-10.1882
▁});\	-10.1885
▁served	-10.1889
ice	-10.189
▁Japanese	-10.1903
button	-10.1904
▁campaign	-10.1904
over	-10.1909
▁join	-10.1911
▁carried	-10.1914
▁adults	-10.1917
▁records	-10.1923
▁folder	-10.1927
\")	-10.1927
ance	-10.1928
▁installed	-10.1932
▁Twitter	-10.1949
▁goes	-10.1963
▁fully	-10.1964
▁College	-10.1976
▁log	-10.1978
▁url	-10.1982
New	-10.1988
▁cellular	-10.2
▁scale	-10.2002
▁charge	-10.2008
▁PM	-10.2011
▁characterized	-10.2016
▁hot	-10.2017
▁maintain	-10.202
▁policy	-10.202
▁families	-10.2021
▁con	-10.2022
▁5-	-10.2032
▁saying	-10.2038
▁Ex	-10.2039
▁define	-10.2043
▁names	-10.2046
▁nature	-10.2057
source	-10.2059
▁java	-10.2064
▁solutions	-10.2065
▁handle	-10.2086
▁random	-10.2088
▁poor	-10.2089
▁receptors	-10.2089
▁deep	-10.2096
▁removed	-10.2102
▁controlled	-10.2104
▁secondary	-10.211
▁Since	-10.2111
▁sources	-10.2112
▁sense	-10.2123
▁Furthermore	-10.2154
nfor	-10.2163
▁23	-10.2165
▁shape	-10.2167
med	-10.2167
Key	-10.217
▁respect	-10.2175
way	-10.2182
For	-10.2192
▁choose	-10.2194
▁Therefore	-10.2197
▁French	-10.2202
▁pH	-10.2215
nAfter	-10.2216
▁reflect	-10.2225
▁platform	-10.2225
▁diagnostic	-10.2228
▁upper	-10.2231
▁picture	-10.2241
▁animal	-10.2244
Law	-10.2247
▁responsible	-10.2251
▁suggests	-10.2254
▁middle	-10.2254
▁cycle	-10.2256
▁char	-10.2259
▁achieved	-10.2267
▁extreme	-10.2275
▁frame	-10.228
▁prevalence	-10.2285
▁agent	-10.2285
▁duration	-10.2301
▁explain	-10.2308
▁filter	-10.2313
▁Both	-10.2332
▁core	-10.2334
▁&&	-10.2344
\".\	-10.2346
▁4,	-10.2354
▁exactly	-10.2375
▁connected	-10.2383
▁resulted	-10.2385
▁Not	-10.2388
▁ID	-10.2392
▁typically	-10.2394
▁River	-10.2397
▁situation	-10.2398
▁News	-10.2399
▁95%	-10.2402
▁parent	-10.2402
main	-10.2404
▁mRNA	-10.241
object	-10.2411
▁PC	-10.2411
▁replace	-10.2412
▁causes	-10.2421
▁occur	-10.2425
▁src	-10.2435
▁efficacy	-10.2436
top	-10.2438
▁strength	-10.2438
▁classes	-10.244
▁structural	-10.2448
▁magnetic	-10.2459
▁relevant	-10.246
▁actual	-10.2469
▁Japan	-10.2474
▁road	-10.2475
▁optical	-10.2487
create	-10.249
▁Field	-10.2494
mathbb	-10.2495
▁customers	-10.2496
▁href	-10.25
▁28	-10.2504
64	-10.2504
▁author	-10.2505
▁stimulation	-10.2515
▁antibodies	-10.2523
▁appeared	-10.2527
▁Pat	-10.2529
▁experiments	-10.2533
▁carry	-10.2537
nAny	-10.2539
▁electro	-10.2544
▁engine	-10.255
OR	-10.2563
▁documentation	-10.2574
▁marked	-10.2576
▁die	-10.2578
▁attribute	-10.258
▁repair	-10.2585
▁star	-10.2586
0442	-10.2596
▁rule	-10.2598
▁tag	-10.2599
▁discuss	-10.26
▁Using	-10.2603
▁meeting	-10.2611
▁White	-10.2615
▁session	-10.2623
▁Chinese	-10.2628
▁measurements	-10.2636
▁units	-10.2641
res	-10.2649
▁efficient	-10.265
▁Dur	-10.2656
▁saw	-10.2672
▁challenge	-10.2676
▁improvement	-10.2677
▁Asia	-10.2678
▁injection	-10.2679
12	-10.2684
▁fight	-10.2685
▁Texas	-10.2685
▁settings	-10.2687
▁tissues	-10.2696
▁protect	-10.2696
ray	-10.2703
▁Free	-10.2713
16	-10.2713
▁virtual	-10.2717
▁0;\	-10.2725
▁summer	-10.2727
></	-10.2728
▁projects	-10.2732
▁compare	-10.2746
▁circuit	-10.2748
▁gold	-10.2756
▁moment	-10.2756
▁race	-10.277
▁interactions	-10.2778
▁pulmonary	-10.2783
▁pathway	-10.2789
▁movement	-10.279
▁efficiency	-10.2798
▁ask	-10.2804
0438	-10.2804
▁undergo	-10.281
><	-10.2813
▁oxygen	-10.2813
Version	-10.2814
$$	-10.2817
▁advanced	-10.2825
▁2.0	-10.2834
Path	-10.2837
▁began	-10.2838
▁Any	-10.2838
▁East	-10.2841
▁generation	-10.2843
base	-10.2848
▁screening	-10.2853
▁transmission	-10.2856
State	-10.2866
▁stuff	-10.2876
▁environmental	-10.288
▁constant	-10.2882
▁correlated	-10.2891
▁Apple	-10.2894
▁importance	-10.2899
▁returned	-10.2903
▁disorder	-10.2906
▁Black	-10.2907
▁regulation	-10.2908
▁procedures	-10.2909
▁Get	-10.2914
▁advance	-10.292
▁gets	-10.292
▁immediately	-10.2924
▁wrote	-10.293
Array	-10.2938
▁movie	-10.294
▁intervention	-10.2948
▁2014	-10.295
▁extends	-10.2951
▁template	-10.2952
▁laser	-10.2963
▁apparatus	-10.2966
▁placed	-10.2967
▁German	-10.297
▁authors	-10.2971
param	-10.2978
With	-10.2982
▁supported	-10.2986
▁Games	-10.2987
▁ready	-10.2996
▁watch	-10.3
▁enhanced	-10.3
▁specifically	-10.3004
▁ideas	-10.3017
▁decided	-10.302
▁Summer	-10.3029
▁bottom	-10.3034
▁fit	-10.3036
▁press	-10.3037
▁examine	-10.3041
▁stable	-10.3046
▁costs	-10.3046
▁Red	-10.3055
node	-10.306
▁modern	-10.3062
▁recovery	-10.3062
▁Software	-10.3062
▁entry	-10.3066
▁supply	-10.3073
▁SQL	-10.3075
▁versus	-10.3079
▁2010	-10.309
▁hold	-10.3091
▁Washington	-10.3097
▁ANY	-10.3099
▁examination	-10.3101
▁camera	-10.3115
▁pick	-10.3118
▁modify	-10.312
gave	-10.312
Context	-10.3137
▁2-	-10.3143
endif	-10.3146
▁motion	-10.3156
▁antibody	-10.3157
ped	-10.3159
▁!=	-10.3163
MS	-10.3167
▁FROM	-10.3171
▁strategy	-10.3179
▁directed	-10.3182
▁rapid	-10.3187
▁opening	-10.3187
▁giving	-10.3189
▁nice	-10.3193
▁fix	-10.3195
▁electrical	-10.3213
select	-10.3213
▁plus	-10.3225
▁driver	-10.3225
query	-10.3228
▁buy	-10.3243
▁3-	-10.3247
nAccording	-10.3248
▁carbon	-10.325
▁sort	-10.3254
▁participants	-10.3257
▁equal	-10.3258
Model	-10.326
▁operations	-10.3264
▁plays	-10.3267
▁dynamic	-10.3273
▁construction	-10.3275
▁prepared	-10.3279
mail	-10.3282
▁peripher	-10.3294
▁nuclear	-10.3295
▁fans	-10.3296
nWith	-10.3308
▁Use	-10.331
info	-10.3319
genic	-10.3327
▁corona	-10.3331
▁implementation	-10.3336
▁native	-10.3337
▁nerve	-10.3339
▁induce	-10.3339
You	-10.3345
scale	-10.3353
▁benefit	-10.3353
User	-10.3355
▁HTML	-10.3369
▁Olympics	-10.337
▁north	-10.3371
▁green	-10.3377
dev	-10.3382
▁receiv	-10.3384
▁modified	-10.3385
▁monitoring	-10.339
▁war	-10.3392
▁commercial	-10.3393
▁empty	-10.3394
50	-10.3394
▁teams	-10.3396
nAll	-10.3397
▁vascular	-10.3405
range	-10.3412
▁Europe	-10.3414
label	-10.3416
▁successfully	-10.3417
Service	-10.3418
level	-10.3421
you	-10.3422
▁follows	-10.343
dimensional	-10.3433
▁election	-10.3438
▁Le	-10.344
▁sometimes	-10.3442
▁(1	-10.3444
▁piece	-10.3447
▁political	-10.3448
▁manner	-10.345
▁fresh	-10.3454
Set	-10.3455
▁organization	-10.3461
Exception	-10.3465
namespace	-10.3479
▁talk	-10.3485
ECT	-10.3487
▁configuration	-10.3491
▁31	-10.3491
▁hair	-10.3494
▁Java	-10.35
▁survey	-10.3502
▁str	-10.3506
▁According	-10.3513
▁wild	-10.3521
▁Service	-10.3523
▁coach	-10.3525
▁Mac	-10.3525
▁automatically	-10.3526
▁electron	-10.3527
▁England	-10.3529
▁operating	-10.3539
▁exists	-10.354
apache	-10.3544
century	-10.3546
▁criteria	-10.3549
▁parents	-10.3558
▁extension	-10.3562
▁strain	-10.3565
result	-10.3571
▁Foundation	-10.3577
▁solve	-10.3581
▁moving	-10.3586
▁peri	-10.3589
▁plans	-10.359
▁equipment	-10.3591
▁rules	-10.3593
▁encoding	-10.3595
▁analyses	-10.3598
▁std	-10.3602
▁panel	-10.3634
▁chance	-10.3635
▁beginning	-10.3637
▁smaller	-10.365
Image	-10.3656
▁strains	-10.3661
▁substrate	-10.3669
▁strategies	-10.3671
▁mid	-10.3671
def	-10.3673
//\	-10.3674
▁legal	-10.3675
back	-10.3679
▁France	-10.3691
nFrom	-10.3696
▁growing	-10.3703
▁blue	-10.3704
▁frequently	-10.371
▁opened	-10.3711
server	-10.3712
Controller	-10.3723
▁switch	-10.373
▁200	-10.3731
ability	-10.3731
coming	-10.3739
▁fall	-10.3741
▁south	-10.3747
▁stored	-10.3748
▁inhibitor	-10.3749
▁finding	-10.3756
▁Email	-10.3759
Code	-10.3761
11	-10.3765
▁slow	-10.3774
▁student	-10.3777
▁attack	-10.3785
sub	-10.3792
▁RNA	-10.3793
▁listed	-10.3799
nWhy	-10.38
▁regulator	-10.3804
▁sensitive	-10.3806
▁Most	-10.3811
▁moved	-10.382
▁shared	-10.3823
Because	-10.3832
▁steps	-10.3834
▁drop	-10.3842
▁confirm	-10.3856
▁Dr	-10.3866
▁derived	-10.3869
start	-10.3871
\"></	-10.3876
▁department	-10.3878
▁director	-10.3882
▁distinct	-10.3884
tag	-10.3885
▁financial	-10.3888
▁molecules	-10.3902
▁argument	-10.3908
▁opportunity	-10.3909
ions	-10.3921
▁neurons	-10.3922
find	-10.393
▁largest	-10.3935
▁calcium	-10.3937
▁eyes	-10.3944
per	-10.3947
▁kinase	-10.3948
▁quickly	-10.3948
▁land	-10.3951
▁changing	-10.3951
▁App	-10.3954
img	-10.3958
ory	-10.3961
▁Party	-10.3967
▁updated	-10.397
▁label	-10.3971
▁clean	-10.3984
▁Version	-10.399
▁David	-10.3994
▁protection	-10.3998
▁interesting	-10.4001
▁unknown	-10.401
nOne	-10.4012
▁beautiful	-10.4014
▁estimated	-10.4019
▁friend	-10.4028
fold	-10.4036
▁pair	-10.4037
\",\"	-10.4046
▁shot	-10.4049
','	-10.4051
▁exposed	-10.4051
▁excellent	-10.4052
▁extract	-10.4054
▁reach	-10.4057
▁proliferation	-10.4064
▁plants	-10.4069
model	-10.4072
▁onto	-10.4073
document	-10.4083
default	-10.4083
▁wait	-10.4088
▁inhibit	-10.4089
▁happy	-10.4095
▁transition	-10.4107
▁passed	-10.4108
▁pregnancy	-10.4113
▁gain	-10.4113
▁AS	-10.4121
▁exchange	-10.4126
▁majority	-10.4131
▁vector	-10.4133
▁resolution	-10.4133
0435\	-10.4134
▁portion	-10.4136
▁push	-10.414
▁suggesting	-10.4141
▁description	-10.4145
25	-10.4153
▁NO	-10.416
▁predict	-10.416
order	-10.4165
▁mother	-10.417
▁scores	-10.4182
Time	-10.4183
▁assembly	-10.4185
▁:=	-10.4187
▁tree	-10.4193
▁trials	-10.4201
▁interval	-10.4203
▁Patients	-10.4223
▁military	-10.4223
▁controller	-10.4226
▁peak	-10.4229
308	-10.4236
======\	-10.4237
▁PHP	-10.4238
▁errors	-10.4244
▁measurement	-10.4247
▁approaches	-10.4247
▁Time	-10.4251
▁port	-10.4255
▁<<	-10.4258
▁relation	-10.4262
▁brand	-10.4262
java	-10.4265
nfrom	-10.4265
▁Association	-10.4266
arg	-10.4277
▁metabolism	-10.4285
▁URL	-10.4296
▁finally	-10.4308
nThat	-10.4315
▁selective	-10.4326
▁5,	-10.4332
▁regression	-10.4344
](	-10.4345
▁calls	-10.4348
▁heavy	-10.4348
▁interested	-10.4351
mediate	-10.4372
▁FOR	-10.4379
▁"#	-10.4385
▁acids	-10.4387
▁commonly	-10.439
▁tax	-10.4391
▁CT	-10.4394
Hacker	-10.4403
▁occurs	-10.4405
▁explore	-10.4407
▁Western	-10.4412
▁inhibited	-10.4415
▁valid	-10.4419
▁nor	-10.4419
▁alcohol	-10.4423
▁Man	-10.4425
▁Test	-10.4426
▁Moreover	-10.4439
▁radiation	-10.4448
count	-10.446
▁Se	-10.4466
▁met	-10.4472
▁books	-10.4474
▁mechanical	-10.4482
NAME	-10.4483
Info	-10.4485
▁act	-10.4487
cThe	-10.4492
2022	-10.4493
▁sexual	-10.4496
▁antigen	-10.4499
▁continuous	-10.4506
Button	-10.4508
▁fish	-10.4518
▁absence	-10.4519
▁Thanks	-10.453
▁Air	-10.4537
▁III	-10.4537
▁0.05)	-10.4544
▁NOT	-10.4546
▁nano	-10.4549
▁requirements	-10.4549
▁File	-10.4551
▁serious	-10.4555
▁2006	-10.4561
▁stem	-10.4562
▁27	-10.4569
▁menu	-10.4577
public	-10.4579
col	-10.4581
▁noted	-10.4584
▁route	-10.4589
▁voltage	-10.4592
▁posted	-10.4599
web	-10.4602
▁travel	-10.4603
▁lives	-10.4603
**	-10.4618
height	-10.4619
▁Post	-10.462
▁organic	-10.4625
▁themselves	-10.4627
65	-10.4629
▁Indian	-10.4636
▁theory	-10.464
click	-10.4647
NET	-10.4648
▁Germany	-10.4649
▁James	-10.4651
▁stability	-10.4653
▁contract	-10.4659
▁runs	-10.4663
▁80	-10.4663
▁apoptosis	-10.4665
▁throw	-10.4673
▁skills	-10.4686
▁differentiation	-10.4692
▁happen	-10.4695
Map	-10.4704
▁100%	-10.4705
▁attempt	-10.4713
▁planning	-10.4715
▁agreement	-10.4716
▁reached	-10.4727
▁AM	-10.4729
▁favorite	-10.4734
▁customer	-10.4739
▁objective	-10.4758
▁Council	-10.4759
▁scene	-10.476
▁benefits	-10.4761
▁IP	-10.4762
All	-10.4769
▁sales	-10.4769
▁identification	-10.4772
▁calculated	-10.4774
▁notice	-10.4783
▁Club	-10.4783
▁debut	-10.4784
▁composition	-10.4787
▁Internet	-10.4787
▁implement	-10.4792
CD	-10.4793
▁columns	-10.4799
▁origin	-10.4804
▁appearance	-10.4809
/*	-10.4813
▁father	-10.4818
▁Microsoft	-10.4821
▁partial	-10.4825
▁"//	-10.4825
▁terminal	-10.4831
▁girl	-10.4837
▁wish	-10.4842
▁concept	-10.4845
▁dead	-10.4846
▁yourself	-10.4853
▁brief	-10.4858
▁pull	-10.4859
▁accuracy	-10.4866
})\	-10.487
▁moderate	-10.4871
▁Green	-10.4877
▁cent	-10.4877
▁Wi	-10.4879
▁Ma	-10.4887
NIH	-10.489
Event	-10.4896
App	-10.4905
down	-10.4906
are	-10.4907
▁Bar	-10.4911
example	-10.4923
▁weekend	-10.4933
▁interview	-10.4935
▁Apache	-10.4939
▁diagnosed	-10.4942
▁removal	-10.4947
▁huge	-10.495
▁agreed	-10.495
],\	-10.4952
▁Description	-10.4955
▁killed	-10.4975
local	-10.498
▁1)	-10.4985
▁maybe	-10.4986
▁leads	-10.4988
▁widely	-10.4989
nfunction	-10.4991
▁mental	-10.4993
▁sum	-10.4993
▁driving	-10.4995
▁pages	-10.4998
▁thread	-10.5
▁reasons	-10.5003
▁finish	-10.5004
▁peptide	-10.5006
Color	-10.5007
doc	-10.5012
▁stand	-10.502
▁lipid	-10.5023
▁Paul	-10.5023
▁remember	-10.5024
▁suitable	-10.5027
▁fuel	-10.5028
▁progress	-10.5028
google	-10.5029
▁signaling	-10.5032
board	-10.5034
▁footballers	-10.5035
▁displayed	-10.5035
200	-10.5038
▁soft	-10.5039
▁Up	-10.504
▁calling	-10.5051
▁Star	-10.5055
▁Super	-10.5057
▁workers	-10.5059
build	-10.506
▁Circuit	-10.5062
▁depression	-10.5065
▁enhance	-10.507
▁infections	-10.5084
read	-10.5085
▁catch	-10.5091
module	-10.5103
bit	-10.5106
▁aspects	-10.5113
▁zero	-10.5114
}$	-10.5115
▁info	-10.5116
▁mixed	-10.5121
▁insert	-10.5122
']	-10.5124
can	-10.5126
▁inhibitors	-10.513
▁induction	-10.513
▁Canadian	-10.5142
▁albums	-10.5143
▁demand	-10.5144
▁fat	-10.5145
▁hour	-10.5145
▁metabolic	-10.5161
▁reviewed	-10.5164
▁recommend	-10.5176
▁kidney	-10.5178
▁signals	-10.518
▁2001	-10.5181
que	-10.5189
▁subsequent	-10.5191
▁mutations	-10.5193
▁joint	-10.5207
▁indicat	-10.5212
num	-10.5217
ize	-10.5219
▁Just	-10.522
\"/>\	-10.5225
▁introduced	-10.5228
▁32	-10.523
▁Africa	-10.5232
▁photos	-10.5233
▁finished	-10.524
▁billion	-10.5248
▁manage	-10.5248
Field	-10.5251
▁Australian	-10.5257
▁consumption	-10.526
▁effort	-10.5262
Element	-10.5262
▁God	-10.5266
▁extent	-10.5268
▁sea	-10.5273
▁delete	-10.5277
▁protected	-10.5287
▁desired	-10.5294
layout	-10.5294
▁linked	-10.5309
Table	-10.5321
▁spread	-10.5332
▁touch	-10.5337
led	-10.5342
▁turned	-10.5349
▁postoperative	-10.535
show	-10.5352
first	-10.5352
▁register	-10.5363
}{	-10.5371
▁inflammatory	-10.5377
▁Road	-10.5379
▁replacement	-10.5382
▁correctly	-10.5382
▁variation	-10.5383
▁officials	-10.5384
▁articles	-10.5386
▁Server	-10.539
USP	-10.5398
▁launch	-10.5405
▁Home	-10.5407
▁electric	-10.541
▁resource	-10.5418
▁operator	-10.5422
volving	-10.5428
char	-10.5433
▁iron	-10.5438
From	-10.5449
▁elevated	-10.5452
▁Florida	-10.5464
▁purchase	-10.5476
▁UI	-10.5477
Request	-10.548
▁framework	-10.5487
Based	-10.5492
▁rise	-10.5499
▁limitations	-10.5499
▁rows	-10.5504
▁GNU	-10.5517
▁Michael	-10.5527
▁spent	-10.5544
▁worth	-10.5552
sqrt	-10.5553
▁python	-10.5559
▁nine	-10.5566
ide	-10.5566
##	-10.5566
▁otherwise	-10.5579
▁door	-10.558
begin	-10.5596
(1)	-10.5603
▁songs	-10.5604
▁compliance	-10.5607
▁draw	-10.561
Porter	-10.5612
▁OS	-10.5617
▁hormone	-10.5619
▁markers	-10.5624
▁competition	-10.564
▁Police	-10.5646
▁CO	-10.5647
▁hypo	-10.5648
▁experienced	-10.5648
▁sets	-10.5652
▁manager	-10.5653
▁max	-10.5653
▁stroke	-10.5654
▁signed	-10.5656
action	-10.5657
▁trade	-10.5663
▁continued	-10.5664
▁fan	-10.5668
init	-10.567
▁credit	-10.567
▁annual	-10.5671
▁del	-10.5682
Using	-10.5688
▁proper	-10.5691
▁Research	-10.5694
▁Other	-10.5694
▁none	-10.57
licenses	-10.5701
stream	-10.5707
▁seat	-10.5713
▁Her	-10.5715
▁shell	-10.5716
▁accurate	-10.5718
▁sequences	-10.572
▁injuries	-10.5725
how	-10.5729
▁vote	-10.5736
▁baseline	-10.5741
▁progression	-10.5742
▁Office	-10.5744
▁depending	-10.5745
▁edit	-10.5751
▁quick	-10.5752
▁Minister	-10.5753
nAlso	-10.5761
▁percentage	-10.5775
▁ship	-10.5777
▁slightly	-10.5783
+=	-10.5784
▁exception	-10.5791
▁audio	-10.5796
brough	-10.5798
managed	-10.5799
▁reserved	-10.5808
option	-10.5812
▁remote	-10.5822
▁cast	-10.5824
▁dogs	-10.5827
▁Results	-10.583
▁communities	-10.5831
▁sold	-10.5834
itting	-10.5837
▁USA	-10.5841
▁Hospital	-10.5849
▁protocol	-10.586
▁traffic	-10.5863
positive	-10.5867
▁adverse	-10.5868
▁CA	-10.5872
▁differential	-10.5873
util	-10.5883
▁wife	-10.5887
▁Python	-10.5894
▁laboratory	-10.5895
▁glass	-10.5896
▁500	-10.5899
▁populations	-10.5899
▁efforts	-10.5899
▁treat	-10.5903
0441	-10.5906
▁college	-10.5909
[1]	-10.591
ever	-10.5928
nLet	-10.5928
home	-10.5933
ING	-10.5933
▁Province	-10.5937
▁cognitive	-10.5942
▁90	-10.5942
▁exclusive	-10.5944
▁happens	-10.5951
▁sports	-10.596
▁29	-10.5963
▁ring	-10.5966
▁password	-10.5972
▁Play	-10.5974
▁prove	-10.5974
▁Bay	-10.5975
Add	-10.5981
▁respiratory	-10.5987
▁thinking	-10.5988
▁definition	-10.5988
nBy	-10.5991
▁letter	-10.5991
ard	-10.5995
▁stock	-10.5995
▁floor	-10.5998
▁Russia	-10.6004
(),	-10.6006
▁Lake	-10.6011
▁heard	-10.6018
▁voice	-10.602
▁begin	-10.6021
▁hypertension	-10.6023
▁Such	-10.6024
▁involvement	-10.6027
▁hear	-10.604
project	-10.6041
▁beyond	-10.6041
▁views	-10.605
▁himself	-10.6054
▁(1)	-10.6056
▁episode	-10.6056
▁Code	-10.6058
▁equivalent	-10.6058
les	-10.6068
▁35	-10.6071
▁messages	-10.6073
304	-10.6075
▁clients	-10.6076
▁behaviour	-10.6077
root	-10.6077
▁goals	-10.6082
point	-10.6084
▁Institute	-10.6089
▁league	-10.6092
▁church	-10.6093
▁Project	-10.6105
▁secretion	-10.6111
▁Mar	-10.612
▁properly	-10.6122
event	-10.6123
▁mutation	-10.6127
▁battery	-10.6139
run	-10.614
▁sufficient	-10.6142
▁Bo	-10.6148
▁schools	-10.615
▁container	-10.6151
▁establish	-10.6153
▁Island	-10.6154
▁caus	-10.6154
▁clearly	-10.6155
▁easier	-10.6155
▁contained	-10.616
nNote	-10.616
LICENSE	-10.616
▁font	-10.6162
▁trauma	-10.6165
ectomy	-10.6167
▁applicable	-10.6168
▁dog	-10.6171
▁recommended	-10.6173
▁confidence	-10.6174
treated	-10.6182
Size	-10.6184
▁signs	-10.6189
▁mentioned	-10.619
▁economic	-10.619
month	-10.619
(-1)	-10.6191
▁integrated	-10.6193
▁parallel	-10.6195
referred	-10.6198
▁ventricular	-10.6207
0440	-10.6209
▁capable	-10.6209
▁hands	-10.6215
▁implied	-10.6216
▁hearing	-10.6225
▁matches	-10.6226
▁Show	-10.623
▁Union	-10.6234
▁incident	-10.6235
▁minimum	-10.6244
▁cool	-10.6245
▁dark	-10.6246
men	-10.6247
▁smooth	-10.6248
▁science	-10.6248
▁helps	-10.6254
cerebra	-10.6264
▁King	-10.6268
▁internet	-10.6268
▁decline	-10.627
[\"	-10.6274
305	-10.6276
▁chemotherapy	-10.6282
2026\	-10.6282
▁administered	-10.6284
▁Three	-10.6284
▁doses	-10.6286
▁extended	-10.6287
▁guess	-10.629
▁der	-10.6292
▁joine	-10.6295
▁attached	-10.6295
▁meaning	-10.6298
▁rock	-10.6302
number	-10.6305
▁setup	-10.6305
▁Don	-10.6308
▁pathways	-10.631
▁remaining	-10.631
▁<-	-10.6312
cal	-10.6313
const	-10.6316
site	-10.6319
▁candidate	-10.632
▁(2	-10.6326
▁Scott	-10.6349
ver	-10.6359
▁split	-10.6373
▁amazing	-10.6373
▁Di	-10.6376
▁master	-10.6377
▁float	-10.6381
search	-10.6381
▁federal	-10.6384
infty	-10.6385
case	-10.6388
▁tab	-10.639
▁emergency	-10.639
cWe	-10.6393
▁branch	-10.6396
▁transplantation	-10.6399
(){	-10.64
▁uptake	-10.6403
▁6,	-10.6411
▁arm	-10.6416
property	-10.6423
▁stations	-10.6431
▁reactions	-10.6434
▁inner	-10.6436
▁prevention	-10.6439
▁bacteria	-10.6441
▁transcription	-10.6442
▁sale	-10.6448
▁shares	-10.645
▁Further	-10.645
▁stories	-10.6458
▁relationships	-10.6461
▁feed	-10.6463
▁DC	-10.6466
▁forces	-10.6466
▁compound	-10.6469
▁margin	-10.6475
▁Only	-10.6476
▁typical	-10.6482
▁Li	-10.6482
▁thanks	-10.6482
author	-10.6483
▁possibility	-10.6484
▁mediate	-10.6492
01	-10.6502
▁pop	-10.6509
more	-10.6511
▁48	-10.6512
▁train	-10.6516
▁century	-10.652
▁...\	-10.652
▁transform	-10.652
▁capital	-10.6521
▁appeal	-10.6521
▁stages	-10.6528
long	-10.6531
▁intake	-10.6532
▁videos	-10.6534
▁actions	-10.6539
▁ball	-10.6539
▁MS	-10.6539
false	-10.6551
▁tri	-10.6552
gen	-10.6559
port	-10.6561
18	-10.657
block	-10.6571
▁regional	-10.6573
▁lymph	-10.6577
▁algorithm	-10.6578
▁determination	-10.6582
▁Sub	-10.6589
▁kids	-10.6594
▁1-	-10.66
▁Russian	-10.6608
▁fill	-10.6615
▁dysfunction	-10.6617
water	-10.662
▁twice	-10.6629
▁systemic	-10.6639
Message	-10.6649
▁Church	-10.665
nfunc	-10.6657
▁grade	-10.6657
▁Life	-10.6662
▁raised	-10.6663
▁45	-10.6663
▁0.001)	-10.6663
▁res	-10.6667
▁TO	-10.6668
message	-10.6668
▁compete	-10.6669
ling	-10.6672
▁myself	-10.6679
▁recognition	-10.6679
▁header	-10.668
▁residents	-10.6684
▁Mark	-10.6691
▁reducing	-10.6693
▁leader	-10.6698
itis	-10.6704
aimed	-10.6709
▁edge	-10.6711
▁African	-10.6711
▁represents	-10.6714
Group	-10.6715
▁Best	-10.6715
▁infants	-10.6716
"1.	-10.6716
methyl	-10.6719
Base	-10.6722
Content	-10.6725
▁accept	-10.6728
han	-10.6729
Count	-10.6733
▁mostly	-10.6735
▁appreciated	-10.6741
-1)	-10.6746
▁noise	-10.6751
Property	-10.6753
▁2005	-10.6755
▁2000	-10.6758
▁Football	-10.6764
▁cluster	-10.6765
▁resonance	-10.6769
▁consecutive	-10.677
ham	-10.6771
▁stream	-10.6774
nUse	-10.6778
▁owner	-10.6788
▁roll	-10.6789
ogenous	-10.6793
fered	-10.6797
▁Media	-10.6799
▁firm	-10.6803
▁execute	-10.6804
▁balance	-10.681
▁maintenance	-10.6811
▁Let	-10.6818
▁valve	-10.6819
▁happened	-10.6819
▁possibly	-10.682
load	-10.6827
▁semi	-10.683
▁70	-10.6832
ill	-10.6833
▁fraction	-10.6837
ella	-10.6839
client	-10.6845
aged	-10.685
▁powerful	-10.6851
▁intended	-10.6852
▁2009	-10.6853
83	-10.6855
nYour	-10.6862
▁Over	-10.6864
Node	-10.6865
ger	-10.6873
▁advantage	-10.6875
▁reliable	-10.6877
▁bacterial	-10.6879
▁Ben	-10.6881
▁spring	-10.6883
▁sodium	-10.6885
▁George	-10.689
▁Hall	-10.6892
▁0.5	-10.6894
▁detailed	-10.69
▁minimal	-10.6901
▁WITHOUT	-10.6902
▁plate	-10.6904
▁minor	-10.6908
nDo	-10.691
▁van	-10.6918
▁recording	-10.692
Manager	-10.692
▁counter	-10.6922
binding	-10.6923
License	-10.6923
▁conference	-10.6926
▁pictures	-10.6933
▁microscopy	-10.6934
Action	-10.6941
****************	-10.6943
target	-10.6945
▁networks	-10.6958
▁gastric	-10.6963
▁median	-10.6967
▁category	-10.6968
▁artist	-10.6971
signed	-10.6972
▁coli	-10.6986
▁numerous	-10.6988
▁presentation	-10.6989
▁employed	-10.6995
▁division	-10.6997
▁Among	-10.7
▁gender	-10.7004
▁dry	-10.7005
▁cat	-10.701
▁assume	-10.7032
tracellular	-10.7032
▁divided	-10.7033
▁cold	-10.7039
▁shift	-10.7043
▁Team	-10.7051
▁toxicity	-10.7051
▁(3	-10.7052
▁permissions	-10.7055
▁Women	-10.7058
house	-10.7059
that	-10.7062
▁differ	-10.7067
nderlying	-10.7067
▁hypothesis	-10.7067
lang	-10.7067
OS	-10.7071
▁Pre	-10.708
▁intensity	-10.7091
▁viral	-10.7094
▁reveal	-10.7095
▁vehicles	-10.7098
con	-10.7099
▁foreign	-10.7102
▁opinion	-10.7106
▁col	-10.7108
▁2004	-10.7112
nSince	-10.7123
▁locations	-10.7129
▁visible	-10.7129
▁particles	-10.7131
▁anterior	-10.7136
▁activated	-10.7138
▁Italian	-10.7142
▁charged	-10.7145
Check	-10.715
well	-10.7154
▁preparation	-10.7155
active	-10.7159
▁alert	-10.7161
star	-10.7163
unable	-10.7165
Line	-10.7165
email	-10.7166
ref	-10.7167
▁routine	-10.7172
ealand	-10.7177
Index	-10.718
▁Ba	-10.7183
▁examples	-10.7192
▁faster	-10.7192
▁myocardi	-10.7192
▁gun	-10.7193
Page	-10.7193
▁partner	-10.7195
▁discovered	-10.7197
Medical	-10.72
What	-10.7209
▁monitor	-10.7217
▁males	-10.7218
▁complexes	-10.7218
▁girls	-10.7221
▁technical	-10.7229
▁windows	-10.7231
▁describes	-10.7231
▁optimal	-10.7232
▁reverse	-10.7235
▁Big	-10.7236
▁bind	-10.7241
▁specificity	-10.7242
format	-10.7243
▁severity	-10.7244
▁contents	-10.7249
request	-10.7249
▁roles	-10.7249
▁challenges	-10.725
▁exhibited	-10.725
associated	-10.7255
▁medicine	-10.7258
▁Read	-10.7261
▁Bill	-10.7262
▁whom	-10.7262
▁lens	-10.7263
▁comprise	-10.7265
▁AT	-10.7266
▁situ	-10.7267
▁Act	-10.7281
▁capture	-10.7282
▁advice	-10.7289
▁channels	-10.7293
▁practical	-10.7294
▁represented	-10.7297
▁focused	-10.7299
▁raise	-10.7301
▁feet	-10.731
}}	-10.7311
▁struct	-10.7312
what	-10.7323
DIR	-10.7324
▁arterial	-10.7326
▁sell	-10.7332
▁females	-10.7333
URL	-10.7334
▁buffer	-10.7335
▁por	-10.7336
▁Championship	-10.7337
▁Division	-10.7337
▁Company	-10.735
▁ON	-10.7351
▁depends	-10.7352
▁exact	-10.7355
▁randomized	-10.7357
▁oxide	-10.7358
▁ha	-10.7367
▁graft	-10.7369
▁Game	-10.737
description	-10.7377
▁Services	-10.738
▁mis	-10.7381
▁wave	-10.7385
▁abuse	-10.7387
ble	-10.7387
▁recurrence	-10.7389
▁angle	-10.7389
▁ahead	-10.739
▁endothelia	-10.739
▁humans	-10.7392
▁loading	-10.7394
▁spot	-10.7394
▁dedicat	-10.7395
▁NULL	-10.7397
▁detail	-10.74
▁square	-10.7404
▁inflammation	-10.741
▁arrested	-10.7411
book	-10.7412
▁quantitative	-10.7412
▁Studio	-10.7413
▁genus	-10.7415
▁copyright	-10.7417
control	-10.7421
▁sentence	-10.7425
▁guys	-10.7428
frame	-10.7429
▁fourth	-10.743
▁Bi	-10.7431
space	-10.7431
▁deliver	-10.7433
weight	-10.7438
▁Congress	-10.744
▁Long	-10.7444
▁bill	-10.7459
▁spinal	-10.7466
▁sensor	-10.7476
▁iPhone	-10.7479
▁El	-10.7485
nSELECT	-10.749
▁conclusion	-10.7491
nconst	-10.751
▁diameter	-10.7512
▁whatever	-10.7513
▁dependent	-10.7514
▁versions	-10.7514
▁delay	-10.7515
▁asking	-10.7516
language	-10.7517
▁frequent	-10.7521
▁studio	-10.7522
ised	-10.7525
▁Los	-10.7526
▁conversion	-10.753
▁specify	-10.7533
▁Information	-10.7537
▁Register	-10.7538
▁User	-10.7539
▁Mo	-10.754
▁conclude	-10.7542
Component	-10.7543
United	-10.7543
nThank	-10.7547
▁experiment	-10.7548
Client	-10.7549
parent	-10.7554
▁paid	-10.7558
▁recognized	-10.7561
▁covered	-10.7561
▁posts	-10.7565
▁operate	-10.757
▁straight	-10.757
nexport	-10.7571
▁Set	-10.7573
▁neck	-10.7575
▁daughter	-10.758
▁employees	-10.7588
▁foot	-10.7597
▁Check	-10.7598
▁(5	-10.7602
[0]	-10.7604
write	-10.7611
light	-10.7616
▁4-	-10.7616
▁render	-10.7626
▁looked	-10.7636
▁chromatography	-10.764
▁feedback	-10.7641
▁org	-10.7654
▁mild	-10.7663
Year	-10.7671
▁Class	-10.7675
▁Virginia	-10.7677
▁Smith	-10.7679
▁formula	-10.768
nAbout	-10.7684
filter	-10.7689
▁attend	-10.7703
▁Obama	-10.7704
▁documents	-10.7704
▁seconds	-10.7706
================	-10.7706
▁Date	-10.7714
▁Robert	-10.7714
▁Carolina	-10.7714
▁latter	-10.7715
lin	-10.7724
▁marker	-10.7727
▁updates	-10.7739
pre	-10.7739
▁plugin	-10.7741
▁Music	-10.7754
▁cohort	-10.776
▁suspect	-10.7763
▁soil	-10.7769
▁fashion	-10.777
(3)	-10.7775
▁walk	-10.778
▁observation	-10.7781
▁Application	-10.7783
▁launched	-10.7785
▁50%	-10.7786
15	-10.7786
▁predicted	-10.7789
▁prospective	-10.779
▁park	-10.7791
({\	-10.7794
▁extensive	-10.7796
▁milk	-10.7809
▁syntax	-10.7812
These	-10.7812
mean	-10.7813
▁fiber	-10.783
▁enzymes	-10.783
▁"<?	-10.783
▁battle	-10.7831
▁continues	-10.784
▁wear	-10.7841
▁cord	-10.7843
▁7,	-10.7844
▁Love	-10.7845
▁malignant	-10.7845
▁iOS	-10.7855
▁starts	-10.7858
Result	-10.7858
▁Make	-10.7868
▁salt	-10.7869
40	-10.7872
▁flat	-10.7877
▁broad	-10.7878
ER	-10.7886
▁alter	-10.7887
▁Type	-10.7891
nTry	-10.7891
▁Great	-10.7908
▁lesion	-10.7909
System	-10.791
▁nodes	-10.7912
▁grow	-10.7917
last	-10.7918
static	-10.7926
015	-10.793
null	-10.7933
ville	-10.794
ortic	-10.7945
▁prices	-10.7948
▁continu	-10.7951
▁err	-10.7958
▁Out	-10.7959
▁migration	-10.7962
▁discussion	-10.7962
▁facilitate	-10.7965
▁tables	-10.797
▁effectively	-10.7974
▁assigned	-10.7976
▁fatt	-10.7979
▁unless	-10.7982
▁explained	-10.799
▁Society	-10.7992
0432	-10.8003
▁bound	-10.8003
status	-10.8004
▁cards	-10.8011
14	-10.8013
align	-10.8019
match	-10.802
▁speech	-10.8021
Number	-10.8021
▁Amazon	-10.8031
▁0;	-10.8037
▁JSON	-10.804
▁supports	-10.8042
▁hepati	-10.8043
response	-10.8047
▁leaves	-10.8051
▁Sun	-10.8052
▁officer	-10.8053
();	-10.8057
▁tract	-10.8057
▁thin	-10.8061
▁implemented	-10.8063
Point	-10.8063
▁classic	-10.8065
▁crystal	-10.8066
▁Mexico	-10.8068
One	-10.8075
▁originally	-10.809
ordered	-10.8101
▁BY	-10.8101
▁spatial	-10.8106
▁housing	-10.8108
▁tasks	-10.8113
▁Grand	-10.8113
▁AD	-10.8114
NO	-10.8115
▁significance	-10.8119
NS	-10.8121
▁editor	-10.813
▁jQuery	-10.813
▁spin	-10.8134
▁evolution	-10.8136
▁rapidly	-10.8137
early	-10.8139
▁Times	-10.814
current	-10.8144
▁semiconductor	-10.8148
▁pure	-10.8154
▁wind	-10.8165
▁urinary	-10.8167
TYPE	-10.8169
▁lateral	-10.8169
▁registered	-10.8171
▁elderly	-10.8179
▁superior	-10.8186
▁newly	-10.8198
▁validate	-10.8202
▁charges	-10.8216
▁chief	-10.8219
▁html	-10.822
▁Even	-10.8228
▁PA	-10.823
▁Will	-10.8232
▁PD	-10.8232
▁ones	-10.8233
▁ideal	-10.824
▁IV	-10.8242
▁implant	-10.8242
der	-10.8243
check	-10.8245
▁sheet	-10.8249
▁tube	-10.825
▁Board	-10.8256
▁cholesterol	-10.8257
17	-10.8259
▁dynamics	-10.8266
▁Christmas	-10.8267
has	-10.8268
▁epithelial	-10.8274
▁resection	-10.8274
▁accumulation	-10.8274
▁talking	-10.8276
▁bank	-10.8279
▁Ge	-10.8284
▁*)	-10.8285
▁Jan	-10.8304
▁specified	-10.8308
▁baby	-10.8309
▁pool	-10.8312
▁2)	-10.8314
▁functionality	-10.8316
library	-10.832
▁physiological	-10.8322
▁Follow	-10.8327
▁concerns	-10.8334
▁exhibit	-10.8337
\\\\	-10.8339
▁purposes	-10.8344
▁trip	-10.8346
<?	-10.8348
life	-10.835
service	-10.8355
▁persons	-10.8368
▁usage	-10.8371
▁absolute	-10.8385
▁senior	-10.8388
▁identity	-10.8388
▁1.0	-10.8396
13	-10.8396
▁WARRANTIES	-10.8399
▁Ro	-10.84
▁hybrid	-10.8407
▁offering	-10.8408
▁sustain	-10.841
▁Power	-10.8416
▁1.5	-10.8417
▁entered	-10.8419
nShe	-10.8427
▁replaced	-10.843
obj	-10.8439
▁claims	-10.8439
▁degradation	-10.8442
▁Championships	-10.8448
▁smoking	-10.8454
▁quarter	-10.8459
▁psycho	-10.846
▁Iran	-10.8461
▁Ha	-10.8466
▁classification	-10.8468
sql	-10.8474
▁fluorescence	-10.8478
];	-10.8483
▁infected	-10.8485
▁occurrence	-10.8485
▁36	-10.8486
▁Press	-10.8486
▁override	-10.8487
▁propose	-10.8488
>>>	-10.849
▁leaving	-10.8491
▁organ	-10.8493
▁fo	-10.8504
ium	-10.8505
▁improv	-10.8506
media	-10.8506
▁Good	-10.8508
▁2007	-10.8513
▁requests	-10.8516
▁delivered	-10.8517
▁coverage	-10.8522
▁closely	-10.8524
▁gel	-10.8529
▁embryo	-10.8533
▁reviews	-10.8543
system	-10.8547
▁FC	-10.8548
▁Republic	-10.8548
▁Under	-10.855
output	-10.8551
▁treatments	-10.8554
▁helped	-10.856
Bar	-10.8584
▁End	-10.8591
▁expansion	-10.8595
▁aware	-10.8601
▁foo	-10.8605
▁zone	-10.8606
▁manually	-10.8611
▁thermal	-10.8618
▁wants	-10.8621
▁gone	-10.8623
trial	-10.863
▁implications	-10.8631
▁characteristic	-10.8632
▁chart	-10.8637
0103	-10.8638
▁Historic	-10.8654
▁Committee	-10.8662
▁guidelines	-10.8662
▁secure	-10.8669
▁apps	-10.8673
▁Sea	-10.8677
▁tour	-10.868
▁Chicago	-10.8681
▁excited	-10.8684
▁cultures	-10.8693
▁sport	-10.8694
▁technologies	-10.8705
▁plastic	-10.8712
▁spectrum	-10.8714
▁diabetic	-10.8727
▁issued	-10.873
▁fetal	-10.873
▁Award	-10.873
▁Assembly	-10.8737
append	-10.8737
▁weather	-10.8737
▁agree	-10.8741
▁namespace	-10.8743
▁Appeals	-10.8744
▁wondering	-10.8745
▁${	-10.875
▁spend	-10.8753
▁(2)	-10.8758
docs	-10.8759
▁Add	-10.876
\":\"	-10.8763
▁Why	-10.8764
▁WHERE	-10.8766
▁perhaps	-10.8768
▁absorption	-10.877
▁dental	-10.877
print	-10.8771
▁Ver	-10.8773
▁conduct	-10.8775
▁pieces	-10.8776
▁equation	-10.878
▁Donald	-10.8785
nvoid	-10.8785
position	-10.8787
▁definitely	-10.8789
▁programming	-10.8793
▁plane	-10.8794
ties	-10.8795
replace	-10.8796
ology	-10.88
blog	-10.8804
▁hydrogen	-10.8811
▁Korea	-10.8811
▁2020	-10.8814
▁targets	-10.8817
▁};\	-10.8818
▁married	-10.8822
now	-10.8822
▁standards	-10.8823
▁progressive	-10.8824
▁loaded	-10.8825
▁deploy	-10.8831
▁Hill	-10.8835
Source	-10.8841
next	-10.8843
▁schedule	-10.8845
▁login	-10.8847
▁theme	-10.8851
Format	-10.8852
▁trouble	-10.8853
characterization	-10.8859
▁edition	-10.886
▁inhibitory	-10.886
▁expensive	-10.8863
▁welcome	-10.8865
▁waiting	-10.8867
wood	-10.8867
▁config	-10.8867
▁Finally	-10.8868
▁Pa	-10.8868
cellular	-10.887
domain	-10.8874
▁Angeles	-10.8876
▁apparent	-10.8882
▁practices	-10.8884
▁prostate	-10.8893
▁Ne	-10.8894
▁scope	-10.8899
▁positions	-10.8901
▁dual	-10.8902
▁Name	-10.8903
two	-10.8903
▁Development	-10.8906
▁abnormal	-10.8912
▁thyroid	-10.8917
▁initially	-10.8919
▁buildings	-10.892
-1,	-10.8921
nList	-10.8923
▁opportunities	-10.8925
venous	-10.8926
60	-10.8927
ological	-10.893
▁supposed	-10.8931
ell	-10.8936
▁assist	-10.8936
▁collagen	-10.8937
product	-10.8937
▁Second	-10.8938
017	-10.8939
▁boy	-10.894
▁300	-10.8943
hat	-10.8944
▁surrounding	-10.8947
▁seeing	-10.8949
▁agency	-10.8954
▁outer	-10.8954
300	-10.8958
amino	-10.8963
▁installation	-10.8963
▁executive	-10.8963
▁award	-10.8966
▁scan	-10.8972
▁nutrition	-10.8979
▁neural	-10.898
▁Like	-10.8982
▁CSS	-10.8991
▁promising	-10.8992
▁($	-10.8993
▁strings	-10.8996
▁effectiveness	-10.8996
DB	-10.8998
town	-10.9003
▁sounds	-10.9005
only	-10.901
▁specimens	-10.9014
▁guy	-10.9016
▁Bank	-10.9029
▁hydro	-10.9029
'),	-10.9031
▁answers	-10.9042
clonal	-10.9042
▁8,	-10.9043
),\	-10.9044
▁curve	-10.9045
▁Director	-10.9046
▁cortex	-10.9048
▁ultimate	-10.9048
▁silver	-10.9052
▁street	-10.9052
▁governing	-10.9052
▁JavaScript	-10.9053
▁Object	-10.9057
▁scheduled	-10.9057
▁kept	-10.9066
▁colors	-10.9068
▁Are	-10.9072
jpg	-10.9072
▁amounts	-10.9075
▁arguments	-10.9078
▁maintained	-10.9082
metric	-10.9084
Form	-10.9085
▁nursing	-10.9093
▁proportion	-10.91
▁aircraft	-10.9101
▁jobs	-10.9103
gamma	-10.9106
▁stores	-10.9112
▁thousands	-10.9116
▁Brown	-10.9121
And	-10.9121
▁architecture	-10.9124
▁xmlns	-10.913
▁helpful	-10.913
▁officers	-10.9131
any	-10.9133
nprint	-10.9137
▁manufacturing	-10.9138
▁miles	-10.9148
▁Linux	-10.9155
▁experiences	-10.9157
▁SD	-10.916
nDoes	-10.9161
▁oxidati	-10.9168
▁2002	-10.9169
scope	-10.9169
▁measur	-10.9172
HR	-10.9173
▁2003	-10.9173
▁/*	-10.9174
isation	-10.9178
▁ended	-10.9181
▁centre	-10.9185
▁probe	-10.9189
▁keys	-10.9189
▁Italy	-10.919
▁artists	-10.9194
▁speak	-10.9194
▁jump	-10.9195
▁decide	-10.9196
▁respond	-10.9198
each	-10.9204
Config	-10.9206
▁gift	-10.9213
▁estimate	-10.922
▁depth	-10.9227
icon	-10.9229
▁bigge	-10.9234
▁Network	-10.9236
0101	-10.9237
▁expand	-10.9237
where	-10.9238
▁Roman	-10.9238
nFirst	-10.9243
▁cars	-10.9243
call	-10.9245
host	-10.9247
▁bug	-10.9249
=\\	-10.9252
▁eventually	-10.9258
▁biopsy	-10.9258
derived	-10.926
npackage	-10.926
▁icon	-10.9262
Application	-10.9264
▁shop	-10.9265
GB	-10.9271
Override	-10.9276
▁writer	-10.9282
▁claim	-10.9284
formed	-10.9284
▁val	-10.929
▁minute	-10.9292
▁east	-10.9292
master	-10.9294
▁wireless	-10.9298
▁extraction	-10.9302
template	-10.9302
▁mission	-10.9304
());	-10.9307
▁famous	-10.9314
▁repeated	-10.9321
▁felt	-10.9329
auto	-10.9334
times	-10.9336
Read	-10.9339
▁normally	-10.9339
▁west	-10.9344
▁serving	-10.9349
▁Science	-10.935
ship	-10.9354
▁seek	-10.9355
▁axis	-10.9358
▁comprehensive	-10.9362
▁surfaces	-10.9362
▁Program	-10.9367
▁exit	-10.9375
nJust	-10.938
update	-10.938
nSome	-10.9392
Although	-10.9398
▁yes	-10.9402
PCR	-10.9403
▁coast	-10.9406
▁mutant	-10.9407
▁knee	-10.9408
▁Royal	-10.9411
▁Patent	-10.9414
band	-10.9415
Control	-10.9425
90	-10.9426
▁secret	-10.9428
ical	-10.9428
▁Year	-10.9428
▁involves	-10.9429
▁identical	-10.943
▁tomography	-10.9432
▁integer	-10.9434
▁substantial	-10.9434
▁basketball	-10.944
▁flash	-10.944
-10	-10.9441
▁shooting	-10.9444
KIND	-10.9446
▁parties	-10.9447
boost	-10.9451
car	-10.9452
▁passing	-10.9454
ster	-10.9456
▁Mi	-10.9459
▁Fire	-10.9461
▁Business	-10.9466
▁Men	-10.9467
▁leg	-10.9468
▁participate	-10.9475
▁tags	-10.9488
mol	-10.9489
▁potent	-10.9489
▁37	-10.949
▁leaders	-10.9491
▁layers	-10.9493
▁binary	-10.9497
▁flag	-10.9508
▁mitochondrial	-10.9516
▁listing	-10.9517
▁profiles	-10.952
▁upgrade	-10.9523
▁disk	-10.9524
▁producing	-10.9526
Net	-10.9528
▁hardware	-10.9528
▁6-	-10.9529
▁Ka	-10.9533
ure	-10.9536
▁translation	-10.9539
▁placebo	-10.9545
▁notes	-10.9545
phase	-10.9546
▁34	-10.955
▁thickness	-10.9551
▁Blue	-10.9554
▁complicated	-10.9555
▁radical	-10.9556
Url	-10.9556
▁adjust	-10.9557
▁trend	-10.9559
▁facilities	-10.956
▁sections	-10.9561
Server	-10.9563
▁cervical	-10.9567
▁abnormalities	-10.957
▁blocks	-10.9574
▁tournament	-10.9576
▁derivatives	-10.9577
her	-10.9579
art	-10.9588
▁segment	-10.9592
▁waste	-10.9593
▁youth	-10.9598
▁arrest	-10.9598
▁discharge	-10.96
▁acquired	-10.9602
forming	-10.9602
izing	-10.9604
▁hip	-10.9608
▁copies	-10.961
after	-10.9612
▁integration	-10.9618
▁interact	-10.9623
▁William	-10.9624
▁Am	-10.9626
UI	-10.9633
▁cities	-10.9636
▁filled	-10.9636
▁admitted	-10.9642
▁Rock	-10.965
upcoming	-10.9656
location	-10.9657
▁scroll	-10.9659
▁nervous	-10.9667
▁combine	-10.9685
▁afford	-10.9686
▁Records	-10.9689
▁spectroscopy	-10.9691
▁seasons	-10.9692
▁vision	-10.9693
tion	-10.9694
▁holding	-10.9699
▁proposal	-10.9699
▁altered	-10.9701
▁temporal	-10.9702
nDescription	-10.9706
▁union	-10.9707
▁isolates	-10.9707
▁1000	-10.9711
▁constructed	-10.9712
▁hidden	-10.9714
summary	-10.9716
context	-10.9717
▁filed	-10.9719
▁Management	-10.972
▁prognosis	-10.9721
▁toxic	-10.9723
▁Library	-10.9724
▁scientific	-10.9727
▁composed	-10.9729
▁forum	-10.9733
English	-10.9737
▁Related	-10.974
nRe	-10.9743
▁mix	-10.9745
negative	-10.9748
▁apparently	-10.9749
Row	-10.9751
▁limits	-10.9758
(0,	-10.9761
terminal	-10.9761
▁rich	-10.9769
▁affinity	-10.977
make	-10.9771
▁alleged	-10.9771
▁Kingdom	-10.9772
hose	-10.9775
▁vitamin	-10.9778
▁operated	-10.9783
▁intestinal	-10.9784
▁extend	-10.979
args	-10.979
▁engage	-10.9791
$.\	-10.9797
▁Book	-10.9801
Bundle	-10.9801
▁10,	-10.9806
▁Tom	-10.9808
▁Visual	-10.981
▁maternal	-10.9811
week	-10.9812
▁molecule	-10.9814
▁hundred	-10.9821
▁layout	-10.9821
▁json	-10.9821
<!--	-10.9822
▁chair	-10.9825
▁wonder	-10.9827
work	-10.9829
nOr	-10.9833
▁mucosa	-10.9836
▁bond	-10.9842
▁trust	-10.9842
▁Community	-10.9846
▁Well	-10.9849
▁mark	-10.985
▁View	-10.985
80	-10.9854
▁Senate	-10.9854
▁Car	-10.9862
Not	-10.9862
▁reality	-10.9862
▁intermediate	-10.9866
▁weak	-10.987
▁Martin	-10.9877
▁42	-10.988
▁vertical	-10.9883
▁javascript	-10.989
▁mixture	-10.9899
▁33	-10.9899
Filter	-10.99
▁desirable	-10.9901
▁winning	-10.9907
▁assign	-10.9911
▁Design	-10.9912
center	-10.9917
▁separation	-10.9918
▁Academy	-10.9922
▁wire	-10.9923
▁massive	-10.9925
▁Republican	-10.9927
font	-10.9927
▁teaching	-10.9928
▁Four	-10.9931
▁businesses	-10.9932
▁anxiety	-10.9935
▁pancreati	-10.9935
▁attacks	-10.9937
osis	-10.9943
Default	-10.9943
▁posterior	-10.9943
▁macro	-10.9943
▁fail	-10.9948
▁bus	-10.9948
▁logic	-10.9949
▁deficiency	-10.9949
▁defects	-10.9952
▁husband	-10.9955
ists	-10.9957
your	-10.9957
background	-10.9957
claimed	-10.9957
▁Spanish	-10.9958
010	-10.9959
▁interventions	-10.9961
▁organizations	-10.9967
▁accepted	-10.9967
▁facility	-10.9969
▁marketing	-10.997
header	-10.997
▁0.01)	-10.9973
attr	-10.9978
Query	-10.998
Association	-10.998
▁Valley	-10.998
▁$2	-10.9981
wide	-10.9982
▁MR	-10.9985
nvention	-10.9989
▁sharing	-10.9991
▁episodes	-10.9991
------\	-10.9993
▁forced	-10.9993
▁concern	-10.9994
▁"/*\	-10.9997
▁transformation	-11.0001
▁bag	-11.0004
▁worldwide	-11.0007
▁Thank	-11.0009
▁enabled	-11.0009
performing	-11.0014
▁trigger	-11.0017
hydroxy	-11.0019
mer	-11.0025
▁$1	-11.0029
ible	-11.003
▁permission	-11.0034
stage	-11.004
▁retrospective	-11.004
▁hepatitis	-11.0041
▁decades	-11.0044
▁ultrasound	-11.0054
▁pathogenesis	-11.0057
bound	-11.0059
▁Spring	-11.0059
▁checked	-11.006
▁concluded	-11.0061
▁assays	-11.0063
▁determin	-11.0067
▁flight	-11.007
▁Thomas	-11.0074
necho	-11.0078
▁calculate	-11.008
▁biochemical	-11.0082
▁Top	-11.0084
▁Lo	-11.0085
▁debate	-11.0086
ified	-11.0088
▁bool	-11.009
▁founded	-11.0096
category	-11.0098
▁Ireland	-11.0098
▁nation	-11.0103
▁basal	-11.0104
▁Take	-11.0104
▁mysql	-11.0105
▁git	-11.0105
▁modification	-11.0106
>>	-11.0109
There	-11.011
inflammatory	-11.0112
▁shock	-11.0113
println	-11.0114
▁believed	-11.0118
ford	-11.013
▁stars	-11.0133
Method	-11.0133
0131	-11.0136
TV	-11.0137
▁1990	-11.0138
▁warning	-11.0138
▁Ho	-11.014
nHistory	-11.0143
▁increasingly	-11.0144
▁Justice	-11.0145
▁Main	-11.0146
▁hotel	-11.0147
ker	-11.0149
▁handling	-11.015
▁disc	-11.0152
▁PS	-11.0155
▁industrial	-11.0156
▁150	-11.0156
▁PCR	-11.0157
▁Paris	-11.0158
▁actor	-11.016
▁perception	-11.0165
▁constructor	-11.0165
▁transplant	-11.0167
▁proof	-11.0168
▁Earth	-11.0169
▁politician	-11.017
Style	-11.0171
▁chromosome	-11.0174
▁reporting	-11.0176
When	-11.0178
▁400	-11.0179
▁plot	-11.0181
▁infusion	-11.0182
++)	-11.0184
Options	-11.0186
▁Chris	-11.0186
▁Line	-11.0195
▁celebrate	-11.0196
▁categories	-11.0197
▁entity	-11.0202
▁cache	-11.0202
▁hop	-11.0207
▁manual	-11.0207
▁Image	-11.0211
▁younger	-11.0213
▁prefer	-11.0218
soluble	-11.0221
▁urine	-11.0225
▁comparable	-11.0226
▁residues	-11.0227
▁lose	-11.0227
▁upload	-11.0227
▁delayed	-11.0233
▁familiar	-11.0234
element	-11.0237
▁contribution	-11.0238
▁helping	-11.0238
Instance	-11.0238
0142	-11.0242
▁fair	-11.0243
license	-11.0243
▁diverse	-11.0246
▁largely	-11.0249
▁prolong	-11.0254
▁understood	-11.0256
▁usual	-11.0261
ranging	-11.0269
▁childhood	-11.0272
▁synthetic	-11.0277
mode	-11.0279
▁pump	-11.0285
▁(95%	-11.0287
▁designs	-11.0287
▁pin	-11.0287
▁genome	-11.0287
▁illness	-11.029
▁grid	-11.029
▁immediate	-11.0291
▁Law	-11.0294
everal	-11.0295
▁Ko	-11.0297
▁stack	-11.0297
▁250	-11.0297
lambda	-11.03
Box	-11.0301
HOU	-11.0305
▁partially	-11.0306
▁Mike	-11.031
▁programme	-11.0311
▁peptides	-11.0312
▁utility	-11.0312
▁climate	-11.0314
▁Series	-11.0314
▁tip	-11.0321
▁MRI	-11.0323
RT	-11.0325
▁stated	-11.0331
▁tolerance	-11.034
▁targeted	-11.0341
ette	-11.0344
▁vaccine	-11.0344
▁AP	-11.0347
▁brother	-11.0349
▁(4	-11.0357
▁protective	-11.0358
▁emotional	-11.036
split	-11.0361
▁abdominal	-11.0363
▁cable	-11.0364
Stream	-11.0365
▁ear	-11.0365
▁Army	-11.0366
▁Su	-11.0368
▁corner	-11.0369
▁react	-11.037
▁planned	-11.037
▁putting	-11.037
▁mention	-11.0372
▁historical	-11.0373
▁miss	-11.0373
▁Lee	-11.0375
19	-11.0377
word	-11.038
▁winter	-11.0381
▁economy	-11.0382
▁variations	-11.0383
▁Order	-11.0386
▁extracellular	-11.0388
▁Jones	-11.0389
▁recombinant	-11.0391
▁keeping	-11.0393
▁marrow	-11.0395
▁LICENSE	-11.0398
▁elected	-11.0401
▁lies	-11.0404
▁unusual	-11.0405
▁island	-11.0408
▁morbidity	-11.0408
▁Model	-11.0408
▁accompanie	-11.0408
▁probability	-11.0409
▁sizes	-11.0415
▁budget	-11.0417
▁feeling	-11.0425
password	-11.0429
▁obesity	-11.0433
▁gamma	-11.0434
▁membranes	-11.0435
rich	-11.044
▁perspective	-11.0442
▁noticed	-11.0443
▁Democratic	-11.0443
▁southern	-11.0445
▁separated	-11.0447
selling	-11.0448
\"),	-11.0454
▁valuable	-11.0457
▁questionnaire	-11.0457
▁purified	-11.0458
▁phosphorylation	-11.0459
▁topic	-11.0459
▁Brazil	-11.046
▁repeat	-11.046
▁computed	-11.0461
▁bodies	-11.0463
▁platelet	-11.0463
child	-11.0463
▁colon	-11.0463
expression	-11.0471
▁candidates	-11.0474
▁insurance	-11.0475
NA	-11.0479
▁ban	-11.0481
▁alterations	-11.0484
▁Ga	-11.0484
Populate	-11.0485
▁Ar	-11.0487
▁river	-11.0487
▁Northern	-11.0493
▁injured	-11.0497
standing	-11.0498
▁learned	-11.0501
▁Ohio	-11.0501
▁smart	-11.0504
coupled	-11.0504
▁classified	-11.0507
},\	-11.0509
▁featured	-11.0511
▁prime	-11.0512
files	-11.0513
▁walking	-11.0514
▁Care	-11.0517
▁Live	-11.0518
DNA	-11.0521
▁validation	-11.0521
▁engineering	-11.0521
▁Sam	-11.0524
▁div	-11.0524
▁Cross	-11.0526
▁wound	-11.0527
section	-11.0527
▁regulate	-11.0531
▁tend	-11.0531
▁Louis	-11.0533
▁['	-11.0533
▁HD	-11.0536
TIONS	-11.0536
ocal	-11.0536
▁defense	-11.0536
▁evening	-11.0538
▁Control	-11.0539
store	-11.0539
uri	-11.0542
▁urban	-11.0544
▁violence	-11.0549
low	-11.0554
▁machines	-11.0558
▁drivers	-11.0563
▁SP	-11.0564
▁creation	-11.0567
▁Syria	-11.0569
▁employ	-11.0572
▁observations	-11.0575
▁scheme	-11.0577
▁mapping	-11.0577
▁tru	-11.0579
▁Mil	-11.0582
▁northern	-11.0583
▁MA	-11.0584
▁authorities	-11.0585
▁adjacent	-11.0585
III	-11.0588
▁matching	-11.0592
▁investment	-11.0594
nYes	-11.0595
Handler	-11.0595
nMore	-11.0598
▁mount	-11.0609
▁Chief	-11.0616
close	-11.0616
FILE	-11.0619
Description	-11.0619
▁lymphocytes	-11.0619
▁returning	-11.062
$$\\	-11.063
▁mine	-11.0632
▁{{	-11.0633
True	-11.0633
-2.0\	-11.0633
▁promoter	-11.0635
flow	-11.0637
▁pilot	-11.0637
risk	-11.0638
▁spaces	-11.0639
!!	-11.0642
▁cash	-11.0644
▁province	-11.0648
▁(10	-11.065
▁sides	-11.0652
▁chosen	-11.0652
▁greatest	-11.0656
▁Places	-11.0657
1),	-11.066
▁Museum	-11.0662
Tag	-11.0663
▁steel	-11.0667
▁obvious	-11.0668
▁creative	-11.0669
shaped	-11.0672
dict	-11.0673
else	-11.0675
Command	-11.0675
▁Christian	-11.0681
▁basically	-11.0681
▁Boston	-11.0683
▁rear	-11.0687
▁drama	-11.0694
Effect	-11.0699
70	-11.0699
▁donor	-11.07
▁suggestions	-11.0701
▁fed	-11.0701
▁velocity	-11.0702
▁simultaneously	-11.0702
Input	-11.0703
▁(@	-11.0708
column	-11.0708
▁Licensed	-11.0709
▁holds	-11.0714
▁university	-11.0717
▁threshold	-11.0718
▁subset	-11.0724
▁ongoing	-11.0729
▁graph	-11.0729
▁===	-11.0732
▁awesome	-11.0733
▁Radio	-11.0738
▁NS	-11.0741
▁asthma	-11.0743
▁domains	-11.0745
▁temperatures	-11.0746
▁recognize	-11.0751
▁Government	-11.0758
▁happening	-11.0761
▁[\"	-11.0761
09	-11.0767
▁Once	-11.0767
▁Water	-11.0768
▁Georgia	-11.077
▁cutting	-11.0774
game	-11.078
▁und	-11.0781
▁approved	-11.0781
▁Auto	-11.0782
▁kill	-11.079
▁fundamental	-11.0791
▁submit	-11.0793
common	-11.0798
▁disclosed	-11.08
▁synthesized	-11.0801
step	-11.0802
▁staining	-11.0803
▁feeding	-11.0806
sensitive	-11.081
▁impairment	-11.0812
57	-11.0814
▁professionals	-11.0822
▁MP	-11.0822
▁People	-11.0831
=\"1.0\"	-11.0832
javascript	-11.0833
▁Peter	-11.0835
24	-11.0845
▁Israel	-11.0847
▁construct	-11.0848
▁income	-11.0848
interface	-11.085
▁Additionally	-11.0851
▁Security	-11.0852
amine	-11.0859
▁0.1	-11.086
▁randomly	-11.086
▁pediatric	-11.0863
images	-11.0869
▁gap	-11.0871
How	-11.0873
stern	-11.0876
▁Mu	-11.088
▁availability	-11.0882
▁Commission	-11.0883
▁kick	-11.0885
▁CEO	-11.0886
▁developer	-11.089
display	-11.0892
▁fragment	-11.0892
▁Steve	-11.0895
▁obj	-11.0896
Window	-11.0897
▁[]	-11.09
restricted	-11.0901
push	-11.0902
▁neuronal	-11.0904
▁academic	-11.0906
▁opposite	-11.0911
▁ultra	-11.0912
▁covers	-11.0914
▁BASI	-11.0917
resistant	-11.0919
▁printed	-11.0923
Search	-11.0927
▁recurren	-11.0927
▁accounts	-11.093
▁afternoon	-11.093
▁Human	-11.0931
▁educational	-11.0935
▁regard	-11.0941
▁competitive	-11.0942
▁bleeding	-11.0946
▁unclear	-11.0947
▁Sports	-11.0954
100	-11.0954
▁Page	-11.0956
Layout	-11.096
▁analyze	-11.096
▁cookies	-11.0962
▁camp	-11.0963
▁Ten	-11.0967
▁fear	-11.0971
▁transient	-11.0972
▁restaurant	-11.0976
▁pairs	-11.0976
▁lists	-11.0977
Token	-11.0983
▁ends	-11.0983
▁arrange	-11.099
dose	-11.0996
▁existence	-11.0997
▁export	-11.0998
▁XML	-11.1
matrix	-11.1002
▁featur	-11.1005
▁None	-11.1006
▁Poland	-11.1012
▁fusion	-11.1013
python	-11.1014
▁principal	-11.1021
▁oxidation	-11.1029
▁coffee	-11.1029
▁deposit	-11.1029
Module	-11.103
ById	-11.103
▁Real	-11.1031
▁Study	-11.1033
▁scored	-11.1035
lim	-11.1038
▁introduction	-11.1041
▁crime	-11.1045
Start	-11.1054
▁polymer	-11.1062
▁Fox	-11.1064
▁Gold	-11.1065
▁Back	-11.1067
▁requirement	-11.1068
▁COND	-11.1077
struct	-11.1077
▁respective	-11.1087
▁proved	-11.1087
▁Spain	-11.1088
▁nucleus	-11.109
jar	-11.1092
▁crucial	-11.1093
▁lowest	-11.1097
▁systematic	-11.1101
options	-11.1107
▁2.5	-11.1107
▁[[	-11.1108
▁carrier	-11.1109
▁hash	-11.1109
▁colour	-11.1114
news	-11.1114
▁quote	-11.1118
cpp	-11.1121
▁packages	-11.1123
▁magazine	-11.1124
▁dates	-11.1125
▁raw	-11.1126
▁electrode	-11.1126
▁thank	-11.1128
▁ma	-11.1129
▁stopped	-11.1131
▁healthcare	-11.1131
linked	-11.114
▁introduce	-11.1142
▁CP	-11.1143
▁anywhere	-11.1146
27	-11.115
▁fruit	-11.1151
▁invasive	-11.1153
▁Old	-11.1154
▁flexible	-11.1156
▁beat	-11.1158
▁Conference	-11.1161
Irish	-11.1163
0,000	-11.1166
▁wood	-11.1168
▁span	-11.117
▁warm	-11.1171
▁Con	-11.1171
▁establishments	-11.1171
▁society	-11.1173
▁ST	-11.1174
▁ligand	-11.1179
]]	-11.1181
▁sweet	-11.1182
▁printing	-11.1182
etic	-11.1186
Response	-11.1186
▁Centre	-11.1195
▁broken	-11.1196
▁advantages	-11.1199
cdot	-11.1201
▁rotation	-11.1204
06	-11.1209
▁fibers	-11.1209
▁plural	-11.1209
▁(8	-11.1211
remove	-11.1212
▁resistant	-11.1214
round	-11.1214
▁taste	-11.1215
SELECT	-11.1218
▁researchers	-11.1223
container	-11.1226
▁impaired	-11.1226
56	-11.1227
▁nanoparticles	-11.1231
▁sending	-11.1231
▁fell	-11.1232
(0)	-11.1233
menu	-11.1233
▁UV	-11.1238
▁displays	-11.124
▁regex	-11.1242
▁predictiv	-11.1242
▁boost	-11.1242
▁yesterday	-11.1242
▁sole	-11.1245
takes	-11.1246
▁leukemia	-11.1252
▁pointer	-11.1255
▁decade	-11.1255
▁dress	-11.1255
▁yellow	-11.1256
▁payment	-11.1257
▁Michigan	-11.1259
POST	-11.1259
▁Today	-11.126
Olympic	-11.1261
ator	-11.1264
▁improvements	-11.1265
Mode	-11.1268
method	-11.1269
▁neither	-11.127
endo	-11.1273
CO	-11.1277
▁knew	-11.1279
▁Tour	-11.1283
▁permanent	-11.1285
▁searching	-11.1288
Label	-11.1288
▁owners	-11.1291
▁footballer	-11.1296
▁Festival	-11.13
▁AC	-11.1303
▁mini	-11.1303
▁scann	-11.1303
▁predominant	-11.1304
▁instructions	-11.1305
▁token	-11.1307
▁wonderful	-11.1308
▁reconstruction	-11.1312
▁provider	-11.1313
chi	-11.1315
▁pseudo	-11.1315
▁ca	-11.1316
▁compile	-11.1318
▁sugar	-11.1319
▁bladder	-11.1322
▁Store	-11.1323
win	-11.1324
▁(6	-11.1326
▁assert	-11.1329
nFollow	-11.1331
byte	-11.1332
▁Education	-11.1341
Project	-11.1344
▁bought	-11.1346
Core	-11.1346
▁tumour	-11.135
PD	-11.1359
▁Ki	-11.1368
▁120	-11.1369
▁counts	-11.137
▁teeth	-11.1371
First	-11.1375
▁journey	-11.1376
▁Click	-11.1383
▁consequences	-11.1386
▁periods	-11.1387
Cell	-11.1392
▁attachment	-11.1393
pdf	-11.1394
▁singer	-11.1396
jquery	-11.1403
▁watching	-11.1405
▁Special	-11.1406
▁complement	-11.1409
▁entirely	-11.1412
nNot	-11.1413
▁vessels	-11.1414
▁cultural	-11.1417
▁BC	-11.142
▁Note	-11.1421
▁Southern	-11.1422
▁Ubuntu	-11.1422
▁beam	-11.1425
▁comparing	-11.1425
▁retain	-11.1431
▁bridge	-11.1432
▁grown	-11.1434
▁1980	-11.1435
▁boys	-11.1436
▁tells	-11.1441
vector	-11.1448
tools	-11.145
▁clinic	-11.1456
▁Film	-11.1456
▁NA	-11.1458
▁turns	-11.1459
▁chest	-11.146
▁mounted	-11.1461
▁domestic	-11.1462
▁funding	-11.1465
▁intact	-11.1467
▁patch	-11.147
▁behavioral	-11.1471
▁Korean	-11.1471
▁uniform	-11.148
▁Part	-11.1482
PM	-11.1482
(+)	-11.1483
▁MC	-11.1483
▁coding	-11.1484
*/\	-11.1494
▁Santa	-11.1501
▁harm	-11.1505
reby	-11.1505
▁magnitude	-11.1506
▁3)	-11.1509
▁Th	-11.1512
▁PG	-11.1514
▁cloud	-11.1515
▁Prime	-11.1516
cast	-11.1519
▁cap	-11.1519
▁reliability	-11.1519
▁railway	-11.1524
Builder	-11.1525
change	-11.1526
▁ovarian	-11.1529
▁lock	-11.1532
▁prepare	-11.1533
▁varied	-11.1534
▁Middle	-11.154
▁1998	-11.1541
▁correlate	-11.1542
▁committed	-11.1549
▁DB	-11.1552
▁decisions	-11.1552
▁Photo	-11.1558
dump	-11.1563
▁substance	-11.1564
application	-11.1565
▁victim	-11.1565
▁Chrome	-11.1569
▁Twenty	-11.157
▁facing	-11.1572
▁nurses	-11.1573
phi	-11.1582
▁adhesion	-11.1585
▁Beach	-11.1585
▁libraries	-11.159
hour	-11.1592
cap	-11.1593
Most	-11.1595
▁Jim	-11.1596
▁solar	-11.1596
{}\	-11.1596
rate	-11.1602
istic	-11.1605
nCheck	-11.1606
nNew	-11.1608
▁RT	-11.1608
uffered	-11.1609
▁Array	-11.1609
▁Jack	-11.1609
▁Oct	-11.1611
▁dista	-11.1613
Write	-11.1615
▁redirect	-11.1618
Link	-11.1619
▁Core	-11.1621
-1.	-11.1622
▁HA	-11.1624
nGet	-11.1628
▁recommendations	-11.163
▁morphology	-11.1633
▁IE	-11.1637
▁Jersey	-11.1642
▁infarction	-11.1646
▁perfectly	-11.1646
▁presents	-11.1646
▁giant	-11.1647
▁hospitals	-11.1651
▁Table	-11.1653
▁diversity	-11.1654
▁subsequently	-11.1654
▁ischemia	-11.1661
▁occurr	-11.1662
▁listen	-11.1663
▁execution	-11.1664
▁pan	-11.1664
▁Victoria	-11.1667
DE	-11.1669
▁10%	-11.167
Status	-11.167
▁depend	-11.1672
▁Source	-11.1674
▁clock	-11.1677
▁meat	-11.1678
▁shall	-11.1679
▁compiler	-11.168
ography	-11.1687
admin	-11.1687
▁Dan	-11.1687
Title	-11.169
▁emission	-11.1691
▁dimensions	-11.1693
▁Force	-11.1694
modules	-11.1698
when	-11.1699
▁conversation	-11.1701
ensis	-11.1703
▁worse	-11.1705
▁expert	-11.1706
▁Johnson	-11.1707
-12	-11.1708
▁meant	-11.1712
mod	-11.1715
▁statistics	-11.1716
nThey	-11.1719
join	-11.1719
▁physicians	-11.1723
world	-11.1725
framework	-11.1725
▁tips	-11.1732
▁Coast	-11.1735
ification	-11.1737
▁wheel	-11.1739
most	-11.1742
▁discover	-11.1745
▁parse	-11.1753
▁spontaneous	-11.1757
▁mail	-11.1762
▁localization	-11.1763
▁concerned	-11.1764
▁hockey	-11.1765
▁65	-11.177
▁Clinical	-11.1771
▁Children	-11.1772
nOther	-11.1781
▁resolve	-11.1785
process	-11.1785
▁attributes	-11.1787
▁draft	-11.1787
▁pulse	-11.1787
Column	-11.1787
getElement	-11.179
▁appreciate	-11.179
▁intensive	-11.179
▁instrument	-11.1802
▁representative	-11.181
▁suspected	-11.1811
▁brown	-11.1811
▁Treatment	-11.1812
▁Clinton	-11.1812
▁Call	-11.1815
▁Pennsylvania	-11.1816
▁collect	-11.1816
component	-11.182
▁SO	-11.1821
tree	-11.1821
▁developers	-11.1829
▁integral	-11.183
big	-11.1831
▁Bio	-11.1831
▁providers	-11.1832
topic	-11.1832
▁concerning	-11.1832
▁considerable	-11.1834
▁TNF	-11.1838
Select	-11.1841
=\"@	-11.1843
▁eating	-11.1844
▁targeting	-11.1845
ocular	-11.1845
▁phenotype	-11.185
▁vein	-11.1852
Windows	-11.1857
▁experts	-11.1858
▁animation	-11.1859
▁75	-11.1862
▁closure	-11.1863
Width	-11.1864
▁Francisco	-11.1866
041	-11.1866
activated	-11.1866
▁shipping	-11.1869
▁totally	-11.187
▁True	-11.1873
UTF	-11.1876
▁acts	-11.1876
▁(3)	-11.1878
▁38	-11.1885
east	-11.189
▁Light	-11.1893
▁IgG	-11.1893
▁drinking	-11.1896
▁pregnant	-11.1898
▁automatic	-11.1903
parse	-11.1903
▁disclose	-11.1903
▁CS	-11.1904
▁seeking	-11.1907
▁requir	-11.1907
▁Analysis	-11.1908
▁Try	-11.1909
▁missed	-11.191
▁healing	-11.191
(2+)	-11.1911
▁fly	-11.1914
Hello	-11.1916
▁sit	-11.192
2),	-11.1922
▁saved	-11.1923
▁Local	-11.1926
hpp	-11.1927
▁topics	-11.1927
sisted	-11.1929
▁matched	-11.1929
▁independently	-11.193
▁compact	-11.1935
▁microM	-11.1936
▁1996	-11.1936
▁developmental	-11.1937
▁variability	-11.1939
▁connections	-11.1939
disambiguation	-11.1942
▁submitted	-11.1943
hosted	-11.1943
▁Does	-11.1945
▁volunteers	-11.1945
▁psychological	-11.1946
▁cup	-11.1951
▁homes	-11.1951
▁influenced	-11.196
▁Review	-11.196
0434	-11.1961
▁partners	-11.1961
▁guitar	-11.1962
▁Ke	-11.1963
▁controll	-11.1964
tab	-11.1966
▁prompt	-11.1966
▁Station	-11.1967
▁64	-11.1972
▁stone	-11.1977
▁Prior	-11.1977
operative	-11.1978
])\	-11.1979
living	-11.1982
nTwo	-11.1983
▁promotion	-11.1985
▁gestation	-11.1989
ach	-11.1997
▁census	-11.2002
▁attempts	-11.2003
▁Town	-11.2006
▁YouTube	-11.2009
▁undefined	-11.2019
▁chamber	-11.202
▁winner	-11.2021
▁executed	-11.2028
Create	-11.2033
▁ATP	-11.2034
▁snow	-11.2044
▁holiday	-11.2044
▁narrow	-11.2051
▁navigation	-11.2052
▁analysed	-11.2056
▁judge	-11.2057
Provider	-11.2061
▁Us	-11.2063
▁bilateral	-11.2063
▁minister	-11.2064
▁History	-11.2065
▁acting	-11.2069
entry	-11.207
▁tracks	-11.2076
▁metastasis	-11.2078
▁wedding	-11.2079
▁defect	-11.208
play	-11.2085
▁susceptibility	-11.2087
profile	-11.2088
▁audience	-11.2089
bind	-11.2092
▁caught	-11.2094
▁crash	-11.2094
card	-11.2098
014	-11.2098
▁12,	-11.2099
▁intravenous	-11.21
▁Catholic	-11.2101
filename	-11.2102
▁sessions	-11.2104
▁Last	-11.2105
▁compression	-11.2106
▁beneficial	-11.2108
▁medication	-11.2111
total	-11.2111
▁situations	-11.2111
▁hide	-11.2112
▁assistance	-11.2113
▁fails	-11.2114
▁instances	-11.2116
▁remov	-11.2117
▁musical	-11.2117
username	-11.2118
▁escape	-11.212
▁adolescents	-11.2121
cutaneous	-11.2121
exports	-11.2122
▁fracture	-11.2126
▁wearing	-11.2127
▁invasion	-11.2129
our	-11.213
stone	-11.2133
attended	-11.2138
▁figures	-11.2139
▁Watch	-11.2141
▁padding	-11.2142
window	-11.2149
▁kitchen	-11.2149
▁Overall	-11.2151
▁orders	-11.2153
▁google	-11.2154
▁CR	-11.2154
▁consumer	-11.2155
▁Joe	-11.2157
math	-11.2159
▁variant	-11.2164
▁modulate	-11.2166
float	-11.2167
▁converted	-11.2169
▁mouth	-11.2171
▁environments	-11.2174
▁adequate	-11.2181
▁regardless	-11.2182
▁policies	-11.2188
▁copper	-11.2188
layer	-11.2189
ular	-11.219
▁Young	-11.2191
▁variants	-11.2191
-2-	-11.2192
▁vary	-11.2197
▁\"$	-11.2202
▁accessible	-11.2203
▁responded	-11.2206
▁gland	-11.2206
Resource	-11.2207
▁orientation	-11.2207
▁inspired	-11.2207
▁Mary	-11.2207
▁producer	-11.2208
▁SC	-11.2213
▁insight	-11.2218
▁murder	-11.2219
▁Wales	-11.2224
▁bulk	-11.2225
natal	-11.2225
▁centers	-11.223
▁ratios	-11.223
▁criminal	-11.2231
command	-11.2232
Factory	-11.2233
▁append	-11.2234
▁Area	-11.2235
▁intervals	-11.2235
▁shopping	-11.2236
save	-11.2237
Script	-11.224
ants	-11.2241
DOC	-11.2242
▁strict	-11.2243
fish	-11.2244
▁hundreds	-11.2245
▁LA	-11.2247
▁movies	-11.2251
▁guest	-11.2252
▁hole	-11.2253
▁1999	-11.2257
arotid	-11.2261
▁drawing	-11.2266
\"]	-11.2268
sectional	-11.2268
▁convenient	-11.2269
▁EU	-11.227
▁utilized	-11.2278
▁par	-11.2284
▁coupling	-11.2285
▁administrative	-11.2287
berg	-11.2294
▁serial	-11.2295
▁func	-11.2295
▁10-	-11.2298
▁exciting	-11.23
▁stick	-11.23
▁retire	-11.2301
▁broadcast	-11.2305
▁Parliament	-11.2308
▁necrosis	-11.2309
▁BP	-11.2309
nEDIT	-11.231
LY	-11.231
▁ethanol	-11.2311
▁dream	-11.2311
▁admission	-11.2312
▁personnel	-11.2313
Interface	-11.2318
▁elections	-11.2319
emia	-11.2319
▁elevation	-11.232
▁preferred	-11.2325
▁persistent	-11.2327
RE	-11.2334
spring	-11.2335
▁demo	-11.2337
▁composite	-11.2339
▁complication	-11.234
▁sector	-11.2343
▁estate	-11.2343
lock	-11.2343
users	-11.2346
nDur	-11.2347
▁Wall	-11.2349
nEdit	-11.235
▁aggressive	-11.2352
▁comfortable	-11.2355
Have	-11.2355
CONFIG	-11.2359
▁polymerase	-11.2359
ram	-11.2361
second	-11.2363
▁maps	-11.2363
▁addresses	-11.2364
▁boolean	-11.2366
▁Error	-11.2372
▁commands	-11.2374
▁Create	-11.2375
▁documented	-11.2379
ufeff	-11.2381
▁Social	-11.2381
▁cortical	-11.2381
Location	-11.2383
▁Pakistan	-11.2385
▁Access	-11.2385
▁artificial	-11.2385
▁Illinois	-11.2387
▁trees	-11.239
▁HR	-11.239
▁interior	-11.2392
▁41	-11.2393
())	-11.2396
Order	-11.2402
▁Van	-11.2411
▁PR	-11.2416
other	-11.2416
▁tetra	-11.2416
▁forget	-11.2417
edit	-11.2418
▁denied	-11.2419
▁county	-11.242
▁thoughts	-11.2422
▁Technology	-11.2423
▁FA	-11.2423
▁Who	-11.2424
conf	-11.2428
▁announcement	-11.2428
▁paint	-11.2429
▁Key	-11.2431
▁stuck	-11.2438
▁transaction	-11.2441
chemical	-11.2445
▁encourage	-11.2447
▁dropped	-11.2448
▁locally	-11.2458
MP	-11.2458
▁mineral	-11.2459
▁Da	-11.246
▁Federal	-11.246
▁owne	-11.2461
▁challenging	-11.2461
▁lib	-11.2465
▁blocked	-11.2467
▁registration	-11.2471
04	-11.2471
▁therapies	-11.2471
▁utilize	-11.2471
▁Support	-11.2475
▁complexity	-11.2481
▁spell	-11.2481
▁tickets	-11.2481
▁injected	-11.2481
▁simulation	-11.2482
▁representation	-11.2484
▁simulate	-11.2487
▁Richard	-11.249
nFROM	-11.249
nRead	-11.2492
▁clicking	-11.2495
▁enhancement	-11.2495
▁estimates	-11.2498
▁texture	-11.2498
ring	-11.2504
▁Online	-11.2505
▁Charles	-11.2505
▁stimuli	-11.2508
▁prediction	-11.251
▁teacher	-11.251
▁spectrometry	-11.251
▁risks	-11.2512
▁rain	-11.2513
white	-11.2515
▁phenomenon	-11.2515
▁wine	-11.2516
lateral	-11.2522
▁attract	-11.2523
ajax	-11.2524
ome	-11.2526
▁highlight	-11.2526
▁vessel	-11.2528
▁classical	-11.253
▁particle	-11.2531
▁medal	-11.2533
08	-11.2536
cancer	-11.2537
▁arrived	-11.2542
▁patent	-11.2544
▁barrier	-11.2547
▁3.5	-11.2548
▁Win	-11.2551
▁Americans	-11.2554
GET	-11.2554
▁Space	-11.2557
▁maximal	-11.2561
▁muscles	-11.2563
nAre	-11.2566
▁passion	-11.2566
react	-11.2567
▁suffering	-11.2571
▁alumni	-11.2572
▁theoretical	-11.2572
▁pipe	-11.2573
▁lymphoma	-11.2574
▁knows	-11.2578
▁gear	-11.2582
▁obviously	-11.259
▁absolutely	-11.2591
Range	-11.2592
▁brings	-11.2593
high	-11.2593
5,000	-11.2595
▁stimulated	-11.2595
▁spectra	-11.2595
protein	-11.2595
GL	-11.2596
urine	-11.2597
▁declared	-11.26
▁Williams	-11.2606
▁somewhere	-11.2608
▁letters	-11.2611
▁commit	-11.2613
▁frequencies	-11.2614
▁Full	-11.2615
▁dominant	-11.2618
▁Family	-11.2619
▁keyboard	-11.2619
▁ET	-11.2624
▁NFL	-11.2626
▁seal	-11.2627
▁extracted	-11.263
family	-11.2631
1;\	-11.2632
▁dys	-11.2632
+\\	-11.2633
▁discovery	-11.2635
▁friendly	-11.2635
ang	-11.2636
▁Pu	-11.2638
▁Ch	-11.264
())\	-11.2642
▁sampling	-11.2642
▁Jo	-11.2645
▁computing	-11.2647
put	-11.265
▁varying	-11.2655
▁nearby	-11.2655
▁Journal	-11.2656
▁worry	-11.2656
FIT	-11.2658
▁(7	-11.2666
▁checking	-11.2668
▁1997	-11.2669
▁nitrogen	-11.2669
▁shorter	-11.267
▁killing	-11.2671
care	-11.2672
ON	-11.2673
▁Daily	-11.2675
0443	-11.268
▁beer	-11.2681
▁rel	-11.2688
▁Video	-11.2689
▁macrophages	-11.2689
▁references	-11.2691
▁grand	-11.2692
▁consumers	-11.2696
Function	-11.2697
should	-11.2699
▁antigens	-11.2701
▁entries	-11.2702
▁accused	-11.2703
▁aque	-11.2706
video	-11.2708
ong	-11.2708
▁Global	-11.2711
▁tape	-11.2712
▁municipality	-11.2715
▁Premier	-11.2719
▁weekly	-11.2719
▁involve	-11.2722
▁Scale	-11.2723
▁Despi	-11.2727
▁hence	-11.2731
amide	-11.2731
▁associations	-11.2733
▁sister	-11.2736
▁Look	-11.2737
idae	-11.2737
▁morphological	-11.274
IV	-11.2745
▁investigations	-11.2746
▁infant	-11.2748
▁poll	-11.2753
▁Night	-11.2755
▁civil	-11.2756
▁spending	-11.2758
\");	-11.2758
▁bytes	-11.2768
▁Region	-11.2768
▁satisfaction	-11.2769
2192	-11.2772
▁longitudinal	-11.2773
▁promise	-11.2775
chain	-11.2775
including	-11.278
▁benign	-11.2781
▁sought	-11.2785
▁prominent	-11.2788
part	-11.2788
▁substrates	-11.2789
▁reactive	-11.2792
▁isolation	-11.2796
SE	-11.2797
▁modules	-11.2798
38	-11.2799
pro	-11.2802
▁boot	-11.2802
▁Judge	-11.2805
▁activate	-11.2806
=>	-11.2809
Digital	-11.2811
▁chat	-11.2818
▁consideration	-11.2819
▁trace	-11.2822
▁Per	-11.2827
▁anyway	-11.283
▁Corporation	-11.2832
▁15,	-11.2832
▁homolog	-11.2833
%%	-11.2838
Click	-11.2838
treating	-11.2841
▁<=	-11.2845
▁rescue	-11.2851
▁chip	-11.2853
▁ride	-11.2853
▁callback	-11.2856
nAnother	-11.2858
▁phospho	-11.2858
fer	-11.2861
API	-11.2861
▁neonat	-11.2863
▁Heart	-11.2863
▁RA	-11.2864
63	-11.2864
Attribute	-11.2864
Given	-11.2868
localhost	-11.2869
▁pathological	-11.2869
▁talks	-11.287
▁insertion	-11.2873
▁chicken	-11.2874
▁explanation	-11.2877
▁Avenue	-11.2878
▁languages	-11.2878
▁mature	-11.2881
▁debug	-11.2882
Category	-11.2885
▁prison	-11.2888
ington	-11.2891
regulation	-11.2892
▁Ra	-11.2893
▁clubs	-11.2893
])	-11.29
▁pic	-11.2907
king	-11.2912
▁11,	-11.2913
ative	-11.2914
▁imagine	-11.2919
via	-11.2921
▁desktop	-11.2923
▁Winter	-11.2923
twitter	-11.2924
2)\	-11.2924
52	-11.2924
▁Han	-11.2925
▁mountain	-11.293
appointed	-11.2933
▁faces	-11.2933
▁signature	-11.2938
▁farm	-11.2938
Log	-11.2943
ung	-11.2945
ocytes	-11.2946
cache	-11.2953
▁bundle	-11.2957
▁marriage	-11.2957
▁BOOST	-11.296
SET	-11.2962
▁inserted	-11.2963
▁segments	-11.2967
▁Turkey	-11.2969
▁Prince	-11.297
▁verify	-11.2971
▁fractures	-11.2971
theta	-11.2975
scanned	-11.2977
▁proximal	-11.2977
▁Form	-11.298
307	-11.2983
made	-11.2987
▁antagonist	-11.2989
2026]	-11.299
________________	-11.2997
▁MySQL	-11.3
▁cleaning	-11.3001
▁Sh	-11.3002
▁honor	-11.3004
room	-11.3005
▁overcome	-11.3006
▁restriction	-11.3006
▁compatible	-11.3012
▁Base	-11.3013
▁buttons	-11.3018
][	-11.3018
▁th	-11.3022
▁nuclei	-11.3023
▁php	-11.3024
▁summary	-11.3025
▁retrieve	-11.3026
End	-11.3028
▁gate	-11.303
▁Airport	-11.3034
▁fifth	-11.3034
▁Action	-11.3034
types	-11.3034
cha	-11.3038
▁symbol	-11.3039
▁comfort	-11.304
known	-11.3041
▁(!	-11.3042
▁0.2	-11.3048
▁fibrosis	-11.3049
▁>=	-11.3049
nselect	-11.3051
▁Va	-11.3052
▁clearance	-11.3053
▁awareness	-11.3054
▁Inter	-11.3054
▁Little	-11.3055
PATH	-11.3056
▁generat	-11.3057
zip	-11.3058
▁Five	-11.3059
▁precise	-11.306
▁JS	-11.3064
▁72	-11.3064
ries	-11.3069
▁Another	-11.307
called	-11.3072
▁irradiation	-11.3077
▁bearing	-11.3077
▁"{\	-11.3081
▁55	-11.3088
▁preliminary	-11.3094
Entity	-11.3097
values	-11.3098
▁diffusion	-11.3101
▁consiste	-11.3101
▁begins	-11.3104
▁BE	-11.3104
▁drawn	-11.3106
▁publication	-11.3109
▁repository	-11.3112
▁statements	-11.3116
▁resin	-11.3117
▁bin	-11.3117
Frame	-11.312
▁relations	-11.312
▁43	-11.3123
▁awarded	-11.3126
▁accident	-11.3128
▁Master	-11.3128
▁participated	-11.3131
▁configured	-11.3133
▁aging	-11.3134
▁trained	-11.3139
▁threat	-11.314
0161	-11.314
Once	-11.314
▁Wisconsin	-11.3144
▁Run	-11.3144
▁44	-11.3144
▁IF	-11.3145
▁interviews	-11.3156
▁metastatic	-11.3157
▁Suprem	-11.3159
social	-11.3159
▁granted	-11.316
▁args	-11.3163
▁comedy	-11.3163
▁politicians	-11.3163
▁congenital	-11.3164
▁occupation	-11.3166
▁landscape	-11.3166
:20	-11.3169
▁circulat	-11.3175
▁physician	-11.3176
▁placement	-11.3176
▁neutral	-11.318
▁1970	-11.3182
▁completion	-11.3184
▁localized	-11.3185
▁fuck	-11.3185
▁recovered	-11.3186
▁Studies	-11.3189
▁20,	-11.3191
copy	-11.3192
del	-11.3194
▁dangerous	-11.3195
▁tracking	-11.3197
▁driven	-11.3201
▁Mean	-11.3208
▁aspect	-11.3211
▁OK	-11.3217
▁Instead	-11.3217
ery	-11.3218
▁polymorphism	-11.3219
▁Ja	-11.3223
▁51	-11.3223
▁bear	-11.3227
▁gradient	-11.3228
Length	-11.3231
▁necessarily	-11.3232
▁Dec	-11.3234
▁ischemic	-11.3234
▁plenty	-11.3235
▁thermo	-11.3237
▁antioxidant	-11.3239
▁apart	-11.324
▁**	-11.3241
▁Britain	-11.3241
▁precision	-11.3242
▁Du	-11.3247
items	-11.3252
here	-11.3253
▁dance	-11.3253
▁trends	-11.3254
ional	-11.3256
▁funds	-11.3256
▁1;\	-11.3257
▁ticket	-11.3258
▁logo	-11.3261
▁yeast	-11.3261
▁receiver	-11.3262
▁Anti	-11.3263
▁NF	-11.3265
▁truck	-11.3265
▁Pacific	-11.327
city	-11.3272
▁victims	-11.3272
▁disable	-11.3273
Sub	-11.3278
▁timing	-11.3279
▁Toronto	-11.328
▁1994	-11.3286
nBefore	-11.3287
▁HTTP	-11.3288
▁burden	-11.3289
▁expanded	-11.3291
Effects	-11.3291
▁fund	-11.3294
▁historic	-11.3294
▁Kong	-11.3298
▁EC	-11.3302
▁49	-11.3303
▁temporary	-11.3305
▁epi	-11.3306
sort	-11.3309
▁bigger	-11.331
▁beauty	-11.3311
▁platforms	-11.3318
▁proud	-11.3319
▁sperm	-11.3321
▁institutions	-11.3321
▁crisis	-11.3322
▁20%	-11.3324
▁communications	-11.3324
note	-11.3324
▁excess	-11.3328
Main	-11.3329
▁suicide	-11.3329
▁2017.	-11.3329
▁presidential	-11.3331
▁roof	-11.3337
▁luck	-11.3338
place	-11.3338
grid	-11.3338
▁Awards	-11.3339
▁skelet	-11.3341
pkg	-11.3343
▁Land	-11.3344
▁incorporated	-11.3345
▁relief	-11.3346
}}\	-11.3351
▁parking	-11.3354
▁tail	-11.3355
▁trailer	-11.3358
token	-11.336
▁impossible	-11.3363
▁Next	-11.3365
▁arrays	-11.3365
▁conflict	-11.3366
support	-11.3368
▁USB	-11.3368
ack	-11.3368
▁hook	-11.3368
also	-11.3369
nSubject	-11.337
▁indeed	-11.3371
▁3.0	-11.3371
▁replication	-11.3371
▁1995	-11.3372
plot	-11.3373
screen	-11.3376
▁modulation	-11.3379
▁fairly	-11.3385
▁marine	-11.3386
▁covering	-11.3387
▁Je	-11.3389
▁closer	-11.3389
▁kinds	-11.3395
Target	-11.3396
▁deleted	-11.3401
▁bands	-11.3403
LD	-11.3405
▁airport	-11.3406
▁preoperative	-11.3407
▁thromb	-11.3408
▁leadership	-11.341
▁participation	-11.3411
strong	-11.3412
▁metabolites	-11.3413
▁psychiatric	-11.3415
▁quantum	-11.342
▁identifying	-11.3422
Product	-11.3427
▁bypass	-11.3428
address	-11.3431
▁walls	-11.3431
▁fee	-11.3433
ViewController	-11.3434
▁standing	-11.3442
▁batch	-11.3444
▁disclosure	-11.3444
random	-11.3444
Some	-11.3445
▁abstract	-11.3449
csv	-11.3449
▁closing	-11.3453
gastrointestinal	-11.3456
▁purchased	-11.3456
▁herein	-11.3456
▁drink	-11.3456
infected	-11.3457
▁retail	-11.3457
▁Cor	-11.3462
▁Food	-11.3462
▁Nov	-11.3464
▁antibiotic	-11.347
▁switching	-11.3474
▁labor	-11.3476
leq	-11.3477
▁generic	-11.348
▁Multi	-11.3481
analysis	-11.3482
▁Navy	-11.3484
▁victory	-11.3486
delta	-11.349
▁num	-11.3496
▁responsibility	-11.3496
▁investigator	-11.3497
▁EP	-11.3498
hash	-11.3499
▁los	-11.3502
uring	-11.351
▁egg	-11.3512
▁Daniel	-11.3512
▁doubt	-11.3514
▁proven	-11.3518
▁14,	-11.3523
▁lived	-11.3524
▁permit	-11.3524
▁arthritis	-11.3525
+1)	-11.3528
▁1992	-11.353
▁30,	-11.353
▁hetero	-11.3532
▁interpretation	-11.3535
▁destination	-11.3535
▁surveillance	-11.3536
▁rabbit	-11.3537
▁Report	-11.3547
▁phosphate	-11.3552
tech	-11.3552
▁coefficient	-11.3553
▁retention	-11.3555
▁transferred	-11.3555
angular	-11.3556
partial	-11.3556
▁Frank	-11.3568
about	-11.357
empty	-11.3571
controlled	-11.3572
▁communicate	-11.3574
▁suppression	-11.3579
unit	-11.3584
Users	-11.3585
23	-11.3596
watch	-11.3598
pass	-11.3599
▁captured	-11.3601
▁Dutch	-11.3601
▁tight	-11.3602
▁infrastructure	-11.3604
richia	-11.3605
${	-11.3606
▁Number	-11.3606
▁Official	-11.3607
▁rely	-11.3611
▁reader	-11.3611
▁CH	-11.3612
▁bike	-11.3612
▁correction	-11.3612
▁uint	-11.3614
▁(9	-11.3615
▁finger	-11.3616
ically	-11.3616
▁suit	-11.362
epsilon	-11.362
▁characterize	-11.3621
3001	-11.3622
▁Week	-11.3626
▁strange	-11.3626
Post	-11.3627
nWhere	-11.3629
▁genomic	-11.363
▁adds	-11.363
▁pathology	-11.3639
Identifier	-11.3643
256	-11.3645
session	-11.3645
▁Micro	-11.3645
▁chemo	-11.365
▁perceived	-11.3651
CV	-11.3653
▁portable	-11.3654
residential	-11.3656
▁newspaper	-11.366
▁Wood	-11.366
OP	-11.3668
▁prognos	-11.367
▁calculations	-11.3672
\";	-11.3673
▁Ku	-11.3674
▁settlement	-11.3678
earned	-11.368
▁servers	-11.3682
▁attempte	-11.3683
edin	-11.3685
▁partnership	-11.3685
▁fellow	-11.3686
▁rating	-11.3688
▁PDF	-11.3691
▁telephone	-11.3691
wise	-11.3696
▁metastases	-11.3698
NESS	-11.3698
▁organs	-11.3699
▁Minnesota	-11.3702
▁Cancer	-11.3703
▁fetch	-11.3704
▁facial	-11.371
▁earth	-11.3711
▁computers	-11.3712
▁enrolled	-11.3713
▁interference	-11.3716
▁Columbia	-11.3719
▁dependence	-11.3721
▁deals	-11.3722
▁Metro	-11.3724
▁limb	-11.3727
▁processed	-11.3727
▁provision	-11.3729
▁movements	-11.3729
▁airway	-11.3731
foot	-11.3731
▁squad	-11.3732
▁16,	-11.3734
gmail	-11.3735
▁regulated	-11.3735
▁Down	-11.3737
▁freedom	-11.3739
▁inclusion	-11.374
450	-11.374
Activity	-11.3741
▁robust	-11.3747
Out	-11.3747
▁fluorescent	-11.3747
▁behaviors	-11.3748
▁laws	-11.375
▁residual	-11.3752
▁assault	-11.3753
▁Br	-11.3757
▁gre	-11.3758
kappa	-11.3763
▁Lord	-11.3764
transferase	-11.3766
▁onset	-11.3768
▁ages	-11.377
▁DM	-11.3773
Ref	-11.3774
props	-11.3775
valuation	-11.3777
▁Wild	-11.3778
spec	-11.3778
Document	-11.378
▁bot	-11.3787
nLast	-11.3787
Pro	-11.379
▁IFN	-11.379
▁Head	-11.3791
assuming	-11.3792
▁Major	-11.3796
▁Saint	-11.3796
▁seed	-11.3799
▁Cha	-11.3799
help	-11.3801
Session	-11.3802
▁innovative	-11.3804
▁accompany	-11.3804
▁emerg	-11.3808
▁CM	-11.3811
three	-11.3813
▁8-	-11.3814
▁athletes	-11.3814
▁pack	-11.3816
▁suffer	-11.3817
▁LC	-11.3817
(1,	-11.3821
login	-11.3827
▁arms	-11.383
war	-11.3836
▁realize	-11.3838
▁handler	-11.3838
▁Iraq	-11.3839
▁Every	-11.3839
▁Bridge	-11.384
2122	-11.384
▁committee	-11.3841
▁Tri	-11.3841
▁GA	-11.3847
▁cytokines	-11.3849
▁highlights	-11.3849
dynamic	-11.3851
▁council	-11.3855
DF	-11.3855
▁Common	-11.3856
▁difficulty	-11.3856
nTrack	-11.3863
ES	-11.3863
▁temp	-11.3864
▁46	-11.3864
▁essentially	-11.387
will	-11.387
▁substantially	-11.3871
-1-	-11.3876
variable	-11.3877
▁adaptation	-11.3878
▁retinal	-11.3885
▁designer	-11.3885
▁mod	-11.3888
▁13,	-11.3889
cine	-11.3892
▁tank	-11.3893
▁CB	-11.3894
▁Arts	-11.3896
nNotes	-11.3897
Configuration	-11.3899
▁cornea	-11.3899
face	-11.39
▁Pan	-11.39
Collection	-11.3903
▁arteries	-11.3903
▁busy	-11.3903
four	-11.3904
▁truth	-11.3905
▁Bob	-11.3908
player	-11.3909
▁doctor	-11.3912
▁employee	-11.3914
28	-11.3915
▁sensors	-11.3916
▁cavity	-11.3919
▁extracts	-11.392
grade	-11.3921
▁illegal	-11.3923
▁Map	-11.3924
▁Energy	-11.3925
▁efficiently	-11.3932
▁favor	-11.3933
before	-11.3933
▁acquisition	-11.3934
95	-11.3936
▁anchor	-11.3937
▁byte	-11.3943
▁merge	-11.3946
▁React	-11.3947
▁faculty	-11.3948
▁specialize	-11.3952
▁Greek	-11.3962
▁poorly	-11.3963
▁nitri	-11.3965
▁disabled	-11.3965
amp	-11.3967
{1}{	-11.3975
▁genotype	-11.3981
pathic	-11.3984
▁cycles	-11.3984
▁styles	-11.3986
▁Compare	-11.3989
Template	-11.3991
▁lip	-11.3991
▁%}\	-11.3995
▁2016.	-11.3995
▁39	-11.3995
▁bunch	-11.3996
▁powder	-11.3998
▁privacy	-11.3998
▁throws	-11.3999
▁Find	-11.4002
▁Search	-11.4002
▁Esche	-11.4002
▁cancers	-11.4003
▁compiled	-11.4006
▁actors	-11.4008
uteri	-11.401
angle	-11.4021
▁Policy	-11.4021
▁Standard	-11.4022
-1\	-11.4023
▁Lu	-11.4024
▁neurological	-11.4025
ext	-11.4027
76	-11.4028
▁scenario	-11.403
▁advances	-11.4031
▁18,	-11.4032
▁religious	-11.4033
▁advertising	-11.4034
MR	-11.4035
▁encountered	-11.4037
full	-11.4037
▁socio	-11.4037
microsoft	-11.4037
▁catheter	-11.4038
Without	-11.4038
▁-->\	-11.4038
▁crew	-11.4039
▁hate	-11.404
▁Age	-11.404
▁cyto	-11.4042
submit	-11.4045
▁neighborhood	-11.405
▁colorectal	-11.4053
▁horse	-11.4054
nested	-11.4055
▁tutorial	-11.4055
▁Eastern	-11.4056
▁queries	-11.4062
▁Administration	-11.4062
▁amplitude	-11.4063
▁Ontario	-11.4067
losing	-11.407
3002\	-11.407
▁cataly	-11.4074
instance	-11.4074
▁solved	-11.4076
Update	-11.4081
▁arrangement	-11.4082
▁moves	-11.4083
▁sequencing	-11.4084
▁aggregation	-11.4088
▁Work	-11.4088
▁methyl	-11.4091
0107	-11.4093
▁Scotland	-11.4095
▁joining	-11.4096
-3-	-11.41
▁Instagram	-11.41
▁fragments	-11.4101
▁Market	-11.4101
wiki	-11.4102
Binding	-11.4103
▁kinetics	-11.4108
▁backup	-11.4109
obese	-11.4113
▁cyclic	-11.4113
▁DO	-11.4115
▁readers	-11.4117
▁picke	-11.4117
ame	-11.4124
season	-11.4128
▁sensory	-11.4129
[2]	-11.4131
Last	-11.4136
0435	-11.4137
Header	-11.4138
BL	-11.4138
▁Six	-11.4138
▁positively	-11.4139
▁Plus	-11.4143
▁labels	-11.4143
▁osteo	-11.4153
▁Manager	-11.4155
▁adjusted	-11.4156
▁acceptable	-11.4158
vec	-11.416
▁collaboration	-11.4162
▁validity	-11.4163
▁histological	-11.4165
▁primari	-11.4166
have	-11.4166
▁stands	-11.4168
▁0.0	-11.4169
▁suite	-11.417
▁attenuate	-11.417
▁Colorado	-11.4171
▁recipients	-11.4172
ich	-11.4173
▁Tim	-11.4173
▁guidance	-11.4174
▁conservative	-11.4178
51	-11.4184
real	-11.4188
▁utiliz	-11.419
SQL	-11.4191
private	-11.4193
▁ease	-11.4193
▁Bat	-11.4194
▁ancient	-11.4195
▁plain	-11.4195
Between	-11.4196
corporate	-11.4197
▁bias	-11.4205
▁boat	-11.421
99	-11.4211
▁loan	-11.4211
▁roots	-11.4215
▁requested	-11.4218
▁personality	-11.4218
▁"\"	-11.422
double	-11.4224
▁portal	-11.4225
▁rehabilitation	-11.4226
▁await	-11.4227
▁Secretary	-11.4231
▁VS	-11.4231
▁2017\	-11.4238
▁1993	-11.4241
▁adsorption	-11.4242
▁explored	-11.4243
▁instruments	-11.4247
▁plaque	-11.4248
▁overview	-11.4249
▁Have	-11.4258
▁2015.	-11.4261
▁HLA	-11.4261
lysis	-11.4262
ogenic	-11.4263
▁principles	-11.4263
After	-11.4263
▁reset	-11.4264
▁melanoma	-11.4265
▁weapons	-11.4266
PG	-11.4267
▁nurse	-11.4269
▁dollars	-11.4275
pur	-11.4275
▁2018.	-11.4276
▁proceed	-11.4277
RNA	-11.4282
▁Har	-11.4285
incorporated	-11.4286
▁reveals	-11.4288
▁guests	-11.4288
cranial	-11.4289
▁investigating	-11.429
nAdd	-11.4291
controller	-11.4291
▁pr	-11.4294
▁Index	-11.4295
▁2013.	-11.4295
▁pulled	-11.4299
▁Total	-11.4301
▁circle	-11.4302
temp	-11.4303
▁prevented	-11.4304
▁mothers	-11.4304
▁bright	-11.4305
▁Oregon	-11.4308
▁DA	-11.4309
meter	-11.4309
▁12-	-11.4309
hello	-11.431
▁succeed	-11.4312
▁till	-11.4313
▁embedded	-11.4315
▁indices	-11.4321
▁smoke	-11.4322
such	-11.4323
▁RE	-11.4327
▁paste	-11.4328
ware	-11.4328
▁perfusion	-11.4328
▁websites	-11.4328
▁belong	-11.4329
%)	-11.4333
▁ABC	-11.4336
Unit	-11.4337
▁alongside	-11.4339
▁Pay	-11.4339
45	-11.4345
▁offset	-11.4346
▁peace	-11.4346
▁slot	-11.4346
border	-11.4346
FF	-11.4347
▁2014.	-11.4353
▁markets	-11.4354
\"){.	-11.4354
defined	-11.4356
▁evaluat	-11.4358
▁somehow	-11.4362
▁modeling	-11.4363
▁warranty	-11.4366
▁insights	-11.4368
▁routes	-11.4368
Store	-11.4372
▁courses	-11.4372
▁lipoprotein	-11.4372
▁studying	-11.4373
▁monitored	-11.4377
▁manag	-11.438
▁separately	-11.4383
power	-11.4383
▁Blood	-11.4385
▁Before	-11.4385
▁Taylor	-11.4388
▁adjustment	-11.4393
▁grant	-11.4399
plugin	-11.44
▁visitors	-11.4403
▁21,	-11.4403
▁configure	-11.4405
▁ignore	-11.4409
▁TB	-11.4411
▁phones	-11.4414
▁difficulties	-11.4414
▁Jackson	-11.4416
▁trading	-11.442
plastic	-11.4421
▁GC	-11.4421
connect	-11.4427
lone	-11.4428
▁modes	-11.443
▁posting	-11.4434
▁qualitative	-11.4434
▁writers	-11.4436
▁nasal	-11.4437
▁graphics	-11.4439
▁strip	-11.4441
icular	-11.4441
atic	-11.4443
▁zinc	-11.4444
▁blank	-11.4446
▁crowd	-11.4449
assert	-11.4451
▁possess	-11.4455
▁derivative	-11.4459
▁priority	-11.446
▁heating	-11.4466
quality	-11.4467
▁surprise	-11.4469
▁adapted	-11.4469
▁capabilities	-11.4471
▁About	-11.4473
▁deposition	-11.4476
▁duct	-11.4479
phosphate	-11.4479
▁circuits	-11.4479
▁stimulus	-11.448
schema	-11.4483
nPolice	-11.4484
release	-11.4484
nmodule	-11.4486
nJohn	-11.4486
▁rooms	-11.4486
▁bovi	-11.4487
▁entertainment	-11.4487
▁antibiotics	-11.4488
▁Case	-11.449
▁turning	-11.4491
nwhere	-11.4495
▁microg	-11.4496
▁odd	-11.4496
Child	-11.4496
▁beach	-11.4496
▁medalists	-11.4496
See	-11.4497
▁biology	-11.4497
▁restore	-11.4499
▁horizontal	-11.4499
▁tuberculosis	-11.4502
▁kernel	-11.4502
▁disturbance	-11.4504
▁baseball	-11.4504
PO	-11.4505
▁circumstances	-11.4505
▁SH	-11.4507
▁attractive	-11.4512
▁saving	-11.4512
▁rarely	-11.4518
▁Cro	-11.452
ably	-11.4522
▁CPU	-11.4523
nprivate	-11.4529
anti	-11.4531
regulated	-11.4531
John	-11.4535
making	-11.4535
▁2010.	-11.4537
▁functioning	-11.4537
▁adapt	-11.4539
▁lifestyle	-11.454
etal	-11.4542
▁Right	-11.4543
▁dopamine	-11.4545
▁tough	-11.4548
▁vice	-11.4549
▁addressed	-11.455
▁dimension	-11.4552
▁speaking	-11.4553
▁micrograms	-11.4553
small	-11.4554
▁automated	-11.4554
▁concepts	-11.4557
▁judgment	-11.4557
normal	-11.4559
stop	-11.4562
▁tomorrow	-11.4563
func	-11.4564
▁encounter	-11.457
▁obstruction	-11.4573
▁planet	-11.4573
▁dictionary	-11.4575
▁leaf	-11.4576
▁Creek	-11.4578
\\\\\	-11.4579
▁viruses	-11.458
▁NMR	-11.4583
▁lifetime	-11.4587
▁reproductive	-11.4597
011	-11.4597
▁Harris	-11.46
▁designate	-11.4601
▁meal	-11.4602
▁translate	-11.4606
▁implantation	-11.4607
params	-11.4608
▁professor	-11.4609
▁hosts	-11.461
▁finite	-11.4612
▁SELECT	-11.4612
▁promot	-11.4614
▁champion	-11.4616
▁organized	-11.462
▁Sweden	-11.462
▁elicit	-11.462
▁autoimmun	-11.4624
nLook	-11.4624
▁Ministry	-11.4626
▁BBC	-11.4628
▁initiation	-11.4628
guide	-11.463
stack	-11.4634
global	-11.4636
▁desire	-11.464
▁institution	-11.4642
peritoneal	-11.4644
▁agencies	-11.4646
▁SE	-11.4646
▁resolved	-11.4648
▁singles	-11.4648
cloud	-11.4649
▁nucleotide	-11.465
try	-11.4653
shire	-11.4656
bottom	-11.4656
▁subunit	-11.4656
emic	-11.4656
▁loads	-11.4656
▁dealing	-11.4659
▁votes	-11.4664
▁mask	-11.4665
]);\	-11.4665
▁22,	-11.4674
kin	-11.4674
▁titles	-11.4677
mysql	-11.468
▁substances	-11.468
▁legend	-11.4683
▁monthly	-11.4685
▁Massachusetts	-11.4686
▁distinguish	-11.4686
VERSION	-11.4688
▁Rose	-11.4691
insert	-11.4691
################	-11.4692
▁regularly	-11.4694
▁Hong	-11.4695
▁contemporar	-11.4698
▁telling	-11.4698
▁username	-11.4698
▁25,	-11.4702
▁Future	-11.4708
▁garden	-11.4716
▁diagnose	-11.4718
▁Express	-11.4723
▁JOIN	-11.4723
fill	-11.4725
person	-11.4727
▁COURT	-11.4729
▁Point	-11.4734
▁commitment	-11.4734
Grid	-11.474
▁restart	-11.474
012	-11.474
stock	-11.4741
▁Marc	-11.4743
▁Where	-11.4746
▁protocols	-11.4752
▁Eight	-11.4753
▁%>\	-11.4754
▁emphasis	-11.4755
▁Democrats	-11.4755
▁ortho	-11.4755
▁Hu	-11.4757
coated	-11.4758
▁focusing	-11.476
▁museum	-11.4762
▁contributions	-11.4766
activity	-11.4769
▁17,	-11.477
86	-11.4773
▁entering	-11.4774
▁Houston	-11.4778
gate	-11.4782
▁stimulate	-11.4782
▁broke	-11.4783
Case	-11.4788
▁19,	-11.4789
ready	-11.4791
▁confused	-11.4791
'],	-11.4792
linux	-11.4795
▁Ryan	-11.4797
sibility	-11.4801
▁buying	-11.4801
▁Mountain	-11.4804
▁vocals	-11.4809
▁tension	-11.4811
▁Share	-11.4811
▁recall	-11.4812
▁accord	-11.4813
▁1984	-11.4813
▁reporter	-11.4814
▁AF	-11.4815
▁Disney	-11.4815
▁cream	-11.4817
2;\	-11.4818
▁24-	-11.4818
▁eliminate	-11.4818
zed	-11.4819
▁fired	-11.4821
Address	-11.4822
Long	-11.4823
▁stronger	-11.4824
nExample	-11.4825
▁sharp	-11.4825
▁24,	-11.4828
-19	-11.483
Foreign	-11.4831
▁PURPOSE	-11.4831
▁simultaneous	-11.4835
▁Attorney	-11.4837
▁birds	-11.4839
▁guarantee	-11.4845
▁Matt	-11.4846
echo	-11.4847
▁MD	-11.4848
▁festival	-11.4849
▁shoulder	-11.485
▁ch	-11.4854
send	-11.4855
▁investor	-11.4859
▁Sp	-11.4861
onic	-11.4863
nWell	-11.4864
▁hire	-11.4867
National	-11.4868
▁Netherlands	-11.4869
inch	-11.4871
▁citizens	-11.4874
▁dialog	-11.4884
▁curves	-11.4884
▁adopted	-11.4884
-8\"?>\	-11.4885
▁odds	-11.4893
sized	-11.4896
▁combinations	-11.4896
therapy	-11.4896
German	-11.4899
▁rice	-11.4899
▁blow	-11.4903
▁Iowa	-11.4906
Current	-11.4909
▁Far	-11.4911
Settings	-11.4914
▁utilization	-11.4914
▁Cal	-11.4919
▁tooth	-11.4921
▁interactive	-11.4922
▁belt	-11.4922
▁fever	-11.4923
nClick	-11.4923
Show	-11.4925
auth	-11.4926
▁occlusion	-11.4926
▁boxes	-11.4929
▁announce	-11.493
zure	-11.4931
ball	-11.4931
▁donors	-11.4934
reference	-11.4935
EC	-11.4936
▁breaking	-11.4939
▁analog	-11.4939
▁reaching	-11.4941
▁disability	-11.4942
▁scientists	-11.4943
Could	-11.4943
▁worst	-11.4951
shell	-11.4952
▁vital	-11.4953
▁GP	-11.4954
Block	-11.4955
plus	-11.4961
▁birthday	-11.4963
▁searched	-11.4964
▁vari	-11.4965
▁capability	-11.4965
▁Through	-11.4965
▁factory	-11.4969
▁lighting	-11.4973
▁cDNA	-11.4974
▁architect	-11.4975
Host	-11.4976
▁forest	-11.4978
▁cooling	-11.4978
▁hurt	-11.4978
channel	-11.4979
▁mistake	-11.498
▁weird	-11.4981
▁formal	-11.4984
▁pointed	-11.4987
▁indicator	-11.4988
▁eggs	-11.4991
▁stenosis	-11.4992
▁Cell	-11.4992
▁signing	-11.4992
Members	-11.4994
▁rose	-11.4995
▁Swedish	-11.4995
▁interleukin	-11.4997
▁visiting	-11.4998
▁chains	-11.5006
▁recipe	-11.5007
▁Para	-11.5009
▁quotes	-11.5011
▁coil	-11.5012
▁skill	-11.5013
▁mobility	-11.5013
ating	-11.5016
▁gay	-11.5017
▁municipal	-11.502
▁myelo	-11.502
Two	-11.5024
▁mutants	-11.5027
▁cytokine	-11.5028
Height	-11.5029
▁[3	-11.5029
▁Maybe	-11.503
loop	-11.5031
▁ALL	-11.5033
mar	-11.5034
29	-11.5034
▁portions	-11.5038
▁variance	-11.5039
▁passes	-11.504
jsfiddle	-11.5041
▁schizophrenia	-11.5042
▁ingredients	-11.5044
▁gaine	-11.5044
▁Alex	-11.5044
▁Price	-11.5044
being	-11.5048
▁Final	-11.5049
▁outdoor	-11.5051
▁integrity	-11.5052
▁screw	-11.5053
▁Port	-11.5057
▁radiotherapy	-11.5057
▁LED	-11.5057
ionic	-11.5059
▁clip	-11.5061
▁HP	-11.5062
▁symptom	-11.5063
debug	-11.5064
IN	-11.5065
Json	-11.5066
Connection	-11.5074
▁approval	-11.5076
▁RF	-11.5078
▁TH	-11.5079
▁blend	-11.5079
▁$_	-11.508
▁conserve	-11.5081
▁hits	-11.5084
']\	-11.5084
▁Cloud	-11.5084
▁spectral	-11.5085
Build	-11.5085
▁calendar	-11.5085
▁wing	-11.5087
▁actress	-11.509
▁archive	-11.5091
▁plug	-11.5093
▁Card	-11.5093
▁cyst	-11.5097
▁chapter	-11.5098
▁politics	-11.51
French	-11.5101
▁optimization	-11.5101
▁Unfortunately	-11.5105
▁Place	-11.5107
▁estrogen	-11.5107
▁teachers	-11.5108
frequency	-11.5109
▁rhythm	-11.511
▁Site	-11.511
▁bu	-11.5111
26	-11.5113
rest	-11.5113
portspeople	-11.5114
uria	-11.5115
▁mammal	-11.5115
▁kit	-11.5116
ston	-11.512
:10	-11.5126
▁cats	-11.5126
▁PO	-11.5129
Video	-11.5129
require	-11.5131
▁bottle	-11.5131
▁painting	-11.5132
exec	-11.5132
▁23,	-11.5133
▁Township	-11.5134
▁iPad	-11.5135
▁carefully	-11.5135
▁tyrosin	-11.5136
▁Trans	-11.5137
▁surround	-11.5139
differentiated	-11.5139
track	-11.5139
▁filling	-11.514
och	-11.5142
▁organisms	-11.5144
▁vast	-11.5145
▁spine	-11.5149
▁Indiana	-11.515
Both	-11.5151
▁2017,	-11.5153
▁intelligence	-11.5154
Village	-11.5156
▁widespread	-11.5156
▁constitute	-11.5158
4+	-11.5161
▁bass	-11.5166
five	-11.5169
▁accurately	-11.517
▁implements	-11.5171
▁certificate	-11.5172
[[	-11.5174
▁Arizona	-11.5174
prop	-11.5175
▁sulfate	-11.518
▁mold	-11.5181
▁mirror	-11.5184
▁jail	-11.5186
34	-11.5186
▁eligible	-11.5188
▁guard	-11.5188
▁controversial	-11.519
▁reasonable	-11.5191
▁scoring	-11.5192
▁campus	-11.5196
96	-11.5199
▁evident	-11.52
aria	-11.5204
▁relaxation	-11.5204
▁databases	-11.5204
▁tap	-11.5205
▁dinner	-11.5207
▁thick	-11.5209
▁suppressed	-11.5209
EF	-11.5212
▁1988	-11.5215
nShare	-11.5219
▁Jeff	-11.5222
microbial	-11.5223
▁streets	-11.5225
Abstract	-11.5225
▁combat	-11.5227
▁HN	-11.5227
▁"![](	-11.5228
speed	-11.523
▁modifications	-11.5234
▁editing	-11.5235
▁Guide	-11.5236
▁tech	-11.5237
rimarily	-11.5238
just	-11.5238
▁SR	-11.524
▁socket	-11.5244
▁fabric	-11.5245
(4)	-11.5245
▁damaged	-11.525
▁28,	-11.5251
▁SF	-11.5251
▁Missouri	-11.5252
▁Bur	-11.5256
JS	-11.5258
treatment	-11.5259
▁shoot	-11.526
▁comprising	-11.5261
▁fractions	-11.5261
▁wrap	-11.5263
▁ref	-11.5264
▁phases	-11.5264
75	-11.5265
▁HC	-11.5267
▁distress	-11.5268
raw	-11.5269
▁suspension	-11.527
▁selector	-11.5271
▁AV	-11.5272
ski	-11.5272
utils	-11.5274
▁petition	-11.5276
clinical	-11.5279
▁awards	-11.528
▁Season	-11.5281
▁angular	-11.5283
▁breath	-11.5285
▁Kim	-11.5287
54	-11.5289
▁Math	-11.5295
▁dementia	-11.5297
▁>>	-11.5298
▁hybridization	-11.5299
▁uni	-11.53
▁Hot	-11.5304
▁Database	-11.5306
▁cheese	-11.5306
▁Ball	-11.531
▁transparent	-11.5311
▁concert	-11.5311
▁declare	-11.5311
▁MERCHANTABILITY	-11.5313
▁infectious	-11.5314
7684	-11.5315
▁methodology	-11.5318
▁gem	-11.5318
▁SS	-11.5318
assembly	-11.5322
delete	-11.5322
▁spoke	-11.5324
▁52	-11.5325
▁rep	-11.5325
Output	-11.5331
{%	-11.5338
ward	-11.5339
▁Latin	-11.5339
share	-11.5339
▁TR	-11.534
▁clone	-11.5342
▁excretion	-11.5343
▁slowly	-11.5346
eval	-11.535
▁dynamically	-11.535
▁Single	-11.5354
▁pig	-11.5355
▁Rights	-11.5356
▁bowel	-11.5358
green	-11.5359
1\"	-11.5359
▁pen	-11.536
schemas	-11.5361
▁MB	-11.5365
▁dust	-11.537
thread	-11.537
▁participat	-11.537
▁incubation	-11.5371
▁explains	-11.5373
▁Yes	-11.5376
nWhich	-11.5378
▁fitness	-11.5379
▁1960	-11.538
▁marks	-11.5382
fire	-11.5383
▁processor	-11.5385
sudo	-11.5386
▁(18	-11.5387
▁Drive	-11.5387
▁equip	-11.5389
▁Low	-11.539
Station	-11.5391
▁choices	-11.5393
▁waves	-11.5394
craft	-11.5394
▁manifest	-11.5395
cute	-11.5396
▁decreas	-11.5397
▁admin	-11.5398
▁Due	-11.54
British	-11.5401
▁2012.	-11.5401
▁Country	-11.5401
▁steady	-11.5403
▁albumin	-11.5404
▁intense	-11.5404
▁assets	-11.5405
▁emerged	-11.5416
▁fiction	-11.5417
▁stent	-11.5417
▁Andrew	-11.5418
▁steroid	-11.5418
▁endoscopic	-11.542
▁volumes	-11.5421
▁quantity	-11.5422
▁rank	-11.5424
▁fixation	-11.5428
▁attorney	-11.543
▁delta	-11.5433
Edit	-11.5437
▁"/*	-11.5438
▁journal	-11.544
▁miR	-11.5443
)]\	-11.5444
mount	-11.5444
▁Feb	-11.5446
mark	-11.5447
▁Joseph	-11.5447
▁arr	-11.5447
▁0.01	-11.5449
▁trick	-11.5449
▁grass	-11.5451
▁30%	-11.5452
▁chloride	-11.5453
▁plasmid	-11.5457
▁accumulate	-11.546
▁Henry	-11.546
▁publish	-11.5466
▁realized	-11.5466
▁inspiration	-11.5467
Use	-11.5468
▁hosting	-11.5469
▁feels	-11.547
▁argue	-11.5472
eastern	-11.5473
▁eastern	-11.5476
▁anymore	-11.5478
▁magic	-11.5481
High	-11.5481
sample	-11.5485
▁predictors	-11.5489
▁saline	-11.5492
▁shaft	-11.5494
▁directions	-11.5495
▁59	-11.5499
▁resident	-11.55
▁naturally	-11.55
Buffer	-11.5502
▁excessive	-11.5503
Moth	-11.5506
▁seats	-11.5506
▁Document	-11.5508
▁antimicrobial	-11.551
wrap	-11.5513
▁NP	-11.5514
▁championship	-11.5517
nLike	-11.5523
▁careful	-11.5525
▁Ltd	-11.5527
pine	-11.5528
minute	-11.5528
▁pitch	-11.553
▁27,	-11.553
▁attach	-11.5531
▁gli	-11.5532
▁spokesman	-11.5536
▁2013\	-11.5536
▁intent	-11.5537
trans	-11.5537
Menu	-11.5543
▁antenna	-11.5543
▁schema	-11.5551
▁$$	-11.5557
▁comic	-11.5557
install	-11.5558
▁TABLE	-11.5559
▁init	-11.556
▁junction	-11.556
virus	-11.5561
▁vaccination	-11.5561
▁bile	-11.5563
▁GH	-11.5566
▁customize	-11.557
▁vectors	-11.557
▁Level	-11.5572
soccer	-11.5573
Task	-11.5573
▁atmosphere	-11.5574
▁Queen	-11.5574
▁Medicine	-11.5575
▁encode	-11.5582
▁logistic	-11.5582
▁Box	-11.5583
▁thorac	-11.5583
▁millions	-11.5585
▁circulation	-11.5586
▁Hotel	-11.5586
35	-11.5588
▁golf	-11.5589
But	-11.559
▁duplicate	-11.5591
None	-11.5593
▁kinetic	-11.5595
factory	-11.5597
▁moth	-11.5601
▁Col	-11.5602
David	-11.5606
▁houses	-11.5606
▁preparations	-11.5606
discrimination	-11.5609
▁Mobile	-11.5612
▁printf	-11.5612
▁54	-11.5612
either	-11.5613
▁edges	-11.5616
▁Sky	-11.5617
▁Stadium	-11.562
---	-11.5621
▁Short	-11.5621
That	-11.5621
▁influenza	-11.5623
▁Continue	-11.5626
▁estimation	-11.5628
▁focuse	-11.5628
▁ME	-11.563
▁VM	-11.563
▁Content	-11.5632
▁TC	-11.5632
▁rec	-11.5634
EN	-11.5635
▁gaming	-11.5635
▁Bu	-11.5637
▁Environment	-11.5639
▁notification	-11.5639
▁Bad	-11.5641
▁clarify	-11.5643
▁increment	-11.5652
▁immunity	-11.5653
▁grab	-11.5653
apply	-11.5654
▁revenue	-11.5655
▁allele	-11.5657
▁Chi	-11.5657
▁Mexican	-11.5659
aldehyde	-11.566
....	-11.5662
▁EB	-11.5662
▁adventure	-11.5663
▁regimen	-11.5664
▁optional	-11.5666
▁Recent	-11.5668
▁apartment	-11.5668
▁surname	-11.5669
apple	-11.5669
▁alignment	-11.5671
cout	-11.5674
▁accomplish	-11.5676
▁Limit	-11.5677
▁habitat	-11.5678
▁legs	-11.5683
▁founder	-11.5684
▁Davis	-11.5685
2).	-11.5687
▁Has	-11.5688
▁solvent	-11.5689
aspx	-11.569
---\	-11.5691
▁Railway	-11.5694
▁contacts	-11.5698
selected	-11.57
▁slight	-11.57
device	-11.5701
▁authentication	-11.5703
▁filters	-11.5703
2015	-11.5706
▁legislation	-11.5709
▁Alzheimer	-11.571
▁defeat	-11.5711
▁Stone	-11.5714
▁transmitte	-11.5715
▁analytical	-11.5715
▁GM	-11.5716
▁evolve	-11.572
done	-11.572
▁universal	-11.5721
1)\	-11.5721
raising	-11.5722
▁flap	-11.5722
▁Ser	-11.5723
▁ASP	-11.5731
disciplin	-11.5731
▁ventilation	-11.5731
World	-11.5732
▁flowers	-11.5732
▁cur	-11.5733
Items	-11.5735
access	-11.5736
{\"	-11.5739
symptomatic	-11.5739
▁combin	-11.5741
▁GL	-11.5743
▁doctors	-11.5744
▁SM	-11.5745
▁allocate	-11.5748
▁ES	-11.575
▁qualified	-11.575
▁burn	-11.5752
▁Ray	-11.5754
▁concrete	-11.5755
▁circula	-11.5756
▁Message	-11.5757
▁Sound	-11.5758
LIB	-11.5759
▁shut	-11.5759
ates	-11.576
nrequire	-11.5761
Films	-11.5761
▁flower	-11.5763
nstruct	-11.5765
▁SV	-11.5766
▁visits	-11.5767
▁ratings	-11.5768
wall	-11.5769
▁namely	-11.5769
▁anesthesia	-11.5774
▁chose	-11.5775
▁alive	-11.5775
▁epithelium	-11.5775
07	-11.5776
▁contest	-11.5783
▁Bowl	-11.5783
-----	-11.5784
▁1.6	-11.5788
▁CF	-11.579
▁Gal	-11.5791
▁ver	-11.5794
▁#1	-11.5796
▁foundation	-11.5797
▁Xbox	-11.5798
▁Battle	-11.5803
▁WARRANTY	-11.5804
▁innovation	-11.5809
▁voters	-11.5814
▁47	-11.5815
▁FM	-11.5815
Did	-11.5816
More	-11.5819
chondr	-11.5821
About	-11.5823
▁cameras	-11.5824
▁dehydrogenase	-11.5825
▁stereo	-11.5826
▁needle	-11.5827
▁simulations	-11.5831
▁Civil	-11.5833
016	-11.5834
▁Max	-11.5834
▁tiny	-11.5836
▁seriously	-11.5837
▁THIS	-11.5839
▁tobacco	-11.5841
▁600	-11.5844
hand	-11.5844
▁pour	-11.5846
▁embryos	-11.5849
▁reflection	-11.5849
▁manufacturer	-11.5851
Panel	-11.5854
sch	-11.586
▁sql	-11.5865
▁justice	-11.5866
mid	-11.5866
▁SDK	-11.5868
▁principle	-11.5868
▁assistant	-11.5868
▁Net	-11.5869
\"],	-11.5873
▁relate	-11.5875
91	-11.5877
Microsoft	-11.5877
Home	-11.5878
Debug	-11.588
nDon	-11.5881
▁lawyer	-11.5884
resources	-11.5885
▁reversed	-11.5885
bash	-11.5888
▁ligands	-11.5891
▁hepato	-11.5892
▁managers	-11.5897
▁Sydney	-11.5898
67	-11.5904
END	-11.5906
▁inline	-11.5907
▁Download	-11.5909
▁Images	-11.5913
systolic	-11.5916
▁electrophoresis	-11.5918
▁Should	-11.5923
blue	-11.593
▁encoded	-11.5932
▁(19	-11.5932
▁cytotoxic	-11.5932
▁relat	-11.5933
57\	-11.5935
?>\	-11.5935
▁DR	-11.5936
▁1.1	-11.5936
▁2018\	-11.5936
axis	-11.5937
▁pigs	-11.5946
front	-11.5947
▁quiet	-11.5949
▁expertise	-11.5951
▁achiev	-11.5951
▁SA	-11.5953
▁Agency	-11.5953
▁bits	-11.5954
▁Kansas	-11.5955
ugby	-11.5959
▁$('#	-11.5959
▁diffuse	-11.5961
▁carriers	-11.5962
▁Bell	-11.5967
▁Ph	-11.5968
▁deletion	-11.5968
▁Update	-11.5972
▁crazy	-11.5973
▁Edition	-11.5973
▁appearances	-11.5973
nUpdate	-11.5974
▁twenty	-11.5979
▁pharmacological	-11.5979
▁90%	-11.598
▁pot	-11.5981
▁Alabama	-11.5982
▁fibroblasts	-11.5983
▁assumed	-11.5984
▁180	-11.5985
▁Fair	-11.5985
Local	-11.5986
▁'./	-11.5988
▁sympath	-11.5989
nOf	-11.5989
▁unexpected	-11.5991
=1}	-11.5992
Listener	-11.5994
▁destroy	-11.5995
▁mellitus	-11.5995
▁acoustic	-11.5997
▁hemorrhage	-11.5997
▁Aug	-11.5999
▁supplied	-11.6
▁agonist	-11.6003
▁mal	-11.6005
▁hypoxia	-11.6005
▁Nick	-11.6006
▁gallery	-11.6007
▁flex	-11.6011
article	-11.6011
▁thereof	-11.6011
▁comparative	-11.6014
nResults	-11.6015
▁placenta	-11.6015
▁foods	-11.6017
▁explicitly	-11.6018
▁0.05	-11.6019
▁cooking	-11.6019
&#	-11.602
▁laparoscop	-11.602
▁blot	-11.6022
44	-11.6027
▁contributing	-11.6028
▁reproduce	-11.6029
▁PT	-11.6029
Expression	-11.6031
▁belongs	-11.6033
▁traits	-11.6034
▁Wars	-11.6038
▁29,	-11.6039
▁equally	-11.6041
▁$4	-11.6041
▁sero	-11.6041
price	-11.6042
PE	-11.6042
TEST	-11.6043
Change	-11.6045
▁Square	-11.6046
▁influences	-11.6047
▁queue	-11.6048
idad	-11.6049
▁fantastic	-11.6049
89	-11.605
▁suspended	-11.6051
ivity	-11.6052
▁mol	-11.6053
Position	-11.6054
▁dye	-11.6054
!!!	-11.6058
▁correlations	-11.6059
nCareer	-11.606
Reference	-11.606
▁breaks	-11.6062
▁bid	-11.6063
▁transcriptional	-11.6065
▁arbitr	-11.6065
buffer	-11.6065
▁paths	-11.6065
▁Wilson	-11.6066
▁indirect	-11.6066
bmed	-11.6066
typical	-11.6067
▁fees	-11.6068
▁integrate	-11.6075
had	-11.6081
66	-11.6082
Technical	-11.6087
task	-11.6089
▁visited	-11.6092
▁Route	-11.6093
iness	-11.6101
82	-11.6102
▁engines	-11.6102
was	-11.6102
▁cytochrome	-11.6103
73	-11.6103
▁mere	-11.6104
▁clusters	-11.6105
something	-11.6105
▁algorithms	-11.6108
▁restrict	-11.6109
Body	-11.611
▁Pol	-11.6111
▁refers	-11.6111
▁Ali	-11.6111
▁runtime	-11.6113
▁endo	-11.6115
▁epilepsy	-11.6116
pop	-11.6118
▁streaming	-11.6118
▁attempting	-11.6118
▁Senior	-11.6118
▁Manchester	-11.6119
▁losses	-11.6119
▁enjoyed	-11.6121
▁optimized	-11.6121
cerebell	-11.6122
har	-11.6124
Man	-11.6125
▁Dark	-11.6126
▁mood	-11.6127
▁continuously	-11.6129
-17	-11.6129
\"]\	-11.613
▁5%	-11.6132
Dialog	-11.6132
custom	-11.6133
79	-11.6134
▁Survey	-11.6138
▁AR	-11.6143
Integer	-11.6146
▁implementing	-11.6146
▁proxy	-11.6148
▁tackle	-11.615
▁generator	-11.6151
▁femora	-11.6151
▁preference	-11.6153
vidence	-11.6154
▁qualify	-11.6155
Your	-11.6157
ToString	-11.6158
88	-11.6159
driver	-11.6163
nHis	-11.6165
▁passive	-11.6166
threatening	-11.6167
Cache	-11.6168
▁Current	-11.6168
▁ending	-11.617
▁ORDER	-11.6173
▁contra	-11.6176
▁slide	-11.6177
▁connector	-11.6177
▁detector	-11.6177
bool	-11.6177
truck	-11.6178
▁pronounced	-11.618
Bag	-11.618
▁Way	-11.6181
▁solo	-11.6186
▁Eric	-11.6188
▁opposed	-11.6189
▁UN	-11.6189
Null	-11.6189
ME	-11.6191
▁95	-11.6192
0);\	-11.6197
▁bath	-11.6197
buf	-11.6199
▁Fund	-11.6201
▁Lewis	-11.6202
▁docs	-11.6203
▁stretch	-11.6203
▁consent	-11.6208
Http	-11.6209
toString	-11.621
otic	-11.621
▁supplement	-11.621
▁prematur	-11.6212
▁Log	-11.6213
▁calculation	-11.6214
▁align	-11.6217
fused	-11.6218
▁loose	-11.6219
▁Firefox	-11.6219
▁moments	-11.6222
▁56	-11.6226
▁adopt	-11.6226
Char	-11.6227
▁Hollywood	-11.6228
▁coating	-11.6229
▁$3	-11.623
comment	-11.6235
▁Sha	-11.6236
▁downloaded	-11.6237
▁Forest	-11.624
▁sheep	-11.6244
36	-11.6245
pos	-11.6247
▁brands	-11.625
member	-11.625
cut	-11.6252
▁lift	-11.6254
▁employment	-11.6255
blocking	-11.6256
law	-11.6259
▁1.3	-11.626
▁intrinsic	-11.6261
▁declaration	-11.6262
▁esophag	-11.6263
▁80%	-11.6263
▁retro	-11.6265
▁threads	-11.6265
▁entities	-11.6267
fetch	-11.6268
Auto	-11.6269
▁Eclipse	-11.627
Dir	-11.627
ber	-11.6271
▁supplies	-11.6273
▁synthase	-11.6274
▁MM	-11.6277
72	-11.6277
▁polymorphisms	-11.6279
}$$	-11.6279
invited	-11.628
▁Olympic	-11.6281
:21	-11.6283
55	-11.6285
Star	-11.6286
▁doors	-11.6289
lab	-11.6291
▁opinions	-11.6293
▁transportation	-11.6294
▁heads	-11.6294
ventricular	-11.6295
▁ER	-11.6296
▁labeled	-11.6297
evertheless	-11.6299
▁Story	-11.63
sky	-11.6302
resource	-11.6303
motor	-11.6304
▁Mass	-11.6307
▁PARTI	-11.6307
▁implants	-11.6309
▁concurrent	-11.6311
▁Fa	-11.6312
▁dorsal	-11.6312
▁precursor	-11.6312
▁CYP	-11.6314
▁bare	-11.6314
▁sera	-11.6315
▁Subject	-11.6316
▁everyday	-11.6317
genesis	-11.6321
▁branches	-11.6323
▁expressions	-11.6323
▁coefficients	-11.6328
48	-11.6329
▁sinus	-11.6329
Day	-11.6329
▁engagement	-11.6333
stimulated	-11.6333
▁NR	-11.6334
▁incredible	-11.6336
HTTP	-11.6336
▁holes	-11.6337
▁TM	-11.6337
▁shortly	-11.6337
ping	-11.6338
▁0.4	-11.6339
▁1991	-11.6341
west	-11.6341
▁curl	-11.6345
tags	-11.6346
▁winners	-11.6349
▁Event	-11.635
▁Philadelphia	-11.635
▁paying	-11.6355
▁Gar	-11.636
▁Delhi	-11.6361
▁Euro	-11.6362
▁SOFTWARE	-11.6363
▁wavelength	-11.6363
▁racing	-11.6364
▁Malaysia	-11.6369
▁storm	-11.6369
▁dispens	-11.6372
▁Sri	-11.6373
▁marijuana	-11.6375
▁Thirty	-11.6379
▁cheap	-11.6382
▁interests	-11.6383
▁rabbits	-11.6384
prefix	-11.6386
▁inverse	-11.6387
▁Nint	-11.6389
Photo	-11.639
▁lake	-11.6391
oral	-11.6394
▁dramatic	-11.6394
thio	-11.6395
▁instruction	-11.6396
▁prepar	-11.6397
▁heavi	-11.6399
▁Brian	-11.64
▁assignment	-11.6401
▁subscription	-11.6406
theme	-11.6408
▁convey	-11.641
▁shoes	-11.641
▁Norway	-11.6412
▁packaging	-11.6413
Container	-11.6414
▁Vol	-11.6418
▁flood	-11.6418
GR	-11.6425
▁luxur	-11.6426
▁Oracle	-11.6429
Access	-11.6429
<0.05)	-11.6431
nFurther	-11.6436
▁scales	-11.6436
▁Addiction	-11.6438
▁fatigue	-11.6438
123	-11.6439
inner	-11.644
▁dating	-11.644
▁scar	-11.6444
▁1989	-11.6445
▁listening	-11.6445
▁viability	-11.6446
▁PE	-11.6448
folder	-11.6449
▁pixel	-11.6455
Harry	-11.6455
▁incorporate	-11.6458
▁Samsung	-11.6461
phone	-11.6465
▁Foo	-11.6466
▁Account	-11.6468
University	-11.6469
▁0.3	-11.6478
▁invalid	-11.6478
▁2.1	-11.6479
ppler	-11.6483
▁Currently	-11.6483
bus	-11.6484
▁impressive	-11.6484
▁Custom	-11.6485
country	-11.6486
▁Change	-11.6488
▁Child	-11.649
Process	-11.649
Layer	-11.6495
▁Vi	-11.6495
▁1.2	-11.6503
▁conductiv	-11.651
▁YOU	-11.6512
▁ser	-11.6514
GP	-11.6518
▁laptop	-11.6519
▁WITH	-11.6526
▁tall	-11.6527
▁restoration	-11.6527
▁evoke	-11.6528
▁cursor	-11.6528
▁Plan	-11.6528
bility	-11.6529
▁cart	-11.653
▁susceptib	-11.653
▁Diego	-11.6531
▁minimize	-11.6534
poly	-11.6539
▁alumin	-11.6542
▁Unit	-11.6547
77	-11.6549
▁homo	-11.6549
ultivariate	-11.6552
▁Select	-11.6557
▁reactivity	-11.656
BUT	-11.656
ndemic	-11.6564
▁inputs	-11.6566
▁expectations	-11.6567
2265	-11.6568
▁Product	-11.6572
▁falls	-11.6572
cies	-11.6578
▁2009.	-11.658
▁preserve	-11.658
Widget	-11.658
▁anybody	-11.6582
▁Authors	-11.6586
receptor	-11.6588
nwhile	-11.6588
▁foreach	-11.6591
lihood	-11.6593
▁demands	-11.6594
▁flexibility	-11.6597
generated	-11.6598
▁undertaken	-11.66
▁cookie	-11.6602
Appeal	-11.6602
▁genera	-11.6602
para	-11.6604
histochemical	-11.6604
▁Miller	-11.6604
▁relapse	-11.6605
▁porn	-11.6608
▁cytotoxicity	-11.661
hide	-11.661
nAFFIRMED	-11.661
▁viewed	-11.6613
▁MT	-11.6613
▁Bra	-11.6614
▁1.4	-11.6616
▁wake	-11.6619
▁coordinates	-11.6623
▁passage	-11.6623
▁CV	-11.6624
▁Adam	-11.6628
▁phosphatase	-11.6629
▁Golden	-11.6629
=0;	-11.663
▁angiography	-11.6632
acetyl	-11.6633
▁fatal	-11.6634
▁constantly	-11.6637
▁explicit	-11.6639
▁99	-11.6639
False	-11.664
31	-11.664
Engine	-11.6644
▁$5	-11.6646
▁vi	-11.6646
▁Early	-11.6651
▁Sir	-11.6652
▁0.8	-11.6653
Internal	-11.6654
▁stomach	-11.6654
}{\\	-11.6654
drop	-11.6655
lical	-11.6658
▁AB	-11.6659
▁125	-11.6661
▁tumours	-11.6662
nWHERE	-11.6663
▁cartilage	-11.6664
\"><	-11.6664
▁ownership	-11.6665
▁Ab	-11.6667
▁worker	-11.6667
roughly	-11.6668
98	-11.6673
▁consequence	-11.6679
love	-11.668
ether	-11.6682
▁sys	-11.6683
▁2014\	-11.6684
▁7-	-11.6684
▁silicon	-11.6685
▁tweet	-11.6687
▁Miami	-11.6688
performance	-11.669
▁Highway	-11.6693
▁CL	-11.6693
▁Republicans	-11.6694
report	-11.6697
▁BSD	-11.6699
▁reputation	-11.67
▁potassium	-11.67
school	-11.6701
▁Christ	-11.6702
97	-11.6704
▁Las	-11.6704
▁Sign	-11.6705
▁Islands	-11.6705
even	-11.6706
▁opt	-11.6706
▁Javascript	-11.6708
('./	-11.6709
62	-11.6709
▁rupture	-11.6711
▁Min	-11.6712
▁plates	-11.6714
tex	-11.6719
▁Band	-11.672
nEnd	-11.6722
▁hypothesize	-11.6722
▁extending	-11.6723
▁dense	-11.6727
▁jet	-11.6729
▁hazard	-11.673
there	-11.6731
▁Help	-11.6738
rev	-11.674
▁opens	-11.6741
▁vibration	-11.6745
Max	-11.6747
Common	-11.6748
▁matters	-11.675
▁Hence	-11.6752
▁indication	-11.6756
▁hi	-11.6757
▁Kevin	-11.676
Now	-11.6761
logy	-11.6765
▁reform	-11.6765
▁negatively	-11.6766
▁Galaxy	-11.6767
▁Task	-11.6768
▁Ru	-11.6769
uch	-11.6769
ATPase	-11.6769
▁locus	-11.6769
▁implicated	-11.6771
▁forth	-11.6771
MV	-11.6774
▁silent	-11.6774
internal	-11.6776
meric	-11.6778
▁unlikely	-11.6781
lag	-11.6789
▁2016\	-11.6789
▁LLC	-11.679
party	-11.6792
▁headers	-11.6793
▁manufacture	-11.6795
erhaps	-11.6797
che	-11.6798
sex	-11.6799
▁chemistry	-11.68
▁recipient	-11.6803
▁Which	-11.6804
▁Node	-11.6809
▁talent	-11.6809
▁radial	-11.6809
enron	-11.681
▁Appellant	-11.6811
▁Jesus	-11.6813
-16	-11.6816
▁Seattle	-11.6818
▁substitution	-11.6819
▁frozen	-11.682
▁enforcement	-11.682
▁herself	-11.6826
▁operative	-11.6827
modal	-11.683
dist	-11.683
▁reward	-11.683
nFind	-11.6833
▁electrodes	-11.6833
final	-11.6833
▁AN	-11.6836
▁Kar	-11.6838
▁premium	-11.6838
▁initiated	-11.6838
▁enzymatic	-11.6839
▁guilty	-11.6839
▁suggestion	-11.6841
nHope	-11.6842
EEG	-11.6846
▁TGF	-11.6848
MRI	-11.6849
▁spirit	-11.685
▁triple	-11.685
▁Sar	-11.6851
▁Nations	-11.6854
edge	-11.6854
▁swimming	-11.6856
▁safely	-11.6856
▁earn	-11.6858
▁Miss	-11.6858
▁4.0	-11.6861
▁regeneration	-11.6861
PRO	-11.6862
▁unchanged	-11.6862
▁Function	-11.6864
▁inform	-11.6865
relevance	-11.6867
▁bash	-11.6868
Media	-11.6874
▁verb	-11.6874
▁spots	-11.6877
▁discount	-11.6877
▁delegate	-11.6879
▁membership	-11.6879
Top	-11.6883
▁restaurants	-11.6884
graph	-11.6886
[3]	-11.6887
▁obtaining	-11.689
▁funny	-11.6892
facebook	-11.6894
▁Indonesia	-11.6896
▁standardized	-11.6896
Database	-11.6901
▁incorrect	-11.6902
▁replacing	-11.691
▁lipo	-11.691
molecular	-11.6911
▁divide	-11.6914
▁bold	-11.6916
▁peer	-11.6916
▁spleen	-11.692
LV	-11.6921
▁geometry	-11.6923
59	-11.6925
transform	-11.6929
▁rejection	-11.6932
▁IR	-11.6934
▁instant	-11.6934
▁limitation	-11.6934
0%	-11.6935
▁Saudi	-11.6935
▁dependencies	-11.6936
▁passenger	-11.6939
▁lets	-11.6944
▁NC	-11.6946
▁confirmation	-11.6947
Directory	-11.6948
▁Maryland	-11.6948
▁weapon	-11.6951
▁remission	-11.6954
omycin	-11.6954
matched	-11.6954
third	-11.6956
▁tonight	-11.6957
▁boundary	-11.6959
▁NY	-11.696
▁Blog	-11.696
▁Multiple	-11.6961
▁glutathione	-11.6963
Left	-11.6963
▁vol	-11.6966
▁canvas	-11.6971
Level	-11.6972
▁papers	-11.698
▁equations	-11.698
▁triggered	-11.698
▁sky	-11.6982
aromatic	-11.6985
▁Fort	-11.6987
▁panels	-11.6988
▁retrospectively	-11.699
▁protest	-11.699
▁LI	-11.6992
▁Par	-11.6994
settings	-11.6994
▁atomic	-11.6995
▁Brazilian	-11.6999
▁mom	-11.6999
▁faced	-11.7001
lines	-11.7002
generation	-11.7003
philic	-11.7004
▁30-	-11.7005
▁MI	-11.7012
▁58	-11.7012
▁inferior	-11.7013
▁Singapore	-11.7013
retained	-11.7014
▁supra	-11.7017
▁Corp	-11.7017
▁mixing	-11.7018
▁interpret	-11.7019
▁tennis	-11.702
▁'<	-11.7021
▁Ham	-11.7021
▁chocolate	-11.7023
0437	-11.7025
▁Small	-11.7028
blob	-11.7028
▁Silver	-11.7031
▁sorry	-11.7031
▁survive	-11.7032
▁debt	-11.7032
DATA	-11.7034
ENRON	-11.7034
▁MVC	-11.7035
▁spray	-11.7037
▁absent	-11.704
▁Contact	-11.704
▁compilation	-11.7041
▁emails	-11.7041
▁2010,	-11.7042
arm	-11.7043
Thread	-11.7045
▁thrombosis	-11.7046
depth	-11.7047
▁medial	-11.7049
▁strike	-11.705
▁Ya	-11.7052
▁rigid	-11.7053
▁Pass	-11.7055
▁Czech	-11.7056
▁Ruby	-11.7058
▁jquery	-11.706
export	-11.7061
▁scenes	-11.7063
▁compress	-11.7063
▁40%	-11.7066
Early	-11.7068
42	-11.7071
▁tries	-11.7074
Load	-11.7076
▁barriers	-11.7077
attribute	-11.7077
▁Fu	-11.7078
▁banks	-11.7079
▁Jean	-11.7081
▁Jewish	-11.7081
▁Mount	-11.7082
▁Range	-11.7083
COM	-11.7085
cious	-11.7089
▁manifestations	-11.7093
▁orange	-11.7094
▁(17	-11.7095
▁sclerosis	-11.7096
Reader	-11.7096
▁squamous	-11.7096
bol	-11.7098
▁bars	-11.7099
▁crop	-11.71
▁seeds	-11.7105
ought	-11.711
erto	-11.711
▁Kentucky	-11.711
▁drag	-11.7114
▁(13	-11.7116
▁taught	-11.7119
▁idio	-11.7119
security	-11.712
▁ocean	-11.712
▁Jordan	-11.7122
▁adhesive	-11.7127
▁gut	-11.7127
▁Cat	-11.7128
▁speaker	-11.7128
▁Channel	-11.7131
▁Rio	-11.7134
▁Trade	-11.7136
▁graduate	-11.7137
▁tunnel	-11.7138
bert	-11.714
▁untreated	-11.7142
▁metres	-11.7142
223	-11.7148
]$	-11.7149
March	-11.715
▁Website	-11.7156
▁SW	-11.7159
▁GS	-11.7159
CSS	-11.716
▁frames	-11.7161
cyclin	-11.7162
▁demonstration	-11.7164
/*\	-11.7165
▁pituitary	-11.7165
▁BMI	-11.7167
▁reserve	-11.7167
▁Dallas	-11.7174
cyclic	-11.7176
▁vaso	-11.7184
▁belonging	-11.7184
▁Seven	-11.7185
▁\"/	-11.7185
▁feasible	-11.7186
▁anonymous	-11.7186
▁voted	-11.7189
▁inches	-11.7189
bacterial	-11.719
▁logged	-11.7192
▁NK	-11.7193
▁Excel	-11.7194
database	-11.7195
▁Jay	-11.7195
annotation	-11.7195
▁Ford	-11.7195
▁collections	-11.7198
render	-11.7199
062	-11.7201
ric	-11.7203
▁Tre	-11.7204
▁async	-11.7204
Adapter	-11.7204
▁recordings	-11.7205
5),	-11.7207
Root	-11.7209
▁indicators	-11.7209
▁tear	-11.721
▁maturation	-11.7211
▁consensus	-11.7212
▁knock	-11.7214
▁clicked	-11.7216
▁lacking	-11.7219
4),	-11.722
Role	-11.722
▁shots	-11.7223
▁establishment	-11.7223
▁lights	-11.7224
▁storing	-11.7225
cardia	-11.7226
▁actin	-11.7226
▁scripts	-11.7227
models	-11.723
▁manufacturers	-11.7231
▁LP	-11.7231
▁districts	-11.7232
▁recruited	-11.7233
CHAR	-11.7233
▁cleavage	-11.7234
HD	-11.7236
black	-11.7237
Editor	-11.7238
▁fault	-11.7239
▁grey	-11.7241
▁regulat	-11.7241
▁(16	-11.7243
Var	-11.7245
▁contraction	-11.7247
▁falling	-11.7248
▁rubber	-11.7251
():	-11.7252
Auth	-11.7253
▁footage	-11.7256
▁1987	-11.7259
▁partition	-11.726
shift	-11.7262
▁fake	-11.7265
▁Start	-11.7266
▁RP	-11.7267
▁GT	-11.727
ALL	-11.7273
wave	-11.7274
▁stake	-11.7277
Advanced	-11.7278
▁Tr	-11.7278
▁tablet	-11.7278
independent	-11.728
describing	-11.728
▁Die	-11.7283
▁prize	-11.7283
Val	-11.7283
▁contamination	-11.7283
▁prop	-11.7283
▁capillary	-11.7284
▁Hz	-11.7286
'))	-11.7287
KEY	-11.7288
▁photography	-11.7291
0),	-11.7292
▁2008.	-11.7293
▁Member	-11.7297
▁restored	-11.7297
▁Turkish	-11.73
nBecause	-11.73
▁redistribute	-11.7302
▁teach	-11.7303
74	-11.7304
subset	-11.7307
---------------	-11.7308
▁mitochondria	-11.7312
▁Profile	-11.7314
satisfactory	-11.7315
Any	-11.7315
▁heading	-11.7316
▁Ju	-11.7317
▁Keep	-11.7318
▁pollution	-11.7321
through	-11.7327
▁Hi	-11.7329
▁smartphone	-11.7329
▁Empire	-11.7334
▁amplification	-11.7335
▁incorporation	-11.7337
testing	-11.7339
▁DS	-11.734
▁sender	-11.734
▁Carlo	-11.7341
▁metals	-11.7343
▁PET	-11.7343
nSource	-11.7343
▁withdrawal	-11.7344
▁Executive	-11.7345
▁documentary	-11.7346
combustion	-11.7348
▁premiere	-11.7348
hidden	-11.7349
enable	-11.7349
nUPDATE	-11.7349
▁arrive	-11.7352
▁charts	-11.7354
▁operators	-11.7355
facial	-11.7355
▁Value	-11.7357
course	-11.7358
▁glutamate	-11.7358
gov	-11.7358
▁flying	-11.7359
Account	-11.7365
▁Phone	-11.7366
Right	-11.7367
▁Berlin	-11.7368
▁xml	-11.737
▁aggregate	-11.7372
▁accomplished	-11.7372
▁Sport	-11.7374
▁dialysis	-11.7375
▁subjective	-11.7377
pack	-11.7382
▁clause	-11.7383
▁destroyed	-11.7384
▁Islamic	-11.7384
▁fold	-11.7387
▁rail	-11.7389
+1}	-11.7389
▁seizures	-11.7391
bcg	-11.7397
luminescen	-11.7399
▁False	-11.7399
▁dependency	-11.7402
▁concomitant	-11.7405
▁(15	-11.7405
properties	-11.7406
Html	-11.7408
▁Ukraine	-11.7408
▁coaches	-11.7409
▁85	-11.7409
▁rid	-11.7411
translated	-11.7411
▁releas	-11.7412
UK	-11.7414
▁possibilities	-11.7414
determined	-11.7415
▁household	-11.7416
▁optimize	-11.7418
▁pocket	-11.7418
archive	-11.7419
shape	-11.7419
▁sheets	-11.742
▁regulations	-11.7424
▁logging	-11.7426
▁pretreatment	-11.7427
rows	-11.7428
▁dispose	-11.7428
▁folks	-11.7428
rising	-11.7429
▁starr	-11.743
▁INTO	-11.7431
▁residue	-11.7432
▁depressive	-11.7432
▁exceed	-11.7435
▁applie	-11.7435
▁2015\	-11.7438
▁remarkabl	-11.7439
Something	-11.7441
▁Collection	-11.7441
▁rising	-11.7445
▁Entertainment	-11.7445
▁FL	-11.7446
Save	-11.7446
▁Edward	-11.7447
▁Atlanta	-11.7449
▁transactions	-11.7449
▁Fed	-11.7449
Next	-11.7449
▁complaint	-11.7451
▁MIT	-11.7453
platform	-11.7455
job	-11.7455
▁rotate	-11.7458
▁yards	-11.7458
▁danger	-11.7461
▁HCV	-11.7462
nMake	-11.7462
▁clothing	-11.7463
▁Tennessee	-11.7465
AND	-11.7466
▁toxin	-11.7466
0431	-11.7467
▁{}	-11.7468
▁governed	-11.7471
▁Yu	-11.7472
▁demographic	-11.7472
CREATE	-11.7472
▁Process	-11.7473
}\"	-11.7476
▁Rails	-11.7483
/>\	-11.7483
▁Recently	-11.7486
▁hypertensive	-11.7488
▁1.8	-11.7488
▁auditory	-11.7488
▁bonus	-11.7489
▁Sch	-11.7489
linking	-11.7491
▁improves	-11.7491
▁containers	-11.7491
Sample	-11.7492
▁tele	-11.7492
▁hydrophobic	-11.7492
▁Val	-11.7493
USER	-11.7494
▁medications	-11.7494
▁clamp	-11.7494
ations	-11.7495
266	-11.7497
▁stag	-11.7498
▁clue	-11.7498
▁predictor	-11.7501
▁attitudes	-11.7502
Down	-11.7503
▁discusse	-11.7505
UP	-11.7505
▁800	-11.7508
Obj	-11.7511
▁Building	-11.7512
-20	-11.7514
▁ships	-11.7515
▁deficits	-11.7515
▁constraints	-11.7518
motive	-11.7518
▁gradually	-11.7518
▁TP	-11.7518
▁Join	-11.752
▁Ash	-11.7521
▁resist	-11.7521
▁pathogens	-11.7523
▁radius	-11.7525
▁Professor	-11.7525
▁transcript	-11.7528
▁observe	-11.753
▁MO	-11.7534
▁SB	-11.7535
▁resume	-11.7536
▁putative	-11.7537
DATE	-11.7537
▁outline	-11.7538
Getting	-11.7538
▁checks	-11.754
▁survivors	-11.7545
▁Link	-11.7545
▁pneumonia	-11.7546
▁pad	-11.7546
six	-11.7547
▁passengers	-11.7548
▁franchise	-11.7549
Place	-11.7552
▁Atlantic	-11.7552
ments	-11.7552
▁facts	-11.7554
▁Dead	-11.7557
021	-11.7557
▁failing	-11.7557
hljs	-11.7559
▁Monte	-11.7562
▁(20	-11.7563
▁TF	-11.7564
▁mesh	-11.7565
▁Player	-11.7567
Michael	-11.7567
peptide	-11.7567
OK	-11.7568
81	-11.7568
▁unilateral	-11.7569
▁everywhere	-11.757
▁Stephen	-11.7572
▁permeability	-11.7574
▁canal	-11.7575
nCreate	-11.7576
▁reply	-11.7577
▁sensing	-11.7578
graphic	-11.7579
▁Israeli	-11.7579
fast	-11.7579
Email	-11.7581
▁LPS	-11.7583
area	-11.7589
▁defensive	-11.7589
friendly	-11.759
▁zip	-11.7592
▁mayor	-11.7596
▁Double	-11.7597
▁Ocean	-11.7597
▁bird	-11.7597
▁20-	-11.7598
###	-11.76
▁1.9	-11.7601
▁recover	-11.7602
illary	-11.7602
▁prints	-11.7603
▁reversible	-11.7604
▁Bal	-11.7604
▁math	-11.7615
hard	-11.7615
▁hemodynamic	-11.7615
▁LH	-11.7616
▁collective	-11.7617
ifying	-11.7619
since	-11.7621
▁Gu	-11.7627
▁willing	-11.7629
▁rendering	-11.763
▁surprised	-11.7631
South	-11.7632
collection	-11.7632
▁coal	-11.7635
▁examinations	-11.764
viewing	-11.7641
arch	-11.7642
▁destruction	-11.7642
▁downtown	-11.7642
▁projection	-11.7643
nToday	-11.7643
▁crack	-11.7644
▁Cir	-11.7644
Here	-11.7644
keys	-11.7644
▁ablation	-11.7644
▁sudden	-11.7645
▁army	-11.7646
▁Sony	-11.7648
▁typing	-11.7649
gel	-11.765
▁Again	-11.765
▁fea	-11.7652
▁dissection	-11.7653
▁flavor	-11.7654
▁Dave	-11.7655
▁anniversary	-11.7656
▁verified	-11.7656
otomy	-11.7658
night	-11.7658
▁Voivodeship	-11.766
▁entitle	-11.7661
Icon	-11.7665
▁Color	-11.7666
▁detectable	-11.7666
540	-11.7669
▁Yo	-11.7672
▁beside	-11.7673
▁operational	-11.7675
▁faith	-11.7676
eous	-11.7677
▁Challenge	-11.7681
▁celebration	-11.7683
▁urge	-11.7685
▁Polish	-11.7685
uint	-11.7687
▁Disease	-11.7687
▁mit	-11.7688
▁drives	-11.7689
▁satellite	-11.7689
▁writes	-11.769
economic	-11.7691
▁Rule	-11.7692
▁1950	-11.7692
▁logs	-11.7694
execute	-11.7697
▁STATES	-11.7699
▁fitting	-11.7701
▁PB	-11.7702
▁kDa	-11.7703
who	-11.7703
▁Swift	-11.7708
story	-11.7711
▁emit	-11.7712
▁mathematical	-11.7714
▁DVD	-11.7715
▁Hope	-11.7716
▁transforme	-11.7718
500	-11.7719
▁VR	-11.772
)=\\	-11.772
▁interferon	-11.7721
▁Still	-11.7721
▁cement	-11.7725
▁Dar	-11.7734
▁absorb	-11.7735
\\\"	-11.7737
▁WHE	-11.7738
▁2.2	-11.7738
▁favorable	-11.7738
resolution	-11.7742
histochemistry	-11.7743
eadily	-11.7743
▁abilities	-11.7744
Until	-11.7746
gar	-11.7749
libs	-11.775
3092	-11.775
▁cited	-11.7751
▁gray	-11.7751
▁1986	-11.7752
register	-11.7753
▁deserve	-11.7756
prototype	-11.7758
▁CG	-11.7761
▁Off	-11.7765
▁differentiate	-11.7765
▁(12	-11.7765
▁elimination	-11.7767
XML	-11.7768
▁pushed	-11.777
▁suppose	-11.777
▁Sept	-11.7772
offset	-11.7773
nSet	-11.7773
▁Hard	-11.7774
deficient	-11.7775
▁theorem	-11.7776
▁Computer	-11.7777
▁themes	-11.7781
sizeof	-11.7782
▁Professional	-11.7783
▁Khan	-11.7783
▁4)	-11.7786
▁Sen	-11.7786
▁attain	-11.7787
engine	-11.7788
▁antagonists	-11.779
▁Command	-11.7791
olecular	-11.7792
▁blind	-11.7793
▁updating	-11.78
▁las	-11.7803
<0.001)	-11.7804
▁Governor	-11.7806
▁bronze	-11.7806
Delete	-11.7808
repeat	-11.7809
bad	-11.781
▁hormones	-11.7811
EL	-11.7813
medical	-11.7816
▁differently	-11.7816
▁rendered	-11.7817
sync	-11.7818
▁blast	-11.7818
▁residence	-11.7819
paired	-11.7821
▁defining	-11.7823
\")]	-11.7824
▁shapes	-11.7827
▁summarize	-11.7834
-2,	-11.7835
▁highlighted	-11.7837
HTML	-11.7839
▁answered	-11.784
degree	-11.7841
▁Che	-11.7843
▁neighbor	-11.7843
OF	-11.7844
▁biomarkers	-11.7846
▁attraction	-11.7849
-----\	-11.785
▁Des	-11.785
▁optic	-11.7851
▁Regional	-11.7852
-4-	-11.7853
▁revision	-11.7856
▁considerabl	-11.7858
▁GB	-11.7858
▁weigh	-11.7859
▁blade	-11.786
▁Taiwan	-11.7861
sigma	-11.7861
▁CNN	-11.7863
▁Classic	-11.7863
▁originate	-11.7863
▁similarity	-11.7867
▁excluded	-11.7867
▁complaints	-11.7869
▁pink	-11.787
▁lymphocyte	-11.787
▁spike	-11.7871
▁Les	-11.7872
▁NBA	-11.7872
▁Person	-11.7873
▁individually	-11.7873
under	-11.7873
▁convenience	-11.7873
▁4.5	-11.7873
▁60%	-11.7876
Scroll	-11.7876
▁HF	-11.7877
reactive	-11.7879
LE	-11.7881
diastolic	-11.7886
▁Ken	-11.7888
▁Organization	-11.7889
TEXT	-11.7889
▁Flash	-11.7889
super	-11.7889
▁BA	-11.789
exit	-11.7891
▁}}\	-11.7891
▁volunteer	-11.7897
▁honest	-11.7901
▁constants	-11.7901
▁demonstrat	-11.7904
▁Build	-11.7905
▁25%	-11.7908
▁2012\	-11.7908
▁bonds	-11.7909
▁transit	-11.791
85	-11.7911
▁opposition	-11.7912
contact	-11.7913
▁duty	-11.7915
▁hospitalization	-11.7915
▁craft	-11.7917
▁arrival	-11.7919
▁animated	-11.7921
HOME	-11.7921
▁conformation	-11.7921
nconsole	-11.7921
▁somebody	-11.7922
▁deployed	-11.7924
blind	-11.7925
inger	-11.7925
1/2	-11.7926
▁asymptomatic	-11.7927
▁compute	-11.7928
▁voting	-11.7928
▁indoor	-11.7928
▁prefix	-11.7929
lum	-11.7929
▁Engineering	-11.7931
phenyl	-11.7933
printf	-11.7934
▁authority	-11.7934
▁MMP	-11.7934
force	-11.7935
CSF	-11.7936
▁viable	-11.7937
▁?>\	-11.7938
req	-11.794
▁sixth	-11.7942
▁snippet	-11.7943
Framework	-11.7944
lets	-11.7944
▁chole	-11.7945
▁injections	-11.7945
▁hydrolysis	-11.7947
▁carcinomas	-11.7947
▁$(\"#	-11.7948
▁immunoglobulin	-11.7949
operator	-11.795
▁pelvic	-11.7952
▁rings	-11.7952
▁digits	-11.7954
▁WA	-11.7955
Entry	-11.7956
JSON	-11.7957
▁Dro	-11.7957
▁Oklahoma	-11.7959
▁Bush	-11.7959
▁distribute	-11.7962
▁Mat	-11.7963
▁spark	-11.7966
▁Framework	-11.7966
▁params	-11.7967
▁DE	-11.7967
▁Angel	-11.7967
▁wins	-11.7968
▁reflex	-11.7969
▁lovely	-11.7969
loc	-11.7972
\\}$	-11.7973
▁parliament	-11.7973
density	-11.7974
funded	-11.7976
▁enabl	-11.7979
▁leather	-11.7981
▁overflow	-11.7983
▁Dis	-11.7983
▁emissions	-11.7984
:@\"	-11.7989
▁Melbourne	-11.799
▁exert	-11.7992
nOfficial	-11.7993
▁bags	-11.7993
▁deviation	-11.7996
▁objectives	-11.7998
▁cuts	-11.7998
▁Bitcoin	-11.7998
ethyl	-11.8
Canadian	-11.8
centered	-11.8001
▁ELISA	-11.8002
▁offensive	-11.8004
▁DD	-11.8004
lytic	-11.8004
▁Mal	-11.8006
▁HM	-11.8007
▁DJ	-11.8007
1).	-11.8009
▁Trust	-11.8009
▁soldiers	-11.801
▁Tor	-11.8012
▁Norwegian	-11.8014
▁adenocarcinoma	-11.8015
▁OP	-11.8016
▁pos	-11.8017
▁numerical	-11.8017
ence	-11.8021
ENT	-11.8022
▁wealth	-11.8022
▁cook	-11.8023
ement	-11.8023
Properties	-11.8024
▁Moon	-11.8026
rightarrow	-11.8026
▁ED	-11.8026
▁Pack	-11.8028
▁Fall	-11.8029
mont	-11.8029
▁heterogene	-11.8029
▁aureus	-11.803
borne	-11.8031
▁Archives	-11.8032
ducing	-11.8033
▁defeated	-11.8037
▁arts	-11.8041
tent	-11.8043
account	-11.8043
3+	-11.8045
winning	-11.8046
his	-11.8048
68	-11.8048
▁commission	-11.8049
▁conjuncti	-11.8049
reported	-11.8051
▁cattle	-11.8052
▁nicotin	-11.8053
▁catalyst	-11.8054
▁hemoglobin	-11.8054
Choose	-11.8054
▁AL	-11.8056
oke	-11.8056
▁additive	-11.8058
$\\	-11.8059
▁exploration	-11.806
▁meetings	-11.8061
live	-11.8062
Writer	-11.8062
mania	-11.8064
▁podcast	-11.8065
2,000	-11.8065
▁Rick	-11.8065
▁Training	-11.8066
▁browsers	-11.8066
ographic	-11.8069
▁drainage	-11.8072
Run	-11.8078
▁tailor	-11.8078
Pages	-11.8081
▁preferences	-11.8081
rectal	-11.8081
(\"%	-11.8081
▁survived	-11.8081
▁forever	-11.8082
▁microscopic	-11.8083
▁floating	-11.8083
▁adrenal	-11.8085
▁resort	-11.8085
▁gross	-11.8086
▁robot	-11.8087
handle	-11.8089
svg	-11.8089
▁FREE	-11.809
Device	-11.809
human	-11.809
▁cytoplasmic	-11.8091
▁Publication	-11.8092
▁memories	-11.8094
▁relax	-11.8094
▁leak	-11.8097
▁exhibits	-11.8099
NER	-11.8102
Big	-11.8102
▁graphic	-11.8102
▁etiology	-11.8103
▁impose	-11.8105
Australian	-11.811
▁PL	-11.8116
▁(11	-11.8117
nWelcome	-11.8118
▁/>	-11.8119
1_0	-11.8119
▁batteries	-11.8121
▁Room	-11.8123
eral	-11.8123
cological	-11.8125
▁elsewhere	-11.8127
Where	-11.8128
▁currency	-11.813
▁Detroit	-11.8132
square	-11.8134
▁printer	-11.8135
▁screened	-11.8138
▁refresh	-11.8139
▁Details	-11.814
Library	-11.814
▁Kelly	-11.8142
Match	-11.8143
▁restrictions	-11.8145
Helper	-11.8145
▁vacuum	-11.8147
burg	-11.8148
)$.	-11.8149
▁doc	-11.8149
stat	-11.815
▁clones	-11.8152
▁Kan	-11.8155
ergic	-11.8156
▁Tech	-11.8157
▁AMP	-11.8157
▁Vice	-11.8157
▁preview	-11.8159
▁subscribe	-11.8163
tool	-11.8165
pulmonary	-11.8167
CAM	-11.8168
▁Steam	-11.817
enter	-11.8174
▁fishing	-11.8174
▁ceremony	-11.8175
33	-11.8177
▁Integer	-11.8177
▁manipulation	-11.8178
▁Boy	-11.8178
▁releases	-11.8178
▁Wolf	-11.8178
▁Vegas	-11.8179
▁towns	-11.8182
▁Direct	-11.8184
▁intestine	-11.8184
▁\"<	-11.8185
▁subgroup	-11.8189
Pre	-11.8189
▁Systems	-11.8191
▁anatomical	-11.8196
Package	-11.8196
Associated	-11.8196
▁cutaneous	-11.8197
▁elegant	-11.8199
▁abundance	-11.8202
▁twin	-11.8202
▁decimal	-11.8203
▁1/2	-11.8203
TY	-11.8205
olar	-11.8206
▁NH	-11.8208
▁cloned	-11.8208
bridge	-11.821
');	-11.8212
▁Doctor	-11.8212
vin	-11.8214
▁lunch	-11.8215
▁cake	-11.8216
▁furniture	-11.8216
▁stadium	-11.8218
▁Credit	-11.8218
▁choos	-11.8219
href	-11.8219
▁freeze	-11.822
▁sync	-11.822
nonatomic	-11.8221
▁bowl	-11.8224
▁2007.	-11.8225
▁probes	-11.8225
▁mamm	-11.8228
▁elastic	-11.8228
▁guaranteed	-11.8228
▁adherence	-11.8228
ntry	-11.8231
▁ourselves	-11.8233
▁deck	-11.8234
▁indications	-11.8237
▁boss	-11.824
structure	-11.8241
▁lawsuit	-11.8241
▁heparin	-11.8243
▁refused	-11.8243
▁deficit	-11.8244
▁nose	-11.8245
NPs	-11.8246
▁powered	-11.8247
Maybe	-11.825
49	-11.825
Call	-11.8251
▁electricity	-11.8253
NULL	-11.8253
▁Ram	-11.8254
▁augment	-11.8254
nError	-11.8256
aries	-11.8257
ogenesis	-11.8257
Tab	-11.8258
▁acetate	-11.8259
▁strategic	-11.8262
▁Muslim	-11.8262
▁coordination	-11.8264
▁Soviet	-11.8265
equiv	-11.8265
VM	-11.8266
role	-11.8267
Tree	-11.8267
▁Tony	-11.8268
▁supplementation	-11.8272
▁tied	-11.8273
CUL	-11.8274
mic	-11.8274
lumba	-11.8275
▁burst	-11.8276
margin	-11.8278
▁ethnic	-11.828
▁Representatives	-11.8285
▁entrance	-11.8285
▁dir	-11.8285
▁62	-11.8287
▁ruling	-11.8287
ATION	-11.8288
▁HT	-11.8289
▁Rad	-11.8289
▁PP	-11.8289
▁Garden	-11.8292
▁stroma	-11.8293
▁vocal	-11.8294
INT	-11.8298
team	-11.8298
▁stunn	-11.8299
▁prevalent	-11.8299
created	-11.8302
blogger	-11.8303
▁struggling	-11.8304
▁repo	-11.8305
▁proportional	-11.8305
128	-11.8305
▁smile	-11.8305
direction	-11.8307
nCurrently	-11.831
▁vulnerable	-11.831
omyce	-11.8311
MENT	-11.8311
good	-11.8311
▁dev	-11.8312
▁activator	-11.8315
▁che	-11.8315
▁110	-11.8315
▁exon	-11.8316
eptic	-11.8317
▁IGF	-11.8317
▁Tokyo	-11.8317
▁phrase	-11.8317
{2}	-11.8319
ARE	-11.8321
▁germ	-11.8321
▁lipids	-11.8322
▁startup	-11.8322
▁Activity	-11.8323
3).	-11.8326
▁Oxford	-11.8327
Clinical	-11.8327
▁iterate	-11.8331
xxx	-11.8332
cost	-11.8334
▁DOM	-11.8334
▁Quality	-11.8334
▁Moscow	-11.8339
▁expatriate	-11.8339
mus	-11.8339
▁(14	-11.8342
▁kid	-11.8342
▁photographs	-11.8343
\"))\	-11.8347
spot	-11.8348
▁Self	-11.835
▁scattering	-11.835
▁$10	-11.8352
3068	-11.8356
convert	-11.8357
far	-11.8359
▁adjuvant	-11.8362
West	-11.8362
components	-11.8367
▁taxes	-11.8369
maps	-11.8369
▁Participants	-11.8372
▁HPV	-11.8374
▁implies	-11.8374
▁critically	-11.8378
Railway	-11.8379
soft	-11.8379
▁Round	-11.8384
nOver	-11.8385
▁meters	-11.8385
Parameter	-11.8386
▁torque	-11.8386
▁payments	-11.8386
▁favourite	-11.8386
▁reporters	-11.8387
labeled	-11.8388
▁glad	-11.839
▁alternate	-11.8392
▁rough	-11.8392
▁interfaces	-11.8397
▁appearing	-11.8399
record	-11.8399
zer	-11.84
▁supporters	-11.8403
▁crown	-11.8403
▁Affairs	-11.8404
▁exceptional	-11.8405
ining	-11.8407
MAX	-11.8408
▁VEGF	-11.8408
58	-11.8411
▁Hamilton	-11.8411
▁referr	-11.8411
▁finance	-11.8412
rbital	-11.8412
+1	-11.8416
atus	-11.8417
▁terminals	-11.8419
download	-11.8419
They	-11.842
▁edited	-11.842
nCast	-11.842
shared	-11.842
▁Allen	-11.8425
▁prescribe	-11.8425
▁lay	-11.8427
▁graduated	-11.8429
▁accessories	-11.8429
loader	-11.843
▁oxidase	-11.8433
▁larvae	-11.8433
▁delicious	-11.8434
▁vaginal	-11.8434
▁hub	-11.8435
LOG	-11.8437
▁equilibrium	-11.8439
surgical	-11.8442
▁axial	-11.8442
▁appointment	-11.8442
Changed	-11.8443
▁Song	-11.8445
HPP	-11.8445
▁proton	-11.8446
▁corn	-11.8447
wealth	-11.8449
▁sick	-11.8449
▁GET	-11.8449
▁Simple	-11.8449
▁killer	-11.8449
Welcome	-11.845
▁engineer	-11.845
Make	-11.845
▁WW	-11.8451
▁Hand	-11.8452
▁1983	-11.8452
▁1981	-11.8452
▁sequential	-11.8457
alis	-11.8457
▁locked	-11.8459
▁reagent	-11.8459
▁1964	-11.846
▁aneurysm	-11.8461
▁personally	-11.8461
▁Serum	-11.8462
▁pounds	-11.8464
▁1,000	-11.8464
▁initiative	-11.8465
▁offices	-11.8466
▁quantify	-11.8467
mathcal	-11.8468
▁ranked	-11.8473
ovirus	-11.8474
▁alkalin	-11.8474
▁Gram	-11.8475
mentioned	-11.8476
▁breathing	-11.8479
▁endometri	-11.848
berry	-11.848
▁fibro	-11.8481
▁steam	-11.8484
erine	-11.8484
▁Side	-11.8485
photo	-11.8485
▁repeatedly	-11.8485
▁bip	-11.8487
▁Cook	-11.8488
▁61	-11.8489
▁pipeline	-11.8489
Reuters	-11.849
▁infrare	-11.8493
▁Austin	-11.8494
yard	-11.8496
▁bronchi	-11.8496
FX	-11.8497
▁performances	-11.8498
▁clothes	-11.8498
▁Moore	-11.8499
▁firing	-11.8501
▁vesicles	-11.8501
▁1985	-11.8502
▁0.7	-11.8503
▁Example	-11.8505
dog	-11.8505
ometric	-11.8506
▁ski	-11.8509
nRelated	-11.8511
oxy	-11.8514
!\"	-11.8516
▁lab	-11.8517
▁Wa	-11.8518
▁Dor	-11.8518
▁laid	-11.8518
▁stamp	-11.8519
evolutionary	-11.8519
▁ranges	-11.8522
▁Active	-11.8522
▁Pin	-11.8522
▁abundant	-11.8522
refractory	-11.8523
▁Gr	-11.8524
▁scans	-11.8525
route	-11.8525
score	-11.8525
results	-11.8527
▁partly	-11.8527
Article	-11.8528
▁satisfied	-11.8529
▁whil	-11.8535
▁Console	-11.8537
▁CON	-11.8538
▁confident	-11.8538
▁manipulate	-11.8539
nTake	-11.8539
▁biosynthesis	-11.8539
▁Dia	-11.8541
Port	-11.8545
▁compositions	-11.8545
▁cute	-11.8549
driven	-11.855
▁publications	-11.8555
▁Know	-11.8556
▁journalist	-11.8557
▁tradition	-11.8557
▁Magazine	-11.8557
▁riding	-11.8558
▁Ross	-11.856
Red	-11.856
▁warrant	-11.8563
cup	-11.8563
uploaded	-11.8563
▁Natural	-11.8563
▁literally	-11.8564
31,	-11.8564
bury	-11.8565
met	-11.8565
▁invest	-11.8566
▁Camp	-11.8567
▁Bel	-11.8567
linear	-11.8569
complementary	-11.857
▁donation	-11.8573
BOOL	-11.8574
iki	-11.8575
▁commune	-11.8578
▁opera	-11.8581
▁colony	-11.8581
▁pharmaceutical	-11.8582
▁digit	-11.8582
▁packed	-11.8583
ERROR	-11.8591
ral	-11.8592
▁navigate	-11.8593
-11	-11.8593
CRP	-11.8594
▁religion	-11.8595
▁testosterone	-11.86
▁trail	-11.8601
Foo	-11.8602
▁som	-11.8602
▁governor	-11.8603
▁splen	-11.8605
▁BR	-11.8607
equal	-11.8607
▁Track	-11.8608
▁Theatre	-11.861
▁shower	-11.8611
both	-11.8611
▁Federation	-11.8612
▁conservation	-11.8615
▁Swiss	-11.8616
▁specification	-11.8618
standard	-11.8618
▁mmol	-11.8618
▁Maria	-11.8619
dfrac	-11.8619
▁recruitment	-11.862
▁displacement	-11.8622
children	-11.8623
required	-11.8626
▁incomplete	-11.8629
▁Ber	-11.8633
bacterium	-11.8634
▁Ye	-11.8635
▁pylori	-11.8637
GO	-11.8637
▁infinite	-11.8637
▁Andre	-11.8638
pattern	-11.8638
▁Op	-11.8638
Protection	-11.8639
32\	-11.8639
▁APPEALS	-11.8643
▁Give	-11.8644
▁parental	-11.8646
Italian	-11.8647
▁bull	-11.8649
nEven	-11.8651
▁0$	-11.8652
radio	-11.8652
native	-11.8653
▁Thailand	-11.8654
▁Gen	-11.8654
▁Greece	-11.8654
▁cocaine	-11.8655
▁Expression	-11.8657
▁interprete	-11.8657
▁Less	-11.8659
clear	-11.866
▁compensation	-11.8664
used	-11.8664
▁heterogeneity	-11.8664
▁biopsies	-11.8666
▁Romania	-11.8666
▁dosage	-11.8667
NCAA	-11.8668
▁curious	-11.8669
▁limiting	-11.8669
boot	-11.8669
▁Mid	-11.8669
▁discussions	-11.867
▁protease	-11.867
nBest	-11.8671
wear	-11.8672
▁sur	-11.8672
tetra	-11.8673
▁polynomial	-11.8674
▁57	-11.8676
demo	-11.8676
▁69	-11.8678
PER	-11.8678
▁soul	-11.8678
▁PK	-11.868
▁newborn	-11.8682
▁similarly	-11.8682
▁Mail	-11.8682
▁pose	-11.8683
EX	-11.8684
sense	-11.8684
ometry	-11.8685
Password	-11.8687
▁drain	-11.8689
▁arise	-11.8695
▁Met	-11.8695
▁Within	-11.8695
▁keyword	-11.8696
▁Mayor	-11.8697
▁stops	-11.8698
▁AIDS	-11.8698
issue	-11.87
▁Memorial	-11.87
▁Switzerland	-11.87
▁LDL	-11.8703
▁fulfill	-11.8707
▁skip	-11.8707
pical	-11.8707
▁flows	-11.871
▁isolate	-11.8711
▁HS	-11.8713
▁brush	-11.8713
▁Language	-11.8713
▁CHECK	-11.8715
Active	-11.8715
nDes	-11.8715
Files	-11.8716
proto	-11.8716
▁charging	-11.8718
▁tendenc	-11.8718
▁musicians	-11.8718
▁Stock	-11.872
▁pixels	-11.8721
▁substitute	-11.8722
▁Utah	-11.8726
▁Need	-11.8726
▁cmd	-11.8727
▁compartment	-11.8729
Month	-11.873
▁moral	-11.8731
▁compet	-11.8731
▁intention	-11.8734
1</	-11.8734
▁Anderson	-11.8735
▁Singh	-11.8735
▁Girl	-11.8736
▁Was	-11.8736
▁ionic	-11.8739
▁formulation	-11.874
Find	-11.8741
▁aorta	-11.8741
▁Say	-11.8741
▁PF	-11.8744
▁mining	-11.8744
products	-11.8745
▁Bor	-11.8749
once	-11.8751
▁Jason	-11.8756
▁exhaust	-11.8757
▁tubul	-11.8757
▁Rome	-11.8761
▁syn	-11.8763
Google	-11.8765
▁exclude	-11.8765
▁2009,	-11.8767
▁cancel	-11.877
fungal	-11.8771
▁cam	-11.8771
▁parish	-11.8771
▁adenosine	-11.8771
INSERT	-11.8776
▁expanding	-11.8778
▁persist	-11.878
▁bread	-11.8783
services	-11.8786
▁Third	-11.879
itial	-11.879
▁Immuno	-11.8791
▁tre	-11.8793
▁Moder	-11.8795
▁Josh	-11.8796
▁interfere	-11.8796
without	-11.8797
▁rational	-11.8797
▁2.3	-11.8799
▁sorted	-11.8801
▁Intel	-11.8802
▁Parkinson	-11.8804
▁Cambridge	-11.8806
wire	-11.8808
Player	-11.881
▁Lanka	-11.8811
▁selectivity	-11.8812
▁mock	-11.8813
APP	-11.8814
▁traveling	-11.8815
▁designing	-11.8816
▁initialize	-11.8818
Selector	-11.8818
burn	-11.8819
▁ports	-11.8819
▁LV	-11.882
fields	-11.8821
▁universe	-11.8822
▁hall	-11.8823
▁wheat	-11.8823
▁(4)	-11.8824
painted	-11.8824
nShow	-11.8824
1);\	-11.8826
▁slower	-11.8826
▁63	-11.8826
▁shield	-11.8827
▁intersection	-11.8829
▁resting	-11.883
1999	-11.883
maven	-11.8835
▁Clark	-11.8836
Back	-11.8839
▁conjugate	-11.8844
▁ankle	-11.8844
pic	-11.8846
connection	-11.8848
▁VI	-11.8848
0119	-11.8851
▁instability	-11.8851
▁Smart	-11.8852
▁Save	-11.8855
▁degeneration	-11.8857
▁poster	-11.8857
▁cycling	-11.8858
▁grafts	-11.8861
▁guinea	-11.8861
proof	-11.8861
▁delivering	-11.8862
▁GABA	-11.8862
▁Alexander	-11.8862
▁Pr	-11.8864
▁flu	-11.8866
▁Rob	-11.8867
▁Word	-11.8868
▁mess	-11.8869
▁Phil	-11.887
region	-11.8871
▁15-	-11.8871
▁2.4	-11.8872
107	-11.8872
▁ester	-11.8874
away	-11.8875
▁Though	-11.8879
▁relie	-11.8883
▁artwork	-11.8885
▁Por	-11.8887
porous	-11.8889
▁mutual	-11.889
▁manufactured	-11.889
▁wheels	-11.8893
▁fin	-11.8894
▁pathogen	-11.8895
zero	-11.8895
▁nonlinear	-11.8896
▁Culture	-11.8897
pragma	-11.8898
▁Argentina	-11.8898
▁Cox	-11.8899
▁cure	-11.8902
▁70%	-11.8905
▁exploit	-11.8906
▁WS	-11.8906
Font	-11.8907
▁66	-11.8908
eight	-11.8909
▁serotonin	-11.8911
NF	-11.8912
Ex	-11.8913
▁templates	-11.8916
▁descent	-11.8916
CATED	-11.892
▁angiotensin	-11.8921
▁computational	-11.8922
▁cooperation	-11.8922
(__	-11.8925
▁clo	-11.8928
Multi	-11.8929
ake	-11.893
▁chips	-11.8931
▁labeling	-11.8934
▁newsletter	-11.8934
▁Safety	-11.8934
▁loci	-11.8935
▁Hol	-11.8937
▁Primar	-11.8939
Close	-11.894
▁Marine	-11.8942
▁Shop	-11.8942
▁Poly	-11.8943
Delegate	-11.8946
▁Gas	-11.8946
present	-11.8947
▁Capital	-11.8948
Emergenc	-11.8948
logical	-11.8948
▁horses	-11.8951
▁sauce	-11.8954
NEW	-11.8955
▁muc	-11.8956
▁Elizabeth	-11.8958
tended	-11.8961
Cloud	-11.8962
▁outlet	-11.8963
ambient	-11.8964
She	-11.8968
geq	-11.8968
▁regime	-11.897
▁corrected	-11.8971
▁Would	-11.8973
▁prototype	-11.8974
▁vaccines	-11.8978
▁humor	-11.8978
(10)	-11.8978
▁fungi	-11.8979
▁rheumato	-11.898
▁Rep	-11.8982
▁polymers	-11.8983
▁cricket	-11.8983
▁Large	-11.8984
Buildings	-11.8984
▁1976	-11.8985
▁accommodate	-11.8985
▁arch	-11.8985
▁Editor	-11.8987
▁speakers	-11.8987
▁1975	-11.8987
▁Lady	-11.8988
▁malignancy	-11.8991
▁grep	-11.8992
Repository	-11.8993
▁preserved	-11.8995
▁deny	-11.8996
▁disadvantage	-11.8998
▁Sheriff	-11.8998
▁frontal	-11.8999
▁rape	-11.8999
▁elucidate	-11.8999
▁enum	-11.9
▁discrete	-11.9001
floor	-11.9002
Custom	-11.9002
▁Morris	-11.9002
Light	-11.9003
▁industries	-11.9005
▁1%	-11.9005
hanging	-11.9007
▁HERE	-11.9008
factor	-11.9013
▁equi	-11.9013
Enter	-11.9013
▁cylinder	-11.9014
radius	-11.9015
▁unveil	-11.9017
▁symbols	-11.9017
switched	-11.9019
environment	-11.902
Values	-11.9022
zone	-11.9024
▁respondents	-11.9024
arginine	-11.9025
▁Student	-11.9025
▁Officer	-11.9027
multi	-11.9028
▁1972	-11.9029
▁0.6	-11.903
▁excision	-11.9033
▁villages	-11.9033
hover	-11.9033
▁hippocampus	-11.9034
▁Dog	-11.9034
EE	-11.9036
▁responsive	-11.9037
?\"	-11.9037
▁GR	-11.9039
▁adapter	-11.904
▁Yet	-11.9045
▁collapse	-11.9045
she	-11.9046
▁enhancing	-11.9051
hole	-11.9052
▁artifact	-11.9052
▁CURIAM	-11.9053
▁Antonio	-11.9055
-15	-11.9055
▁\"${	-11.9059
▁flags	-11.9059
Plugin	-11.9059
▁Francis	-11.9059
▁Simon	-11.906
▁1.7	-11.9061
▁helper	-11.9061
▁0.9	-11.9061
Black	-11.9062
▁breeding	-11.9064
▁clinicians	-11.9068
Network	-11.9069
▁imply	-11.9071
quad	-11.9073
▁envelope	-11.9077
94	-11.9079
▁pleasure	-11.9079
Queue	-11.908
▁\\\\	-11.9082
▁meaningful	-11.9083
_1,	-11.9085
▁gang	-11.9086
▁bedroom	-11.9086
▁Arab	-11.9087
▁Cape	-11.9087
▁Madrid	-11.9088
11\	-11.9089
▁handled	-11.9089
▁thousand	-11.9092
▁rails	-11.9092
▁mast	-11.9093
take	-11.9093
▁differe	-11.9093
developer	-11.9096
▁rider	-11.9099
.7%	-11.9099
▁tower	-11.91
▁climb	-11.9101
▁accessed	-11.9102
▁illustrated	-11.9102
browser	-11.9103
▁Mon	-11.9105
▁hang	-11.9106
▁fate	-11.9107
▁Phase	-11.9107
▁FBI	-11.9111
▁exploring	-11.9111
▁rect	-11.9111
▁methylation	-11.9115
▁expecting	-11.9117
▁coordinate	-11.912
▁grip	-11.9122
▁inherent	-11.9125
▁lucky	-11.9127
▁territory	-11.9129
▁dispute	-11.9129
tests	-11.913
▁pathogenic	-11.9135
ureter	-11.914
mandibular	-11.9143
▁pleased	-11.9145
▁zoom	-11.9145
-14	-11.9146
▁junior	-11.9148
▁DateTime	-11.9148
▁imp	-11.9149
▁generalize	-11.9151
▁Louisiana	-11.9153
▁Jon	-11.9153
▁dish	-11.9153
▁positione	-11.9154
▁positioning	-11.9158
▁Mini	-11.9159
ruby	-11.9159
GF	-11.9161
▁placing	-11.9163
▁tongue	-11.9164
▁Forty	-11.9165
▁360	-11.9165
▁latency	-11.9166
nam	-11.9166
▁Additional	-11.9167
▁bandwidth	-11.917
▁Target	-11.917
▁blame	-11.917
books	-11.9173
▁rejected	-11.9175
simple	-11.9177
▁Patrick	-11.918
Delta	-11.9184
jury	-11.9185
)))\	-11.9188
▁Meta	-11.919
scan	-11.9191
▁practitioners	-11.9195
▁filtration	-11.9196
addr	-11.9196
topping	-11.9196
▁Did	-11.9198
▁barrel	-11.9199
▁Mol	-11.9199
▁74	-11.9201
ecal	-11.9201
37	-11.9205
reaches	-11.9206
▁Enter	-11.9208
▁atoms	-11.9208
▁seasonal	-11.9209
ational	-11.921
▁responding	-11.921
▁varies	-11.9211
▁bathroom	-11.9211
▁roads	-11.9211
because	-11.9216
omega	-11.9218
membrane	-11.922
▁Castle	-11.9221
Liga	-11.9221
▁edema	-11.9223
{-1}	-11.9224
▁executing	-11.9225
▁96	-11.9225
▁colleagues	-11.9226
▁balloon	-11.9227
-13	-11.9228
▁surgeon	-11.9229
▁Motor	-11.923
▁2011\	-11.923
▁crosse	-11.9232
▁smell	-11.9233
npublished	-11.9234
▁specialist	-11.9237
Book	-11.9238
▁depletion	-11.9238
▁Jose	-11.9239
▁0)\	-11.924
▁microscope	-11.9245
▁quantification	-11.9245
▁endpoint	-11.9245
WORDS	-11.9247
▁68	-11.9247
▁venue	-11.9247
▁eliminated	-11.9252
▁cricketers	-11.9252
Async	-11.9252
diff	-11.9253
▁producers	-11.9254
very	-11.9255
▁Bureau	-11.9255
▁unlike	-11.9256
selector	-11.9257
▁opioid	-11.9258
▁vertebra	-11.9259
nelse	-11.9259
▁homeostasis	-11.9259
piece	-11.9261
-1}	-11.9261
▁quit	-11.9261
George	-11.9264
▁Ron	-11.9264
Screen	-11.9265
distribution	-11.9268
▁Youth	-11.9268
▁sediment	-11.927
▁vacation	-11.927
▁breakfast	-11.9272
▁caspase	-11.9274
actively	-11.9278
▁purification	-11.9281
▁IDE	-11.9282
▁occasion	-11.9285
▁morphine	-11.9287
▁NE	-11.9287
▁insufficient	-11.9287
▁VA	-11.9288
directory	-11.929
▁Arm	-11.9291
▁HCC	-11.9291
<%=	-11.9292
obacter	-11.9292
polar	-11.9293
▁bili	-11.9293
widget	-11.9295
▁anemia	-11.9296
78	-11.9297
youtube	-11.9297
Primar	-11.9298
nCopyright	-11.9302
▁gathered	-11.9303
▁coloni	-11.9305
▁Champions	-11.9307
desc	-11.9308
July	-11.9308
▁overlap	-11.931
▁prohibit	-11.931
politan	-11.9314
ntemplate	-11.9314
▁Machine	-11.9315
while	-11.9319
Parser	-11.9319
short	-11.9319
series	-11.9321
▁secured	-11.9322
Num	-11.9323
▁pigment	-11.9324
▁Sciences	-11.9324
ridge	-11.9324
cli	-11.9324
▁subunits	-11.9325
▁organisation	-11.9325
▁extensively	-11.9325
▁composer	-11.9326
Display	-11.9327
▁Sanders	-11.9328
▁Death	-11.9329
energy	-11.933
izer	-11.9331
▁TRU	-11.9333
▁productivity	-11.9334
47	-11.9335
scroll	-11.9335
▁Assistant	-11.9338
Why	-11.9341
▁cortisol	-11.9342
▁closest	-11.9343
▁reception	-11.9344
▁juice	-11.9346
mina	-11.9346
Original	-11.9348
▁potentials	-11.9352
▁associate	-11.9352
▁Created	-11.9353
▁topical	-11.9353
mobile	-11.9354
▁airline	-11.9355
trace	-11.9355
▁adolescent	-11.9355
▁certified	-11.9357
▁hack	-11.9357
cess	-11.936
▁atom	-11.936
ART	-11.936
▁Made	-11.9362
▁pepper	-11.9363
▁1920	-11.9365
▁0.0001)	-11.9365
panel	-11.9366
▁77	-11.9367
PV	-11.9367
(-)	-11.9367
▁Learn	-11.9368
▁timestamp	-11.9371
▁NBC	-11.9372
rule	-11.9373
Login	-11.9374
▁Vancouver	-11.9374
October	-11.9374
▁distant	-11.9375
-21	-11.9377
gre	-11.9377
▁aside	-11.9378
tron	-11.9378
Similarly	-11.938
▁cotton	-11.938
▁experienc	-11.9381
UFC	-11.9382
▁hearts	-11.9386
Basketball	-11.9386
▁Arkansas	-11.9388
▁motivation	-11.9388
▁Performance	-11.9389
▁Drug	-11.939
▁Stage	-11.939
▁captain	-11.939
▁joy	-11.939
ogen	-11.9392
▁alias	-11.9395
herited	-11.9399
▁hopefully	-11.9401
▁RAM	-11.9404
▁2.6	-11.9404
▁Method	-11.9408
drawable	-11.941
▁crude	-11.941
▁illustrate	-11.941
gotten	-11.9416
nCould	-11.9418
▁lactate	-11.9419
▁armed	-11.9419
▁synap	-11.942
▁uncommon	-11.942
-100	-11.9422
many	-11.9422
▁1974	-11.9424
▁converter	-11.9425
▁matrices	-11.9428
▁Significant	-11.9429
**\	-11.9429
▁integers	-11.943
▁mmHg	-11.943
▁Baseball	-11.9431
▁ordinary	-11.9432
upstream	-11.9433
Sleep	-11.9434
120	-11.9435
gal	-11.9436
▁Philippines	-11.9439
▁butter	-11.9439
iff	-11.9442
▁resemble	-11.9445
▁Mario	-11.9446
▁cAMP	-11.9446
▁piano	-11.9446
detail	-11.9448
▁adenoma	-11.9449
genital	-11.9451
▁cystic	-11.9452
▁sepsis	-11.9453
▁collecting	-11.9456
▁Egypt	-11.9457
▁Tax	-11.9457
▁Mad	-11.9458
they	-11.946
January	-11.9461
▁marginal	-11.9463
▁sustainable	-11.9463
avage	-11.9464
▁crypto	-11.9468
▁canine	-11.9469
▁Anthony	-11.9474
▁Geo	-11.9476
Indian	-11.9476
▁NT	-11.9477
__(	-11.9479
[0].	-11.9479
▁VC	-11.948
film	-11.9482
▁retirement	-11.9482
▁\"%	-11.9483
aki	-11.9484
)->	-11.9489
▁Session	-11.949
▁agricultural	-11.949
▁reproduction	-11.9491
▁remind	-11.9491
▁adip	-11.9493
▁Pradesh	-11.9494
▁53	-11.9494
syscall	-11.9502
▁sec	-11.9502
▁mimic	-11.9504
▁Gallery	-11.9507
▁Enjoy	-11.9507
▁Factor	-11.9508
hood	-11.9508
▁Flow	-11.951
1000	-11.9513
▁Fi	-11.9514
▁depressed	-11.9515
▁pod	-11.9516
▁1977	-11.9517
▁rally	-11.9519
▁pace	-11.9521
secretory	-11.9523
▁watched	-11.9523
▁Tar	-11.9524
▁registry	-11.9524
▁Sample	-11.9524
▁glands	-11.9526
▁Village	-11.9527
***************	-11.9528
▁retina	-11.9528
Total	-11.9528
SV	-11.9528
shot	-11.9528
▁talke	-11.9528
▁67	-11.9528
▁contributor	-11.9528
▁incubat	-11.9531
▁catalog	-11.9532
dentification	-11.9535
▁convention	-11.9536
▁dig	-11.9539
▁secretary	-11.9541
▁Afghanistan	-11.9542
▁hint	-11.9543
▁mat	-11.9547
▁oligo	-11.9547
▁arc	-11.9548
▁occasionally	-11.9549
▁Mix	-11.9552
Record	-11.9552
▁fits	-11.9553
▁unnecessary	-11.9554
hold	-11.9558
TRA	-11.9558
▁Pop	-11.9559
▁veteran	-11.956
▁dilat	-11.956
posts	-11.956
▁0.02	-11.9561
Below	-11.9562
oxide	-11.9563
▁locate	-11.9563
MAN	-11.9565
▁Ly	-11.9565
Types	-11.9565
▁1982	-11.9565
2264	-11.9567
2006	-11.9569
▁Mont	-11.957
3.\	-11.957
▁atherosclerosis	-11.9573
▁Queensland	-11.9573
&=	-11.9575
▁assetBundle	-11.9576
▁Magic	-11.9576
=\"/	-11.9578
▁Lab	-11.9581
focus	-11.9581
August	-11.9581
▁spiritual	-11.9582
▁Junior	-11.9583
▁hippocamp	-11.9585
▁landing	-11.9585
▁dump	-11.9587
▁races	-11.9588
▁platelets	-11.9588
▁lithium	-11.959
▁behalf	-11.9591
▁Ger	-11.9591
▁Secret	-11.9591
nMay	-11.9591
▁Finland	-11.9593
ABSTRACT	-11.9593
$('#	-11.9595
▁visibility	-11.9596
▁Ice	-11.9596
▁nest	-11.9597
▁immigration	-11.96
Param	-11.96
logous	-11.9602
▁disruption	-11.9603
▁decay	-11.9605
olysis	-11.9606
menopaus	-11.9607
▁hexa	-11.9608
▁Jacob	-11.9608
▁generations	-11.961
mouse	-11.9614
▁grain	-11.9615
nOut	-11.9618
atory	-11.9618
Str	-11.9619
▁ignored	-11.962
▁linkage	-11.9622
NOS	-11.9622
0219	-11.9623
▁optimum	-11.9623
ifer	-11.9624
▁experimentally	-11.9624
rock	-11.9624
▁translocation	-11.9625
May	-11.9626
▁determinants	-11.963
Spec	-11.9631
▁pointing	-11.9633
(5)	-11.9635
\"];\	-11.9637
▁Hav	-11.9638
▁cumulative	-11.964
▁loops	-11.9643
)?\	-11.9645
vision	-11.9647
▁fraud	-11.9648
000	-11.9653
DIRECT	-11.9655
▁Edit	-11.9655
▁Hillary	-11.9655
▁cave	-11.9655
▁CE	-11.9656
▁counsel	-11.9656
nSelect	-11.9657
▁GO	-11.9657
mathrm	-11.9657
hill	-11.9659
▁Quebec	-11.9659
9%	-11.9661
▁genotypes	-11.9665
▁acquire	-11.9665
pool	-11.9669
▁newest	-11.9669
wing	-11.9673
....\	-11.9674
gonal	-11.9676
▁portrait	-11.968
physiological	-11.9681
▁Ana	-11.9684
▁ulcer	-11.9684
▁striking	-11.9685
conic	-11.9685
▁tibia	-11.969
▁bead	-11.9691
▁Hockey	-11.9695
▁hell	-11.9696
▁examin	-11.9697
limit	-11.9697
▁vapor	-11.9698
▁metro	-11.9699
▁Bit	-11.9699
▁suddenly	-11.9699
MIT	-11.97
cation	-11.9701
ancy	-11.9702
oscopy	-11.971
inter	-11.9715
▁regarde	-11.9715
=0$	-11.9719
TIME	-11.972
▁consumed	-11.9722
▁78	-11.9725
▁beetle	-11.9725
!!\	-11.9728
▁numpy	-11.9731
▁Ban	-11.9731
▁titled	-11.9732
▁configurations	-11.9732
nRewrite	-11.9732
4%)	-11.9732
▁NSString	-11.9733
▁fra	-11.9737
Parse	-11.9737
▁fantas	-11.9737
tenant	-11.9738
▁Walk	-11.9738
nextern	-11.9738
{0}	-11.9738
▁exhibition	-11.9739
▁Release	-11.9741
▁roller	-11.9744
▁publishing	-11.9744
stylesheet	-11.9744
Visual	-11.9749
handler	-11.9749
▁progesterone	-11.975
▁fitted	-11.9751
▁alloy	-11.9752
▁holder	-11.9753
▁savings	-11.9756
Don	-11.9757
▁complet	-11.9757
micro	-11.9758
▁trim	-11.9759
▁horror	-11.9761
▁intellectual	-11.9761
guard	-11.9761
▁allergi	-11.9763
▁hemo	-11.9764
▁cock	-11.9764
43	-11.9765
▁builder	-11.9765
▁consultation	-11.9766
gnostic	-11.9768
▁conditional	-11.9769
solution	-11.9773
▁fistula	-11.9774
ET	-11.9775
▁django	-11.9778
otropic	-11.9779
++)\	-11.9779
▁2010\	-11.978
Generic	-11.978
bootstrap	-11.9784
▁proto	-11.9785
thi	-11.9786
▁Tournament	-11.9786
▁Exception	-11.9786
▁Lower	-11.9787
▁Iron	-11.9789
▁140	-11.9789
▁rental	-11.9791
▁ISO	-11.9793
ocyte	-11.9797
▁Hat	-11.9799
▁trait	-11.9799
▁desk	-11.9803
2500	-11.9803
▁wi	-11.9803
▁solving	-11.9803
▁metabolite	-11.9805
▁Explorer	-11.9805
▁tropical	-11.9806
▁comparisons	-11.9806
▁swing	-11.9806
entity	-11.9807
Runtime	-11.981
▁CBS	-11.9811
69	-11.9812
▁Walker	-11.9813
upload	-11.9813
▁Salmon	-11.9816
▁carries	-11.9816
▁publicly	-11.9817
0000	-11.9817
White	-11.9819
▁penalty	-11.9826
URI	-11.9828
taphylococc	-11.9829
▁shirt	-11.9829
▁pharmacokinetic	-11.983
▁Section	-11.9832
▁Specifically	-11.9832
▁invite	-11.9833
▁fastest	-11.9834
safe	-11.9836
profit	-11.9836
▁USE	-11.9837
Utils	-11.9837
▁dollar	-11.9841
rated	-11.9842
exp	-11.9842
nShould	-11.9843
▁SET	-11.9843
▁abortion	-11.9844
▁PH	-11.9845
-18	-11.9847
▁Greate	-11.9848
Simply	-11.9849
▁Jane	-11.9852
84	-11.9855
▁conditioning	-11.9858
▁filename	-11.986
▁lobe	-11.986
▁infiltration	-11.986
cycle	-11.9861
▁detach	-11.9861
▁distributions	-11.9862
▁coat	-11.9863
▁tablets	-11.9863
rank	-11.9867
GE	-11.9867
▁Fo	-11.9869
▁Defense	-11.987
potency	-11.987
▁definitions	-11.987
▁thrown	-11.9872
▁bonding	-11.9872
%2	-11.9872
▁endocrine	-11.9873
▁Include	-11.9874
▁dioxide	-11.9875
enriched	-11.9875
▁polar	-11.9876
▁datetime	-11.9877
fluoro	-11.9877
▁profit	-11.9879
▁apple	-11.988
important	-11.9884
▁Farm	-11.9884
▁consistency	-11.9885
ctic	-11.9885
26,	-11.9886
▁Block	-11.9886
▁intraoperative	-11.9887
}=\\	-11.9889
Japanese	-11.989
arity	-11.989
▁docker	-11.9891
▁pea	-11.9891
▁inactivation	-11.9892
▁dissolve	-11.9892
Folder	-11.9894
Parent	-11.9895
▁counting	-11.9896
Share	-11.9898
fluorescence	-11.9898
▁Appeal	-11.9899
mass	-11.99
▁viewers	-11.99
▁inventory	-11.9903
150	-11.9904
▁headache	-11.9905
255	-11.9906
▁Native	-11.9906
▁struggle	-11.9906
▁begun	-11.9906
▁showcase	-11.9906
▁acidic	-11.9909
▁gather	-11.9909
▁Request	-11.9909
Christopher	-11.991
plugins	-11.9912
nGoogle	-11.9912
39	-11.9913
ploid	-11.9915
▁subtypes	-11.9915
ered	-11.9917
▁precisely	-11.9918
▁moon	-11.9918
▁deeper	-11.9919
▁inspection	-11.9923
nNO	-11.9926
network	-11.9928
groups	-11.9929
▁AWS	-11.9935
encode	-11.9935
▁Dakota	-11.9937
cher	-11.9937
▁leakage	-11.994
▁encouraged	-11.9942
▁fluids	-11.9944
▁strand	-11.9944
▁rotating	-11.9944
▁arrangements	-11.9945
▁Authority	-11.9946
Route	-11.9946
▁foam	-11.9947
webkit	-11.9948
PORT	-11.9948
▁Mor	-11.9951
▁les	-11.9951
nProduct	-11.9952
▁scenarios	-11.9954
▁15%	-11.9956
▁Matthew	-11.9956
▁assemblies	-11.9957
▁Portland	-11.9958
▁5.0	-11.9958
▁shunt	-11.9961
.5%)	-11.9963
cision	-11.9964
▁educated	-11.9966
OUT	-11.9966
▁migrate	-11.9969
:19	-11.9969
50,000	-11.9969
mine	-11.9969
drew	-11.9972
▁seizure	-11.9972
▁searches	-11.9972
mination	-11.9973
▁rent	-11.9974
fully	-11.9974
central	-11.9975
▁2.7	-11.9975
▁transmit	-11.9975
▁cyclo	-11.9976
Comparison	-11.9977
▁electrochemical	-11.9978
▁Duke	-11.998
nEvery	-11.998
Development	-11.9981
▁Print	-11.9983
apis	-11.9984
chrome	-11.9985
▁71	-11.9985
▁Swa	-11.9986
▁Orange	-11.9988
2\"	-11.9988
▁packet	-11.9993
▁reactor	-11.9996
▁Grant	-11.9997
▁CSF	-11.9998
▁pancreas	-11.9999
RAM	-12.0001
success	-12.0002
▁ensur	-12.0003
ones	-12.0004
▁troops	-12.0004
▁convict	-12.0006
▁epidemiological	-12.0009
kind	-12.0009
▁Similar	-12.0009
▁southwest	-12.0013
▁boundaries	-12.0013
Note	-12.0013
eclipse	-12.0013
▁literal	-12.0014
▁juvenile	-12.0015
▁diffraction	-12.0016
▁analyz	-12.0019
}$.	-12.0019
▁mile	-12.0021
▁Shi	-12.0022
▁2007,	-12.0026
▁assumption	-12.0027
▁msg	-12.0027
DateTime	-12.0027
▁shifts	-12.0029
functional	-12.0029
ENV	-12.003
▁behave	-12.0032
exists	-12.0033
▁attitude	-12.0034
nSources	-12.004
▁101	-12.0042
elle	-12.0043
▁fabrication	-12.0044
▁violent	-12.0044
▁capsule	-12.0047
▁Ann	-12.0048
▁crystals	-12.0048
▁shear	-12.005
▁RC	-12.0051
▁Response	-12.0053
2000	-12.0058
▁'%	-12.0058
▁immunological	-12.0061
▁qu	-12.0062
▁stolen	-12.0063
201318	-12.0064
▁Experience	-12.0065
▁Nigeria	-12.0067
Generated	-12.0068
▁collision	-12.0071
▁designers	-12.0073
('/	-12.0074
atum	-12.0077
▁zones	-12.0078
▁(*	-12.0079
▁competitions	-12.0079
▁Dun	-12.008
0)\	-12.008
▁anatomy	-12.008
400	-12.0081
worth	-12.0081
<!	-12.0082
▁milli	-12.0083
▁roster	-12.0084
▁commercially	-12.0087
▁lambda	-12.0088
▁inject	-12.0088
BY	-12.009
▁wrapped	-12.0091
Scope	-12.0093
gram	-12.0094
hawk	-12.0095
▁qui	-12.01
objects	-12.01
▁Jun	-12.0101
▁Body	-12.0101
▁suppress	-12.0104
▁CNS	-12.0104
▁Ky	-12.0104
▁boards	-12.0106
[]\	-12.0106
▁flux	-12.0108
▁73	-12.0109
▁sink	-12.0113
strand	-12.0114
▁weights	-12.0115
▁sprite	-12.0117
▁harder	-12.0119
▁strengthen	-12.0123
▁turnover	-12.0125
▁sept	-12.0125
▁cascade	-12.0127
▁irregular	-12.0128
▁consume	-12.0129
mechanical	-12.0129
▁Lin	-12.013
Kit	-12.013
▁NHL	-12.0131
glial	-12.0132
▁walke	-12.0133
▁threatened	-12.0134
▁Marvel	-12.0135
▁organism	-12.0136
▁parasite	-12.0136
()->	-12.0136
▁threats	-12.0137
ubuntu	-12.0137
▁lessons	-12.0138
▁preservation	-12.0138
express	-12.0139
▁Anna	-12.0139
Option	-12.014
▁disaster	-12.014
▁apoptotic	-12.0141
▁Tan	-12.0141
bal	-12.0143
▁Beck	-12.0145
▁tubes	-12.0151
▁asymmetric	-12.0152
articular	-12.0153
charge	-12.0155
▁extensions	-12.0155
▁EM	-12.0155
loaded	-12.0156
effective	-12.0157
▁hind	-12.0157
▁Customer	-12.0157
▁specimen	-12.0158
▁chromosom	-12.0158
▁iTunes	-12.0158
▁subcutaneous	-12.016
▁genetically	-12.0161
▁outpatient	-12.0161
▁evil	-12.0161
Space	-12.0162
▁1979	-12.0165
▁Together	-12.0167
onine	-12.0168
▁router	-12.0169
▁arg	-12.017
▁scatter	-12.017
Empty	-12.017
▁brillian	-12.0172
▁photographer	-12.0172
issues	-12.0172
\"));	-12.0173
walk	-12.0175
044\	-12.0176
nWatch	-12.0176
forms	-12.0177
▁FS	-12.0177
▁tweeted	-12.0177
events	-12.0178
▁predictions	-12.0179
September	-12.0181
▁concat	-12.0181
/2001	-12.0183
▁Travel	-12.0184
▁recreation	-12.0186
▁trunk	-12.0189
▁Vietnam	-12.0189
▁Property	-12.019
▁derive	-12.019
10\	-12.0192
▁Normal	-12.0193
▁Title	-12.0194
▁gifts	-12.0195
▁drums	-12.0196
▁casting	-12.0196
9),	-12.0197
▁shade	-12.02
(*)	-12.02
▁enrich	-12.02
late	-12.0201
Rect	-12.0201
▁workshop	-12.0202
cross	-12.0202
▁advise	-12.0203
lic	-12.0203
32_	-12.0206
▁formats	-12.0207
▁regards	-12.0207
▁Denmark	-12.0207
▁convince	-12.0208
▁symmetric	-12.0208
▁legacy	-12.0209
Center	-12.0211
▁pregnancies	-12.0211
▁alarm	-12.0211
wned	-12.0215
▁reductase	-12.0216
▁ethical	-12.0217
▁knife	-12.0217
ndmed	-12.0218
invasive	-12.0218
▁volatile	-12.0219
▁quantities	-12.0223
▁Complete	-12.0226
IST	-12.0227
▁malaria	-12.0227
.6%	-12.0229
half	-12.0232
▁POST	-12.0233
▁streams	-12.0233
Details	-12.0234
nInstead	-12.0235
spiration	-12.0236
owing	-12.024
▁OC	-12.0242
Print	-12.0242
▁Got	-12.0245
▁Cop	-12.0246
▁Sever	-12.0248
General	-12.0248
▁everybody	-12.0248
Play	-12.0249
▁folders	-12.0251
▁chromosomes	-12.0251
▁realistic	-12.0253
EventArgs	-12.0255
▁defence	-12.0256
Offset	-12.0256
▁screens	-12.0257
▁Hyper	-12.0258
▁128	-12.0259
▁wrapper	-12.0259
cyclo	-12.0259
▁witnesse	-12.026
Game	-12.0261
▁successive	-12.0262
▁Netflix	-12.0262
▁ministry	-12.0262
ICE	-12.0263
▁transduction	-12.0264
▁Risk	-12.0266
▁Appellee	-12.0266
▁GUI	-12.0267
comments	-12.0267
▁Author	-12.0268
▁Unle	-12.027
▁Record	-12.027
▁attacked	-12.027
▁#2	-12.0271
inline	-12.0271
▁garage	-12.0271
median	-12.0271
▁Files	-12.0273
▁(25	-12.0273
▁angles	-12.0273
▁oven	-12.0273
▁cirrhosis	-12.0275
▁abolished	-12.0276
presumably	-12.0281
▁Return	-12.0281
▁Reading	-12.0285
nThree	-12.0287
▁OUT	-12.0288
▁excitation	-12.0288
▁slice	-12.0288
catch	-12.0288
▁Bishop	-12.0288
ngit	-12.029
▁Morgan	-12.0291
▁enemy	-12.0291
▁emphasize	-12.0291
▁slid	-12.0293
▁76	-12.0296
▁COM	-12.0297
configuration	-12.0297
▁warned	-12.0297
0439	-12.0299
rat	-12.0299
▁transistor	-12.03
▁Danish	-12.03
▁mill	-12.0301
▁sexually	-12.0302
▁quarterback	-12.0303
.7%)	-12.0303
▁ranking	-12.0304
queue	-12.0304
nforeach	-12.0305
▁highway	-12.0307
written	-12.0307
▁enterprise	-12.0308
▁asks	-12.0308
▁Assessment	-12.031
runtime	-12.0311
▁executable	-12.0312
▁listings	-12.0314
immunodeficiency	-12.0315
MY	-12.0315
somal	-12.0315
▁expose	-12.0316
Contact	-12.0317
▁transfusion	-12.0317
▁alveolar	-12.032
▁FP	-12.032
▁workaround	-12.0325
▁img	-12.0326
▁impress	-12.0327
▁laryng	-12.0328
▁journals	-12.0328
▁widget	-12.0331
November	-12.0331
▁balls	-12.0331
▁interst	-12.0334
▁REST	-12.0334
▁beliefs	-12.0335
▁Fourth	-12.0335
▁easie	-12.0338
▁profound	-12.0338
▁Students	-12.034
▁excel	-12.0342
patient	-12.0342
▁linux	-12.0344
▁consuming	-12.0346
▁joints	-12.0346
▁Guard	-12.0347
▁sight	-12.035
▁1978	-12.0351
▁impacts	-12.0352
▁Hills	-12.0353
ried	-12.0354
▁dataset	-12.0354
artifact	-12.0355
▁switches	-12.0355
idiom	-12.0357
Part	-12.0361
▁guns	-12.0362
▁Gil	-12.0364
▁1;	-12.0367
YOUR	-12.0367
pharyng	-12.0367
▁cytometry	-12.0368
▁fluctuation	-12.0368
▁tendon	-12.0368
▁pricing	-12.0368
gaz	-12.0369
talk	-12.037
FL	-12.037
Either	-12.037
BUILD	-12.0371
mitra	-12.0372
▁Financial	-12.0372
▁Basic	-12.0373
▁acceptance	-12.0375
ARCH	-12.0377
Russian	-12.0377
NSString	-12.0379
ION	-12.0384
▁shadow	-12.0385
Report	-12.0386
▁Arena	-12.0386
▁Bangladesh	-12.0389
▁Legislati	-12.0393
▁champions	-12.0394
▁indexes	-12.0394
Four	-12.0398
adjusted	-12.0399
windows	-12.04
▁bomb	-12.04
++;\	-12.0402
▁lamp	-12.0402
▁-->	-12.0404
▁postnatal	-12.0404
▁farmers	-12.0405
ABC	-12.0407
▁outbreak	-12.0408
iza	-12.0412
tch	-12.0412
▁pressures	-12.0414
▁adapti	-12.0417
Security	-12.0418
▁disappeared	-12.0418
▁1971	-12.042
▁Ric	-12.042
nTherefore	-12.0421
▁northwest	-12.0422
▁SN	-12.0423
▁smokers	-12.0428
▁dem	-12.043
lite	-12.043
▁ven	-12.0432
▁blockade	-12.0435
▁nail	-12.0435
▁phosphatidyl	-12.0435
▁cannabis	-12.0438
cHe	-12.0439
▁Prize	-12.044
Arg	-12.0441
company	-12.0443
▁delight	-12.0444
NG	-12.0444
▁Tower	-12.0446
▁Peru	-12.0446
banned	-12.0447
▁Patient	-12.0449
▁confer	-12.0451
cor	-12.0451
▁woode	-12.0452
▁Alaska	-12.0453
Results	-12.0454
Per	-12.0454
▁Dream	-12.0456
▁chi	-12.046
▁vegetables	-12.046
Suprem	-12.0461
▁Boost	-12.0462
▁Come	-12.0464
train	-12.0464
▁sudo	-12.0464
▁browse	-12.0465
▁Settings	-12.0466
▁feelings	-12.0467
▁histologic	-12.047
Consumer	-12.0471
Equal	-12.0471
▁Put	-12.0472
13)	-12.0473
▁alleles	-12.0474
▁prescription	-12.0476
▁carbohydrate	-12.0478
maker	-12.048
commerce	-12.0481
mph	-12.0483
▁Lincoln	-12.0483
▁ceiling	-12.0484
▁alternatives	-12.0484
▁cry	-12.0486
▁Host	-12.0486
▁Fan	-12.0488
▁exam	-12.0489
▁zoo	-12.0489
ulation	-12.049
loading	-12.049
▁bench	-12.049
▁Returns	-12.0491
rial	-12.0494
move	-12.0495
▁familia	-12.0495
▁Race	-12.0495
Storage	-12.0498
▁Reserve	-12.0501
Gary	-12.0501
▁FIG	-12.0502
▁Sai	-12.0503
fixed	-12.0505
▁genre	-12.0506
Math	-12.0507
▁voluntar	-12.0508
▁incredibly	-12.0508
UID	-12.0509
▁honey	-12.0509
▁custody	-12.0511
▁charity	-12.0511
▁rounds	-12.0512
▁globe	-12.0513
▁diminished	-12.0515
▁accordingly	-12.0516
best	-12.0517
▁usefulness	-12.052
2.5	-12.0521
▁Plasma	-12.0522
▁Enterprise	-12.0522
▁motility	-12.0524
▁periodic	-12.0525
▁possesse	-12.0526
▁pressed	-12.0526
▁Tab	-12.0527
TED	-12.0528
argv	-12.0528
▁Mono	-12.053
nSecond	-12.0532
▁mac	-12.0532
▁BT	-12.0534
trim	-12.0535
▁skille	-12.0536
PK	-12.0537
Win	-12.0537
sure	-12.0538
▁strictly	-12.0538
..........	-12.0539
▁chrome	-12.054
Profile	-12.054
▁AG	-12.0541
▁hover	-12.0541
ther	-12.0541
▁phylogenetic	-12.0541
▁diets	-12.0542
▁permits	-12.0542
▁Month	-12.0544
▁copied	-12.0544
▁Switch	-12.0545
▁Liverpool	-12.0546
▁networking	-12.0549
Replace	-12.055
sburg	-12.0551
▁Sand	-12.0552
▁allegations	-12.0555
manager	-12.0556
▁constituency	-12.0556
mandatory	-12.0559
▁wounds	-12.056
oids	-12.0566
nAl	-12.0566
▁transcripts	-12.0566
▁5.5	-12.0567
▁Resources	-12.0567
▁Kur	-12.0568
shadow	-12.0568
▁confusion	-12.0568
▁Com	-12.0569
History	-12.0569
▁painful	-12.0574
▁agonists	-12.0575
hang	-12.0575
▁tune	-12.0577
WIN	-12.0578
▁dataframe	-12.0579
▁Interestingly	-12.0579
fall	-12.0579
▁Peak	-12.058
▁130	-12.0582
▁hydraulic	-12.0582
wordpress	-12.0582
▁Later	-12.0583
▁Hunter	-12.0585
Callback	-12.0587
▁prospectively	-12.0588
▁hospitalized	-12.059
201319	-12.059
▁Fre	-12.0592
padding	-12.0592
▁alien	-12.0592
coding	-12.0595
▁ligament	-12.0596
▁BB	-12.0597
▁departments	-12.0597
▁distinguished	-12.0599
▁Villa	-12.06
▁uncertainty	-12.0601
Dictionary	-12.0603
▁1940	-12.0604
▁Brooklyn	-12.0606
▁Belgium	-12.0606
Vector	-12.0608
▁beef	-12.061
points	-12.061
▁nerves	-12.0612
▁recipes	-12.0613
▁HPLC	-12.0613
Short	-12.0616
kar	-12.0616
▁importantly	-12.0618
ines	-12.0618
▁diese	-12.0619
nUnfortunately	-12.062
▁creatinine	-12.0621
▁123	-12.0622
▁minority	-12.0622
▁Girls	-12.0625
▁Staff	-12.0626
▁Besides	-12.0626
Hz	-12.0626
▁Comparison	-12.0628
ope	-12.0629
▁bullet	-12.063
▁Salt	-12.0631
nPost	-12.0637
▁criticism	-12.0638
iter	-12.0638
▁fibrillation	-12.0639
ldest	-12.064
▁VP	-12.0641
▁Burn	-12.0643
▁swap	-12.0643
▁praise	-12.0643
▁JP	-12.0646
▁sorting	-12.0646
Enabled	-12.0646
▁ajax	-12.0648
checkbox	-12.0649
▁Neuro	-12.065
▁Cost	-12.0652
bank	-12.0653
▁lightweight	-12.0653
▁mixtures	-12.0654
▁Temple	-12.0654
REQUEST	-12.0654
iasis	-12.0655
▁quest	-12.0656
▁BM	-12.0656
ways	-12.0657
▁surveys	-12.0657
▁breakdown	-12.0657
▁devote	-12.0657
▁chances	-12.0659
▁unstable	-12.0662
seven	-12.0663
▁Greg	-12.0664
storage	-12.0665
toggle	-12.0667
▁timeout	-12.0668
Col	-12.0669
around	-12.0669
▁filtering	-12.067
▁decent	-12.067
▁impression	-12.0671
▁slip	-12.0671
▁unfortunately	-12.0672
▁Reference	-12.0673
▁subtle	-12.0673
▁Arabia	-12.0674
ava	-12.0676
DTD	-12.0676
▁stupid	-12.0676
▁Venezuela	-12.0676
▁considerations	-12.0677
▁Django	-12.0678
▁masses	-12.0678
▁adipose	-12.0679
than	-12.0679
▁gastro	-12.0679
▁filing	-12.068
nGood	-12.0681
▁venues	-12.0681
▁tertiary	-12.0681
▁Lang	-12.0683
February	-12.0683
▁fingers	-12.0684
setup	-12.0684
▁cows	-12.0686
▁turbine	-12.0686
▁orbit	-12.0687
▁consult	-12.0689
draw	-12.069
buried	-12.0692
Audio	-12.0692
▁Kenya	-12.0693
▁superoxide	-12.0694
proc	-12.0695
Global	-12.0696
▁Ever	-12.0696
selective	-12.0698
▁Qu	-12.0699
▁1969	-12.07
ovascular	-12.07
▁slope	-12.0701
nuclear	-12.0701
▁ple	-12.0702
▁surgeons	-12.0702
▁Berg	-12.0703
▁hepatocytes	-12.0708
ello	-12.0708
▁2005.	-12.071
▁Rich	-12.0713
Sports	-12.0715
works	-12.0715
GH	-12.0716
Apple	-12.0718
▁quantified	-12.0721
▁lungs	-12.0722
amin	-12.0723
16\	-12.0724
▁Mel	-12.0725
roll	-12.0725
▁headquarters	-12.0725
primary	-12.0728
break	-12.0728
▁coin	-12.0728
▁Front	-12.0729
▁scaling	-12.0729
umab	-12.0729
▁intend	-12.0733
▁160	-12.0733
▁Beijing	-12.0734
▁regimens	-12.0736
▁PV	-12.074
Socket	-12.074
▁lesser	-12.0741
▁Address	-12.0741
▁drinks	-12.0741
▁fasting	-12.0741
▁Albert	-12.0745
▁Left	-12.0746
ROOT	-12.0746
pandas	-12.0749
▁Howard	-12.075
▁Fifth	-12.075
▁Different	-12.0751
"---\	-12.0752
▁silica	-12.0753
▁Angular	-12.0754
▁phenomena	-12.0755
gradle	-12.0757
▁25-	-12.0758
\"},	-12.0762
▁couples	-12.0763
▁END	-12.0764
▁swelling	-12.0764
▁fence	-12.0766
_{\\	-12.0766
▁urea	-12.0769
▁logical	-12.077
▁Had	-12.077
Background	-12.0771
▁(30	-12.0771
▁acceleration	-12.0772
hospital	-12.0772
▁Labour	-12.0773
Just	-12.0775
flex	-12.078
▁Austria	-12.0781
▁compatibility	-12.0782
▁Mississippi	-12.0782
▁Bl	-12.0783
▁alteration	-12.0784
▁Tree	-12.0787
▁Sex	-12.0787
▁Iranian	-12.0788
▁wastewater	-12.0789
shirt	-12.0792
▁WC	-12.0793
▁%{	-12.0793
Tests	-12.0793
Over	-12.0794
▁dreams	-12.0795
dale	-12.0795
Func	-12.0798
▁Baltimore	-12.0798
Analysis	-12.0798
▁babies	-12.0802
Price	-12.0802
▁speeds	-12.0802
▁Nine	-12.0802
▁obstructi	-12.0802
▁'\\	-12.0803
ike	-12.0804
▁Cleveland	-12.0805
▁palm	-12.0806
▁shops	-12.0806
46	-12.0807
subject	-12.0808
counter	-12.0809
%20	-12.081
Full	-12.0812
▁har	-12.0813
same	-12.0814
▁cabinet	-12.0814
▁Lei	-12.0814
integer	-12.0815
▁Tro	-12.0817
▁deadline	-12.0819
▁Increase	-12.082
3)\	-12.0821
▁Justin	-12.0822
▁constraint	-12.0824
▁saturation	-12.0825
101	-12.0826
▁outputs	-12.0827
▁epiderm	-12.0828
▁spotted	-12.0831
▁BD	-12.0832
▁jar	-12.0832
▁Connecticut	-12.0832
▁crossing	-12.0834
secret	-12.0834
▁remodeling	-12.0834
▁"#!/	-12.0836
2017	-12.0839
▁locking	-12.0841
Fiddle	-12.0841
tail	-12.0842
▁muscular	-12.0842
▁Rev	-12.0843
▁vinyl	-12.0844
MAP	-12.0846
-2)	-12.0846
▁contacted	-12.0846
▁18-	-12.0848
▁histamine	-12.0848
▁mappe	-12.085
▁musician	-12.0851
▁2009\	-12.0854
▁theatre	-12.0854
assets	-12.0855
Support	-12.0856
▁paradigm	-12.0856
▁Engine	-12.0857
5).	-12.0857
▁FT	-12.0858
nFinal	-12.0859
IgM	-12.0859
▁MG	-12.0861
▁ArrayList	-12.0865
Are	-12.0867
▁fur	-12.0867
▁IgE	-12.087
▁occasions	-12.087
LL	-12.0871
▁superficial	-12.0872
▁engaging	-12.0876
▁physics	-12.0877
▁agreements	-12.0877
▁lyrics	-12.0877
ACT	-12.0879
▁rein	-12.088
▁conformational	-12.0881
Release	-12.0883
▁pole	-12.0884
▁ESPN	-12.0884
▁MY	-12.0884
▁cisplatin	-12.0887
▁malignancies	-12.0891
▁Fast	-12.0892
▁moisture	-12.0892
▁publisher	-12.0893
▁simpler	-12.0894
▁Pet	-12.0896
▁UP	-12.0897
▁stationary	-12.0898
people	-12.0899
▁Barcelona	-12.0899
▁interviewed	-12.09
▁Rod	-12.09
▁Trail	-12.0901
▁joke	-12.0901
aza	-12.0902
▁Brand	-12.0902
▁Jet	-12.0902
▁inactive	-12.0903
abad	-12.0903
▁Neo	-12.0904
▁Gl	-12.0906
physical	-12.0906
▁stood	-12.0907
oides	-12.0908
wikipedia	-12.0908
▁Sal	-12.0908
▁10,000	-12.0908
packages	-12.0909
▁brake	-12.0912
Program	-12.0914
Bytes	-12.0914
▁Tel	-12.0914
▁Tho	-12.0915
Flora	-12.0916
▁Nation	-12.0916
Songs	-12.0918
▁existed	-12.0919
▁Fl	-12.0919
▁witness	-12.092
▁1930	-12.0922
.4%	-12.0927
64\	-12.0928
▁connectiv	-12.0929
▁2006.	-12.093
STR	-12.0932
▁Count	-12.0933
Schema	-12.0934
▁adequately	-12.0934
▁nationwide	-12.0934
(...)	-12.0935
.5%	-12.0935
Published	-12.0936
▁rotor	-12.0936
shore	-12.0936
▁apologize	-12.094
▁initiate	-12.0941
decoration	-12.0941
▁sophisticated	-12.0942
▁macrophage	-12.0942
vis	-12.0944
▁modalities	-12.0944
▁Gulf	-12.0945
▁insect	-12.0945
logger	-12.0946
ramatically	-12.0947
▁accelerated	-12.0947
dendritic	-12.095
▁'@	-12.095
Added	-12.0951
▁gorgeous	-12.0952
▁Fun	-12.0952
▁tilt	-12.0954
▁assembled	-12.0955
nCurrent	-12.0955
▁Wire	-12.0956
proxy	-12.0957
▁Fish	-12.0959
culture	-12.0959
▁radiographic	-12.0964
01\	-12.0964
Texture	-12.0966
064	-12.0967
nbsp	-12.0968
▁Sarah	-12.0969
▁Clean	-12.0969
▁pub	-12.097
.2%	-12.0971
▁offspring	-12.0972
alert	-12.0973
▁overload	-12.0973
▁drops	-12.0973
Collections	-12.0973
TextView	-12.0975
▁Arch	-12.0976
Operation	-12.0978
0627\	-12.0978
▁Hart	-12.0978
▁tuned	-12.0979
single	-12.0979
▁Chronic	-12.098
▁conduction	-12.0981
▁Sk	-12.0983
▁adoption	-12.0984
▁subtype	-12.0985
BASE	-12.0986
▁atrophy	-12.0987
memory	-12.0988
▁screenshot	-12.0988
▁Studios	-12.0989
echocardiography	-12.099
▁Shar	-12.099
▁charset	-12.099
▁islands	-12.0992
▁shoe	-12.0996
▁Denver	-12.0998
▁handles	-12.0999
▁Ave	-12.1
▁flip	-12.1001
Proxy	-12.1002
▁Individual	-12.1006
▁credentials	-12.1007
▁accommodation	-12.1008
▁polarization	-12.1009
▁Estate	-12.101
▁drone	-12.101
▁Nat	-12.101
pipe	-12.101
▁Del	-12.1012
▁Animal	-12.1012
▁Dim	-12.1015
▁Friends	-12.1015
parser	-12.1017
▁Wind	-12.1018
093	-12.1019
▁brothers	-12.102
IGN	-12.102
▁referral	-12.102
▁jazz	-12.1021
Rivers	-12.1021
mate	-12.1024
▁calibration	-12.1024
▁88	-12.1024
)).	-12.1024
▁nutrient	-12.1026
VO	-12.1029
globulin	-12.103
▁longest	-12.103
▁fertiliz	-12.103
▁Row	-12.1033
▁listener	-12.1034
▁peaks	-12.1034
CNN	-12.1036
▁revolution	-12.1036
cells	-12.1036
▁tolerated	-12.1036
▁Metal	-12.1037
=\"\"	-12.1038
▁collaborative	-12.1038
▁Intra	-12.104
LO	-12.1041
▁distinctive	-12.1042
▁RV	-12.1043
pyridine	-12.1043
nHello	-12.1044
▁Nor	-12.1044
fix	-12.1048
▁representatives	-12.1048
▁Consequently	-12.1048
acked	-12.1049
▁pathologic	-12.1051
▁worn	-12.1052
▁Kit	-12.1052
lyte	-12.1055
▁microwave	-12.1055
wanted	-12.1055
▁Client	-12.1056
TNF	-12.1062
▁84	-12.1062
▁(<	-12.1062
7).	-12.1063
▁digestion	-12.1064
▁Deep	-12.1065
▁analogue	-12.1065
▁digest	-12.1066
2016	-12.1066
▁Alberta	-12.1066
▁contracts	-12.1069
▁cage	-12.1074
▁redox	-12.1074
▁reload	-12.1075
▁afraid	-12.1075
▁cytoplasm	-12.1076
▁Sin	-12.1078
▁pride	-12.1079
▁unlock	-12.108
Rows	-12.1081
▁capacitor	-12.1082
▁coagulation	-12.1085
opathy	-12.1085
nPhoto	-12.1086
guid	-12.1086
▁Visit	-12.1087
Hash	-12.109
▁pathophysiology	-12.1091
tha	-12.1091
protocol	-12.1092
▁burning	-12.1095
variant	-12.1096
▁2.8	-12.1096
▁Delta	-12.1097
dots	-12.1098
▁Fly	-12.11
▁directors	-12.1101
▁Changes	-12.1102
▁habits	-12.1102
▁preventive	-12.1103
pressing	-12.1106
erial	-12.1106
ime	-12.1107
▁blockchain	-12.1107
▁okay	-12.1108
▁Buy	-12.1114
Story	-12.1116
blo	-12.1116
▁DH	-12.1116
.4%)	-12.1118
▁norm	-12.1122
4.\	-12.1123
SDS	-12.1124
wrapper	-12.1125
▁satisfy	-12.1125
wards	-12.1126
▁OH	-12.1127
▁75%	-12.1127
▁tire	-12.1127
pair	-12.1128
▁Previous	-12.1129
sheet	-12.1129
Flags	-12.1132
▁folding	-12.1134
▁placeholder	-12.1135
▁Cho	-12.1138
▁friction	-12.1139
▁lac	-12.1139
▁Fifty	-12.1141
▁nations	-12.1142
▁catalyze	-12.1144
vel	-12.1146
▁preferential	-12.1149
▁%)	-12.1149
▁portfolio	-12.115
▁neutrophil	-12.115
EXT	-12.1151
relative	-12.1153
etamine	-12.1154
▁notifications	-12.1155
door	-12.1156
▁Nic	-12.1157
▁RS	-12.1158
▁monolayer	-12.1159
▁Char	-12.116
▁(50	-12.116
Example	-12.1161
▁twist	-12.1163
▁deputy	-12.1163
▁Cruz	-12.1166
▁Bible	-12.1167
ense	-12.1169
▁maximize	-12.117
▁CK	-12.117
▁auction	-12.1171
editor	-12.1172
CODE	-12.1173
▁prophylaxis	-12.1173
nQuestion	-12.1173
▁intermittent	-12.1175
election	-12.1175
▁wrist	-12.1175
=\"1\"	-12.1176
▁anticipated	-12.1176
▁Personal	-12.1177
▁bucket	-12.1177
▁relay	-12.1177
dimethyl	-12.1178
▁FIF	-12.1179
▁Carl	-12.118
days	-12.118
▁responsiveness	-12.1182
▁suppressor	-12.1183
▁definitive	-12.1186
0105	-12.1186
nJoin	-12.1187
Msg	-12.1187
▁neutrophils	-12.1187
console	-12.1187
checked	-12.1189
nChange	-12.1189
▁ROS	-12.1189
lands	-12.119
▁phenotypes	-12.1192
▁metadata	-12.1193
▁skull	-12.1194
▁angiogenesis	-12.1194
Former	-12.1195
▁salary	-12.1196
▁Dynamic	-12.1197
HIV	-12.1198
enabled	-12.1199
lay	-12.1201
▁drum	-12.1201
▁Hay	-12.1202
▁lady	-12.1202
ester	-12.1206
(@	-12.1209
stein	-12.1209
▁spec	-12.1209
▁paragraph	-12.1209
▁Portugal	-12.1211
idase	-12.1212
Women	-12.1212
rian	-12.1213
ASH	-12.1215
▁[1	-12.1215
Pool	-12.1216
▁Rat	-12.1216
▁transporte	-12.1217
▁confine	-12.1219
▁pending	-12.1219
▁Liberal	-12.1219
Doc	-12.122
views	-12.1221
▁bases	-12.1222
▁phenotypic	-12.1223
▁Ok	-12.1224
▁creator	-12.1227
nWho	-12.123
▁2006,	-12.1231
Cond	-12.1231
chir	-12.1231
▁Nova	-12.1232
Xml	-12.1233
▁allograft	-12.1233
▁env	-12.1235
▁centres	-12.1236
▁circum	-12.1236
▁Xcode	-12.1237
▁Montreal	-12.1238
RY	-12.1238
▁hypertrophy	-12.1238
▁sensation	-12.1238
.3%)	-12.1239
rick	-12.1241
nBiography	-12.1241
▁precede	-12.1241
Lock	-12.1244
▁teen	-12.1245
▁amplifier	-12.1245
▁lethal	-12.1245
▁strap	-12.1245
▁surprising	-12.1246
▁assessments	-12.1247
▁Jenn	-12.1248
0433	-12.125
▁midfielder	-12.1254
▁Everything	-12.1255
2008	-12.1255
▁Pok	-12.1256
;}\	-12.1258
▁Learning	-12.1258
Admin	-12.1261
250	-12.1261
▁homogeneous	-12.1262
▁anime	-12.1263
▁cultivar	-12.1264
▁glioma	-12.1264
Dynamic	-12.1266
Kind	-12.1266
producing	-12.1267
▁dozen	-12.1269
▁independence	-12.1271
▁Below	-12.1272
▁favour	-12.1272
▁Something	-12.1272
VER	-12.1273
ked	-12.1275
▁Sometimes	-12.1275
▁algebra	-12.1276
{1}	-12.1277
elic	-12.1278
shop	-12.1281
▁semantic	-12.1282
wait	-12.1283
nEmail	-12.1286
▁debugging	-12.1286
▁HO	-12.1289
▁amyloid	-12.129
▁Mode	-12.1292
▁spokesperson	-12.1292
▁Mission	-12.1293
Person	-12.1294
2009	-12.1295
LIST	-12.13
▁tabs	-12.13
▁signalling	-12.13
switch	-12.1301
hex	-12.1301
▁wires	-12.1301
lett	-12.1302
▁Thread	-12.1303
mal	-12.1303
▁incidents	-12.1305
▁Cre	-12.1306
Foundation	-12.1307
bearing	-12.1307
▁Nevada	-12.1308
▁graphene	-12.1308
▁Mars	-12.1308
into	-12.1308
sexual	-12.1311
▁shit	-12.1312
▁theories	-12.1313
▁formatting	-12.1315
▁dairy	-12.1316
▁Size	-12.1316
▁affiliate	-12.1317
aceae	-12.1318
.6%)	-12.1321
2019.\	-12.1322
▁1968	-12.1324
trophic	-12.1324
ovi	-12.1325
▁visualization	-12.1326
▁philosophy	-12.1326
▁empirical	-12.1327
▁92	-12.1327
seconds	-12.1327
helper	-12.1328
6).	-12.1333
Word	-12.1334
▁stained	-12.1335
▁biomass	-12.1335
▁Bro	-12.1336
Scale	-12.1337
▁contaminated	-12.1339
TOR	-12.1339
▁tale	-12.1339
Same	-12.134
Yes	-12.134
rum	-12.1341
nDate	-12.1341
Handle	-12.1342
▁Ven	-12.1342
▁sequel	-12.1345
▁Step	-12.1345
▁Days	-12.1346
chloro	-12.1347
ators	-12.1348
▁0.001	-12.1351
▁mega	-12.1353
Cross	-12.1353
▁durable	-12.1354
▁UC	-12.1355
▁worried	-12.1356
Perfect	-12.1356
▁([	-12.1358
aemia	-12.1358
▁contractil	-12.1361
Join	-12.1362
▁glaucoma	-12.1362
Major	-12.1362
▁Gro	-12.1364
▁Highe	-12.1365
▁Nothing	-12.1366
▁flights	-12.1367
0144	-12.1367
▁shorten	-12.1369
City	-12.1369
▁anomalies	-12.1369
dirty	-12.137
▁recommendation	-12.1374
▁balanced	-12.1375
statin	-12.1377
▁overnight	-12.1378
datetime	-12.1379
▁Coach	-12.138
omatic	-12.1381
ERS	-12.1383
▁Demo	-12.1385
▁reject	-12.1387
▁terrorist	-12.1388
Thomas	-12.1388
▁Drop	-12.1389
▁identifier	-12.1389
directed	-12.1392
.1%	-12.1392
▁EF	-12.14
▁Things	-12.1401
decode	-12.1401
enhanced	-12.1402
▁fabricated	-12.1404
▁immunization	-12.1405
aging	-12.1408
▁discontinu	-12.1409
UV	-12.1409
▁facebook	-12.1411
▁Bruce	-12.1412
▁WordPress	-12.1413
▁belief	-12.1414
isible	-12.1414
Flow	-12.1414
▁Communications	-12.1416
perl	-12.1417
▁salivar	-12.1417
lower	-12.1418
▁dismissed	-12.1421
▁genuine	-12.1423
Single	-12.1423
▁alloc	-12.1423
HOST	-12.1424
▁rocket	-12.1424
par	-12.1424
▁inadequate	-12.1425
▁firms	-12.1425
sociation	-12.1425
(\"/	-12.1425
▁letting	-12.1428
▁sends	-12.1429
mond	-12.143
▁SK	-12.1431
1',	-12.1431
▁normalize	-12.1433
unique	-12.1434
socket	-12.1435
▁ventricle	-12.1435
typeof	-12.1436
bug	-12.1437
distance	-12.144
▁toilet	-12.1441
▁Think	-12.1441
▁Chile	-12.1441
Copy	-12.1442
▁penetration	-12.1442
▁spare	-12.1443
-->\	-12.1445
▁isoforms	-12.1446
▁stiffness	-12.1446
▁analogues	-12.1447
Objects	-12.1449
▁affiliated	-12.145
▁eclipse	-12.1452
Mail	-12.1453
▁fruits	-12.1455
=\"#	-12.1457
aceti	-12.1459
▁crimes	-12.1459
▁questionnaires	-12.1461
▁bat	-12.1463
)),	-12.1465
▁Score	-12.1465
▁Lane	-12.1467
OX	-12.147
▁meals	-12.1471
rium	-12.1471
▁cha	-12.1473
▁HB	-12.1476
inositol	-12.1476
docker	-12.1477
▁chromatograph	-12.1477
▁talented	-12.1478
wage	-12.1478
▁disadvantages	-12.148
11)	-12.1481
PUBLIC	-12.1482
▁Maine	-12.1482
▁Alan	-12.1482
▁Cam	-12.1483
ising	-12.1484
nWill	-12.1484
▁cube	-12.1486
did	-12.1488
▁Comments	-12.1489
▁MPs	-12.149
▁dat	-12.1492
nDim	-12.1493
▁hormonal	-12.1493
temporarily	-12.1494
adrenergic	-12.1495
\"}	-12.1495
yyyy	-12.1498
▁girlfriend	-12.1499
Social	-12.1504
▁versatile	-12.1504
![	-12.1505
agent	-12.1506
▁Hawaii	-12.1507
alias	-12.1507
cho	-12.1508
▁expire	-12.1509
▁Democrat	-12.1509
INE	-12.151
▁Dragon	-12.151
▁Rhod	-12.1511
▁achievement	-12.1512
▁Available	-12.1512
▁abandoned	-12.1513
QL	-12.1513
▁antitumo	-12.1515
▁Path	-12.1515
links	-12.1515
ONE	-12.1518
▁Bus	-12.1519
▁Bon	-12.1521
▁Movie	-12.1521
therapeutic	-12.1523
▁amid	-12.1526
▁exponential	-12.1527
▁advocate	-12.1527
▁sweat	-12.1527
▁claiming	-12.1528
▁reflux	-12.153
▁plugins	-12.153
▁delays	-12.153
▁mammals	-12.1531
pages	-12.1537
dependencies	-12.1538
▁Glass	-12.154
...]	-12.154
ech	-12.1544
▁engineers	-12.1544
▁seventh	-12.1544
▁subgroups	-12.1546
stackoverflow	-12.1546
▁simplified	-12.1546
▁eine	-12.1547
nHigh	-12.1551
▁Alt	-12.1551
oblastoma	-12.1551
Rule	-12.1554
nNext	-12.1555
nPosted	-12.1557
1928	-12.1557
▁HDL	-12.1558
▁aligned	-12.1558
▁shifte	-12.1559
▁LM	-12.1559
latest	-12.1561
▁cas	-12.1562
(2-	-12.1563
▁cor	-12.1564
aque	-12.1566
▁lowered	-12.1567
Second	-12.1568
sign	-12.1568
▁Baker	-12.157
production	-12.157
▁McG	-12.1571
nstatic	-12.1571
▁Municipality	-12.1571
▁annually	-12.1571
cover	-12.1571
▁peroxidase	-12.1572
SOURCE	-12.1572
▁Palestinian	-12.1573
ossil	-12.1573
=\"0\"	-12.1574
▁Forum	-12.1575
▁parsing	-12.1575
▁valves	-12.1578
Theme	-12.1578
▁Nepal	-12.1578
Android	-12.158
▁washing	-12.1582
▁automobile	-12.1583
substituted	-12.1583
▁1973	-12.1585
▁iteration	-12.1585
▁hematopoietic	-12.1586
details	-12.1587
Like	-12.1588
Member	-12.159
▁WO	-12.159
▁unaffected	-12.159
RO	-12.1592
GSH	-12.1593
▁revised	-12.1593
▁Sale	-12.1594
Parameters	-12.1595
▁Chamber	-12.1597
period	-12.1597
ight	-12.1597
▁lengths	-12.1598
▁staying	-12.1598
▁sham	-12.16
▁Clear	-12.16
▁Frankl	-12.1601
▁Sep	-12.1601
.2%)	-12.1602
▁3.2	-12.1604
▁\"\"	-12.1604
▁transitions	-12.1605
nUp	-12.1606
avi	-12.1609
▁joins	-12.1609
Sheet	-12.1611
▁lawyers	-12.1612
Pixel	-12.1613
▁Mother	-12.1613
▁parser	-12.1614
▁hereby	-12.1615
▁pizza	-12.1615
▁arrow	-12.1617
stones	-12.1617
feature	-12.1617
▁trap	-12.162
▁visualize	-12.162
flags	-12.1621
ARD	-12.1621
press	-12.1624
▁Bond	-12.1627
Need	-12.1627
▁grows	-12.1629
▁MK	-12.1629
▁overweight	-12.1633
▁purchasing	-12.1634
nCall	-12.1634
▁hyperplasia	-12.1635
▁Style	-12.1635
▁aerobic	-12.1637
▁bugs	-12.164
arrow	-12.1643
ocytosis	-12.1647
ock	-12.1647
established	-12.165
▁Ros	-12.1651
▁ribosom	-12.1651
▁merged	-12.1654
nSuppo	-12.1654
Mobile	-12.1656
▁81	-12.1658
ometer	-12.166
bytes	-12.166
Quick	-12.1661
▁launching	-12.1661
▁diagram	-12.1662
▁anastomos	-12.1663
logo	-12.1663
RGB	-12.1667
▁steering	-12.1668
▁histone	-12.1669
▁Tur	-12.1669
▁dispersion	-12.1669
▁backend	-12.167
▁slices	-12.1671
bred	-12.1672
▁gains	-12.1672
pub	-12.1672
THER	-12.1672
Life	-12.1674
▁accessory	-12.1674
worthy	-12.1677
\"\"\"\	-12.1678
UN	-12.1683
thermal	-12.1684
.3%	-12.1685
▁Warren	-12.1685
▁Fla	-12.1686
-60	-12.1687
Lib	-12.1688
ales	-12.169
▁lupus	-12.1691
dirname	-12.1691
please	-12.1691
▁rewrite	-12.1692
effect	-12.1692
projects	-12.1694
▁Gra	-12.1695
nFinally	-12.1695
▁directories	-12.1699
▁transporter	-12.17
-2.0	-12.17
▁warnings	-12.1702
▁Books	-12.1703
▁thorough	-12.1705
▁alkyl	-12.1707
lice	-12.1709
nWould	-12.1712
Scheme	-12.1712
5)\	-12.1713
▁electronics	-12.1713
▁-*-	-12.1716
▁spoken	-12.1716
lifting	-12.1716
▁secreted	-12.1716
mathb	-12.1716
contains	-12.1717
▁HBV	-12.1719
AGE	-12.1719
▁NASA	-12.1719
▁Var	-12.1721
▁tick	-12.1722
▁bite	-12.1723
(1-	-12.1724
scripts	-12.1724
▁Cut	-12.1727
=1\	-12.1727
▁Stream	-12.1727
Variant	-12.1728
▁Bed	-12.1729
▁DT	-12.1729
▁globally	-12.1729
volume	-12.1731
Selected	-12.1731
▁programmes	-12.1732
Family	-12.1732
▁2%	-12.1732
responsive	-12.1733
virtual	-12.1734
working	-12.1738
▁inequality	-12.1738
3,000	-12.1742
▁heade	-12.1745
▁profession	-12.1746
▁approached	-12.1748
▁Ranger	-12.1748
▁Der	-12.1749
▁cop	-12.1749
eren	-12.1751
▁encouraging	-12.1753
▁Raman	-12.1753
nRecent	-12.1753
▁14-	-12.1755
▁Shan	-12.1755
▁cargo	-12.1756
basic	-12.1756
Intent	-12.1758
hook	-12.1759
nBasically	-12.1759
10.	-12.1759
▁conceptual	-12.176
▁Ste	-12.176
▁phyto	-12.176
▁universities	-12.1761
▁inappropriate	-12.1761
ental	-12.1764
▁manga	-12.1766
▁proximity	-12.1766
▁1961	-12.1766
▁Plant	-12.1767
▁scratch	-12.1768
expected	-12.1769
gle	-12.1771
flag	-12.1772
customer	-12.1772
▁})	-12.1777
▁Labor	-12.1778
▁agenda	-12.178
▁Meanwhile	-12.178
▁analgesic	-12.1781
▁occupied	-12.1782
>::	-12.1783
CON	-12.1783
▁chromatin	-12.1783
▁cleared	-12.1784
wick	-12.1786
▁oocytes	-12.1786
▁reperfusion	-12.1787
▁Croatia	-12.1787
▁sealed	-12.1789
▁powers	-12.1789
▁monkeys	-12.1796
▁Products	-12.1796
nThus	-12.1797
nOutput	-12.1798
▁Dean	-12.1801
▁defend	-12.1801
▁spontaneously	-12.1801
paste	-12.1802
▁basement	-12.1802
uck	-12.1803
prod	-12.1803
▁OTHER	-12.1803
▁compensate	-12.1804
▁brackets	-12.1804
▁Original	-12.1807
▁Lie	-12.1808
▁Anne	-12.1809
cum	-12.181
▁consultant	-12.1812
▁PRO	-12.1814
▁picking	-12.1816
nMen	-12.1816
222	-12.1816
▁Captain	-12.1819
▁scrap	-12.1819
▁Rating	-12.1821
▁BL	-12.1821
cle	-12.1822
oriented	-12.1823
PEG	-12.1825
▁propagation	-12.1825
▁renew	-12.1826
▁grave	-12.1827
Double	-12.1827
('../	-12.1827
smith	-12.1828
▁spam	-12.183
electromagnetic	-12.1831
▁Alliance	-12.1834
▁compromise	-12.1837
modified	-12.1837
owski	-12.1837
▁grateful	-12.1837
▁Literature	-12.1838
nContact	-12.1839
▁LS	-12.1841
umbi	-12.1841
▁essay	-12.1846
Has	-12.1846
▁Chairman	-12.1849
▁Tools	-12.1851
▁pioneer	-12.1852
▁Unity	-12.1853
dermal	-12.1853
dobe	-12.1853
lex	-12.1853
▁Pittsburgh	-12.1855
Want	-12.1855
▁Git	-12.1856
▁Specific	-12.1857
▁inch	-12.1857
Personnel	-12.1857
▁GPS	-12.1857
}</	-12.1858
▁spa	-12.186
Float	-12.186
▁'#	-12.1862
quinone	-12.1863
NMDA	-12.1863
▁shake	-12.1866
VR	-12.1866
▁sanction	-12.1866
▁conform	-12.1866
▁oxy	-12.1867
nStep	-12.1867
▁Orleans	-12.1867
ABLE	-12.1869
nHav	-12.187
▁Default	-12.187
▁freely	-12.1874
noid	-12.1875
OPT	-12.1876
Job	-12.1877
▁pursue	-12.1878
▁Hampshire	-12.1879
drug	-12.1883
▁.001)	-12.1886
▁2011.	-12.1886
▁glycoprotein	-12.1887
!==	-12.1891
▁3.3	-12.1892
▁pulses	-12.1892
▁87	-12.1893
▁coronavirus	-12.1893
▁Wat	-12.1894
USA	-12.1896
▁audit	-12.1897
▁105	-12.1898
▁thirty	-12.1898
▁acuity	-12.19
▁visc	-12.1901
2020	-12.1901
▁harmoni	-12.1902
mask	-12.1905
▁donations	-12.1906
Pointer	-12.1908
▁postoperatively	-12.1913
plane	-12.1914
▁3.1	-12.1916
▁Fame	-12.1916
▁cation	-12.1916
▁icons	-12.1921
Other	-12.1921
▁cleaner	-12.1922
▁"/**\	-12.1923
▁Soccer	-12.1924
▁banner	-12.1924
▁influenc	-12.1925
words	-12.1925
▁goat	-12.1927
▁runner	-12.1927
▁patches	-12.1928
▁Ant	-12.1934
▁journalists	-12.1934
▁nominated	-12.1936
Policy	-12.1936
▁actresses	-12.1936
▁Epi	-12.1938
▁Golf	-12.1939
▁Ras	-12.194
▁KEY	-12.194
yang	-12.1941
▁schemes	-12.1942
▁varchar	-12.1942
allow	-12.1944
ith	-12.1946
boy	-12.1946
▁fibroblast	-12.1947
▁nearest	-12.1949
TABLE	-12.1949
nwhat	-12.1949
▁XP	-12.1949
066\	-12.1951
▁marking	-12.1951
nUnder	-12.1952
▁Events	-12.1952
termed	-12.1953
▁IgA	-12.1954
▁Turn	-12.1954
[...]
